{"i\u2581n": 0, "t\u2581h": 1, "a\u2581n": 2, "r\u2581e": 3, "a\u2581r": 4, "e\u2581r": 5, "th\u2581e</w>": 6, "in\u2581g</w>": 7, "o\u2581u": 8, "o\u2581n": 9, "s\u2581t": 10, "o\u2581r": 11, "e\u2581n": 12, "o\u2581n</w>": 13, "a\u2581l": 14, "a\u2581t": 15, "e\u2581r</w>": 16, "i\u2581t": 17, "i\u2581n</w>": 18, "t\u2581o</w>": 19, "r\u2581o": 20, "i\u2581s</w>": 21, "l\u2581e": 22, "i\u2581c": 23, "a\u2581t</w>": 24, "an\u2581d</w>": 25, "e\u2581d</w>": 26, "o\u2581f</w>": 27, "c\u2581h": 28, "o\u2581r</w>": 29, "e\u2581s</w>": 30, "i\u2581l": 31, "e\u2581l": 32, "s\u2581t</w>": 33, "a\u2581c": 34, "o\u2581m": 35, "a\u2581m": 36, "l\u2581o": 37, "a\u2581n</w>": 38, "a\u2581y</w>": 39, "s\u2581h": 40, "r\u2581i": 41, "l\u2581i": 42, "t\u2581i": 43, "f\u2581or</w>": 44, "n\u2581e": 45, "\u00f0\u2581\u0141": 46, "r\u2581a": 47, "h\u2581a": 48, "d\u2581e": 49, "o\u2581l": 50, "v\u2581e</w>": 51, "s\u2581i": 52, "u\u2581r": 53, "a\u2581l</w>": 54, "s\u2581e": 55, "'\u2581s</w>": 56, "u\u2581n": 57, "d\u2581i": 58, "b\u2581e": 59, "l\u2581a": 60, "w\u2581h": 61, "o\u2581o": 62, "d\u2581ay</w>": 63, "e\u2581n</w>": 64, "m\u2581a": 65, "n\u2581o": 66, "l\u2581e</w>": 67, "t\u2581o": 68, "ou\u2581r</w>": 69, "i\u2581r": 70, "g\u2581h": 71, "w\u2581it": 72, "i\u2581t</w>": 73, "y\u2581o": 74, "a\u2581s": 75, "s\u2581p": 76, "th\u2581is</w>": 77, "t\u2581s</w>": 78, "at\u2581i": 79, "yo\u2581u</w>": 80, "wit\u2581h</w>": 81, "a\u2581d": 82, "i\u2581s": 83, "a\u2581b": 84, "l\u2581y</w>": 85, "w\u2581e": 86, "th\u2581e": 87, "t\u2581e": 88, "a\u2581s</w>": 89, "a\u2581g": 90, "v\u2581i": 91, "p\u2581p": 92, "s\u2581u": 93, "h\u2581o": 94, "m\u2581y</w>": 95, ".\u2581.": 96, "b\u2581u": 97, "c\u2581om": 98, "s\u2581e</w>": 99, "er\u2581s</w>": 100, "m\u2581e": 101, "m\u2581e</w>": 102, "al\u2581l</w>": 103, "c\u2581on": 104, "m\u2581o": 105, "k\u2581e</w>": 106, "g\u2581e": 107, "ou\u2581t</w>": 108, "en\u2581t</w>": 109, "c\u2581o": 110, "f\u2581e": 111, "v\u2581er": 112, "a\u2581r</w>": 113, "f\u2581ro": 114, "a\u2581u": 115, "p\u2581o": 116, "c\u2581e</w>": 117, "gh\u2581t</w>": 118, "ar\u2581e</w>": 119, "s\u2581s</w>": 120, "fro\u2581m</w>": 121, "c\u2581h</w>": 122, "t\u2581r": 123, "ou\u2581n": 124, "on\u2581e</w>": 125, "b\u2581y</w>": 126, "d\u2581o": 127, "t\u2581h</w>": 128, "w\u2581or": 129, "er\u2581e</w>": 130, "k\u2581e": 131, "p\u2581ro": 132, "f\u2581or": 133, "d\u2581s</w>": 134, "b\u2581o": 135, "t\u2581a": 136, "w\u2581e</w>": 137, "g\u2581o": 138, "h\u2581e": 139, "t\u2581er</w>": 140, "in\u2581g": 141, "d\u2581e</w>": 142, "b\u2581e</w>": 143, "ati\u2581on</w>": 144, "m\u2581or": 145, "a\u2581y": 146, "e\u2581x": 147, "il\u2581l</w>": 148, "p\u2581e": 149, "k\u2581s</w>": 150, "s\u2581c": 151, "l\u2581u": 152, "f\u2581u": 153, "q\u2581u": 154, "v\u2581er</w>": 155, "\u00f0\u0141\u2581\u013a": 156, "j\u2581u": 157, "m\u2581u": 158, "at\u2581e</w>": 159, "an\u2581d": 160, "v\u2581e": 161, "k\u2581ing</w>": 162, "m\u2581ar": 163, "o\u2581p": 164, "h\u2581i": 165, "..\u2581.</w>": 166, "p\u2581re": 167, "a\u2581d</w>": 168, "r\u2581u": 169, "th\u2581at</w>": 170, "j\u2581o": 171, "o\u2581f": 172, "c\u2581e": 173, "ne\u2581w</w>": 174, "a\u2581m</w>": 175, "a\u2581p": 176, "g\u2581re": 177, "s\u2581s": 178, "d\u2581u": 179, "no\u2581w</w>": 180, "y\u2581e": 181, "t\u2581ing</w>": 182, "y\u2581our</w>": 183, "it\u2581y</w>": 184, "n\u2581i": 185, "c\u2581i": 186, "p\u2581ar": 187, "g\u2581u": 188, "f\u2581i": 189, "a\u2581f": 190, "p\u2581er": 191, "t\u2581er": 192, "u\u2581p</w>": 193, "s\u2581o</w>": 194, "g\u2581i": 195, "on\u2581s</w>": 196, "g\u2581r": 197, "g\u2581e</w>": 198, "b\u2581r": 199, "p\u2581l": 200, "'\u2581t</w>": 201, "m\u2581i": 202, "in\u2581e</w>": 203, "we\u2581e": 204, "b\u2581i": 205, "u\u2581s</w>": 206, "sh\u2581o": 207, "ha\u2581ve</w>": 208, "to\u2581day</w>": 209, "a\u2581v": 210, "m\u2581an": 211, "en\u2581t": 212, "ac\u2581k</w>": 213, "ur\u2581e</w>": 214, "ou\u2581r": 215, "\u00e2\u2581\u0122": 216, "c\u2581u": 217, "l\u2581d</w>": 218, "lo\u2581o": 219, "i\u2581m": 220, "ic\u2581e</w>": 221, "s\u2581om": 222, "f\u2581in": 223, "re\u2581d</w>": 224, "re\u2581n": 225, "oo\u2581d</w>": 226, "w\u2581as</w>": 227, "ti\u2581on</w>": 228, "p\u2581i": 229, "i\u2581r</w>": 230, "th\u2581er</w>": 231, "t\u2581y</w>": 232, "p\u2581h": 233, "ar\u2581d</w>": 234, "e\u2581c": 235, "!\u2581!</w>": 236, "m\u2581on": 237, "mor\u2581e</w>": 238, "w\u2581ill</w>": 239, "t\u2581ra": 240, "c\u2581an</w>": 241, "c\u2581ol": 242, "p\u2581u": 243, "t\u2581e</w>": 244, "w\u2581n</w>": 245, "m\u2581b": 246, "s\u2581o": 247, "it\u2581i": 248, "ju\u2581st</w>": 249, "n\u2581ing</w>": 250, "h\u2581ere</w>": 251, "t\u2581u": 252, "p\u2581a": 253, "p\u2581r": 254, "bu\u2581t</w>": 255, "wh\u2581at</w>": 256, "al\u2581ly</w>": 257, "f\u2581ir": 258, "m\u2581in": 259, "c\u2581a": 260, "an\u2581t</w>": 261, "s\u2581a": 262, "t\u2581ed</w>": 263, "e\u2581v": 264, "m\u2581ent</w>": 265, "f\u2581a": 266, "ge\u2581t</w>": 267, "am\u2581e</w>": 268, "ab\u2581out</w>": 269, "g\u2581ra": 270, "no\u2581t</w>": 271, "ha\u2581pp": 272, "ay\u2581s</w>": 273, "m\u2581an</w>": 274, "h\u2581is</w>": 275, "ti\u2581me</w>": 276, "li\u2581ke</w>": 277, "g\u2581h</w>": 278, "ha\u2581s</w>": 279, "th\u2581an": 280, "lo\u2581ve</w>": 281, "ar\u2581t</w>": 282, "st\u2581e": 283, "d\u2581ing</w>": 284, "h\u2581e</w>": 285, "c\u2581re": 286, "w\u2581s</w>": 287, "w\u2581at": 288, "d\u2581er</w>": 289, "it\u2581e</w>": 290, "s\u2581er": 291, "ac\u2581e</w>": 292, "ag\u2581e</w>": 293, "en\u2581d</w>": 294, "st\u2581r": 295, "a\u2581w": 296, "st\u2581or": 297, "r\u2581e</w>": 298, "c\u2581ar": 299, "el\u2581l</w>": 300, "al\u2581l": 301, "p\u2581s</w>": 302, "f\u2581ri": 303, "p\u2581ho": 304, "p\u2581or": 305, "d\u2581o</w>": 306, "a\u2581k": 307, "w\u2581i": 308, "f\u2581re": 309, "wh\u2581o</w>": 310, "sh\u2581i": 311, "b\u2581oo": 312, "s\u2581on</w>": 313, "el\u2581l": 314, "wh\u2581en</w>": 315, "il\u2581l": 316, "ho\u2581w</w>": 317, "gre\u2581at</w>": 318, "w\u2581in": 319, "e\u2581l</w>": 320, "b\u2581l": 321, "s\u2581si": 322, "al\u2581i": 323, "som\u2581e</w>": 324, "\u00f0\u0141\u2581\u0134": 325, "t\u2581on": 326, "d\u2581er": 327, "le\u2581s</w>": 328, "p\u2581la": 329, "\u00ef\u2581\u00b8": 330, "e\u2581d": 331, "s\u2581ch": 332, "h\u2581u": 333, "on\u2581g</w>": 334, "d\u2581on</w>": 335, "k\u2581i": 336, "s\u2581h</w>": 337, "an\u2581n": 338, "c\u2581or": 339, ".\u2581.</w>": 340, "oun\u2581d</w>": 341, "a\u2581z": 342, "in\u2581e": 343, "ar\u2581y</w>": 344, "fu\u2581l</w>": 345, "st\u2581u": 346, "ou\u2581ld</w>": 347, "st\u2581i": 348, "g\u2581o</w>": 349, "se\u2581e</w>": 350, "ab\u2581le</w>": 351, "ar\u2581s</w>": 352, "l\u2581l</w>": 353, "m\u2581is": 354, "b\u2581er": 355, "c\u2581k</w>": 356, "w\u2581a": 357, "en\u2581ts</w>": 358, "n\u2581o</w>": 359, "si\u2581g": 360, "f\u2581e</w>": 361, "fir\u2581st</w>": 362, "e\u2581t</w>": 363, "sp\u2581e": 364, "ac\u2581k": 365, "i\u2581f</w>": 366, "ou\u2581s</w>": 367, "'\u2581m</w>": 368, "st\u2581er</w>": 369, "a\u2581pp": 370, "an\u2581g": 371, "an\u2581ce</w>": 372, "an\u2581s</w>": 373, "g\u2581ood</w>": 374, "b\u2581re": 375, "e\u2581ver": 376, "the\u2581y</w>": 377, "t\u2581ic": 378, "com\u2581e</w>": 379, "of\u2581f": 380, "b\u2581ack</w>": 381, "as\u2581e</w>": 382, "ing\u2581s</w>": 383, "ol\u2581d</w>": 384, "i\u2581ght</w>": 385, "f\u2581o": 386, "h\u2581er</w>": 387, "happ\u2581y</w>": 388, "p\u2581ic": 389, "it\u2581s</w>": 390, "v\u2581ing</w>": 391, "u\u2581s": 392, "m\u2581at": 393, "h\u2581om": 394, "d\u2581y</w>": 395, "e\u2581m": 396, "s\u2581k": 397, "y\u2581ing</w>": 398, "the\u2581ir</w>": 399, "le\u2581d</w>": 400, "r\u2581y</w>": 401, "u\u2581l": 402, "h\u2581ar": 403, "c\u2581k": 404, "t\u2581on</w>": 405, "on\u2581al</w>": 406, "h\u2581el": 407, "r\u2581ic": 408, "b\u2581ir": 409, "vi\u2581e": 410, "w\u2581ay</w>": 411, "t\u2581ri": 412, "d\u2581a": 413, "p\u2581le": 414, "b\u2581ro": 415, "st\u2581o": 416, "oo\u2581l</w>": 417, "ni\u2581ght</w>": 418, "tr\u2581u": 419, "b\u2581a": 420, "re\u2581ad": 421, "re\u2581s</w>": 422, "ye\u2581ar</w>": 423, "f\u2581r": 424, "t\u2581or": 425, "al\u2581s</w>": 426, "c\u2581oun": 427, "c\u2581la": 428, "t\u2581ure</w>": 429, "v\u2581el": 430, "at\u2581ed</w>": 431, "le\u2581c": 432, "en\u2581d": 433, "th\u2581ing</w>": 434, "v\u2581o": 435, "ic\u2581i": 436, "be\u2581st</w>": 437, "c\u2581an": 438, "wor\u2581k</w>": 439, "la\u2581st</w>": 440, "af\u2581ter</w>": 441, "en\u2581ce</w>": 442, "p\u2581ri": 443, "p\u2581e</w>": 444, "e\u2581s": 445, "i\u2581l</w>": 446, "\u00e2\u0122\u2581\u00a6</w>": 447, "d\u2581re": 448, "y\u2581s</w>": 449, "o\u2581ver</w>": 450, "i\u2581es</w>": 451, "\u00f0\u0141\u2581\u0133": 452, "com\u2581m": 453, "t\u2581w": 454, "in\u2581k</w>": 455, "s\u2581un": 456, "c\u2581l": 457, "li\u2581fe</w>": 458, "t\u2581t": 459, "a\u2581ch": 460, "l\u2581and</w>": 461, "s\u2581y": 462, "t\u2581re": 463, "t\u2581al": 464, "p\u2581ol": 465, "s\u2581m": 466, "du\u2581c": 467, "s\u2581al": 468, "f\u2581t</w>": 469, "'\u2581re</w>": 470, "ch\u2581e": 471, "w\u2581ar": 472, "t\u2581ur": 473, "ati\u2581ons</w>": 474, "ac\u2581h</w>": 475, "m\u2581s</w>": 476, "il\u2581e</w>": 477, "p\u2581m</w>": 478, "ou\u2581gh</w>": 479, "at\u2581e": 480, "st\u2581ar": 481, "wee\u2581k</w>": 482, "!\u2581!!</w>": 483, "c\u2581lu": 484, "th\u2581ere</w>": 485, "n\u2581er</w>": 486, "t\u2581om": 487, "s\u2581el": 488, "\u00ef\u00b8\u2581\u0131</w>": 489, "wor\u2581ld</w>": 490, "v\u2581es</w>": 491, "c\u2581am": 492, "go\u2581t</w>": 493, "in\u2581ter": 494, "of\u2581f</w>": 495, "u\u2581m</w>": 496, "ton\u2581ight</w>": 497, "o\u2581ther</w>": 498, "h\u2581ou": 499, "loo\u2581k</w>": 500, "j\u2581e": 501, "i\u2581d</w>": 502, "si\u2581on</w>": 503, "be\u2581au": 504, "at\u2581t": 505, "el\u2581i": 506, "or\u2581t</w>": 507, "re\u2581c": 508, "f\u2581f": 509, "st\u2581er": 510, "su\u2581pp": 511, "g\u2581en": 512, "be\u2581en</w>": 513, "il\u2581y</w>": 514, "te\u2581am</w>": 515, "m\u2581m": 516, "i\u2581c</w>": 517, "pe\u2581op": 518, "it\u2581t": 519, "at\u2581s</w>": 520, "on\u2581ly</w>": 521, "mb\u2581er</w>": 522, "en\u2581g": 523, "b\u2581ri": 524, "m\u2581p": 525, "k\u2581now</w>": 526, "b\u2581ur": 527, "b\u2581ar": 528, "in\u2581s</w>": 529, "lo\u2581w</w>": 530, "sh\u2581e</w>": 531, "ro\u2581w</w>": 532, "\u00e2\u2581\u013f": 533, "t\u2581ro": 534, "peop\u2581le</w>": 535, "vi\u2581a</w>": 536, "lo\u2581w": 537, "ag\u2581a": 538, "be\u2581t": 539, "x\u2581t</w>": 540, "f\u2581ac": 541, "ch\u2581ar": 542, "e\u2581ar": 543, "w\u2581al": 544, "s\u2581en": 545, "f\u2581am": 546, "b\u2581le</w>": 547, "n\u2581ati": 548, "is\u2581h</w>": 549, "n\u2581or": 550, "g\u2581ame</w>": 551, "li\u2581ve</w>": 552, "s\u2581co": 553, "le\u2581y</w>": 554, "d\u2581on": 555, "ic\u2581k</w>": 556, "b\u2581all</w>": 557, "ver\u2581y</w>": 558, "the\u2581se</w>": 559, "p\u2581an": 560, "i\u2581a</w>": 561, "at\u2581ing</w>": 562, "c\u2581r": 563, "a\u2581re": 564, "g\u2581ir": 565, "ma\u2581ke</w>": 566, "st\u2581re": 567, "sho\u2581w</w>": 568, ".\u2581\"</w>": 569, "f\u2581l": 570, "u\u2581p": 571, "d\u2581r": 572, "than\u2581ks</w>": 573, "il\u2581li": 574, "w\u2581om": 575, "st\u2581s</w>": 576, "i\u2581g": 577, "s\u2581ur": 578, "ever\u2581y": 579, "c\u2581ur": 580, "vie\u2581w</w>": 581, "le\u2581t</w>": 582, "in\u2581to</w>": 583, "mo\u2581st</w>": 584, "n\u2581a": 585, "in\u2581di": 586, "g\u2581ar": 587, "ha\u2581d</w>": 588, "s\u2581ou": 589, "v\u2581ed</w>": 590, "an\u2581t": 591, "iti\u2581on</w>": 592, "ma\u2581de</w>": 593, "f\u2581ol": 594, "un\u2581i": 595, "it\u2581ed</w>": 596, "\u00f0\u0141\u2581\u0131": 597, "ic\u2581al</w>": 598, "th\u2581r": 599, "read\u2581y</w>": 600, "ch\u2581ec": 601, "d\u2581ra": 602, "k\u2581es</w>": 603, "boo\u2581k</w>": 604, "e\u2581p</w>": 605, "si\u2581c</w>": 606, "mor\u2581ning</w>": 607, "ne\u2581ws</w>": 608, "c\u2581au": 609, "c\u2581t</w>": 610, "w\u2581ell</w>": 611, "an\u2581c": 612, "pho\u2581to</w>": 613, "th\u2581an</w>": 614, "or\u2581s</w>": 615, "bir\u2581th": 616, "g\u2581g": 617, "ou\u2581t": 618, "ne\u2581xt</w>": 619, "som\u2581e": 620, "en\u2581ing</w>": 621, "stor\u2581y</w>": 622, "ch\u2581ri": 623, "do\u2581wn</w>": 624, "hom\u2581e</w>": 625, "f\u2581fe": 626, "fre\u2581e</w>": 627, "d\u2581a</w>": 628, "b\u2581or": 629, "f\u2581il": 630, "ci\u2581al</w>": 631, "than\u2581k</w>": 632, "si\u2581de</w>": 633, "le\u2581ar": 634, "qu\u2581e": 635, "l\u2581ine</w>": 636, "t\u2581en": 637, "at\u2581es</w>": 638, "ye\u2581ars</w>": 639, "m\u2581y": 640, "pho\u2581to": 641, "beau\u2581ti": 642, "ri\u2581ght</w>": 643, "n\u2581u": 644, "for\u2581m": 645, "shi\u2581p</w>": 646, "b\u2581an": 647, "th\u2581er": 648, "d\u2581ays</w>": 649, "g\u2581am": 650, "as\u2581on</w>": 651, "g\u2581y</w>": 652, "\u00f0\u0141\u2581\u0130": 653, "birth\u2581day</w>": 654, "se\u2581t</w>": 655, "ic\u2581k": 656, "e\u2581t": 657, "st\u2581ill</w>": 658, "com\u2581ing</w>": 659, "ta\u2581ke</w>": 660, "\u00f0\u0141\u2581\u0129": 661, "b\u2581b": 662, "s\u2581ol": 663, "s\u2581on": 664, "d\u2581en": 665, "e\u2581p": 666, "mu\u2581sic</w>": 667, "the\u2581m</w>": 668, "de\u2581n</w>": 669, "wh\u2581y</w>": 670, "f\u2581oo": 671, "c\u2581ra": 672, "am\u2581az": 673, "w\u2581n": 674, "h\u2581ol": 675, "t\u2581ting</w>": 676, "w\u2581r": 677, "u\u2581e</w>": 678, "ma\u2581g": 679, "c\u2581ro": 680, "l\u2581an": 681, "c\u2581lo": 682, "b\u2581ra": 683, "a\u2581k</w>": 684, "s\u2581ing</w>": 685, "c\u2581al": 686, "re\u2581ad</w>": 687, "'\u2581ve</w>": 688, "jo\u2581h": 689, "b\u2581ab": 690, "d\u2581ri": 691, "b\u2581lo": 692, "bi\u2581g</w>": 693, "er\u2581ic": 694, "in\u2581t</w>": 695, "t\u2581or</w>": 696, "tr\u2581y</w>": 697, "l\u2581a</w>": 698, "le\u2581g": 699, "hou\u2581se</w>": 700, "m\u2581ic": 701, "v\u2581al": 702, "beauti\u2581ful</w>": 703, "l\u2581itt": 704, "chec\u2581k</w>": 705, "ne\u2581w": 706, "ver\u2581s": 707, "s\u2581w": 708, "ar\u2581i": 709, "pla\u2581y": 710, "h\u2581er": 711, "\u00e2\u0122\u2581\u0135</w>": 712, "w\u2581in</w>": 713, "m\u2581a</w>": 714, "con\u2581gr": 715, "sch\u2581ool</w>": 716, "f\u2581un": 717, ".\u2581@</w>": 718, "he\u2581al": 719, "ic\u2581h</w>": 720, "d\u2581el": 721, "wh\u2581ere</w>": 722, "l\u2581on": 723, "ke\u2581t</w>": 724, "tw\u2581o</w>": 725, "mu\u2581ch</w>": 726, "wat\u2581ch</w>": 727, "v\u2581en": 728, "d\u2581ed</w>": 729, "a\u2581st</w>": 730, "k\u2581ed</w>": 731, "b\u2581as": 732, "go\u2581ing</w>": 733, "m\u2581p</w>": 734, "e\u2581ver</w>": 735, "w\u2581ays</w>": 736, "ro\u2581o": 737, "de\u2581sig": 738, "l\u2581y": 739, "s\u2581ed</w>": 740, "to\u2581p</w>": 741, "l\u2581in": 742, "ch\u2581an": 743, "to\u2581o</w>": 744, "it\u2581ing</w>": 745, "d\u2581ent</w>": 746, "gh\u2581ts</w>": 747, "t\u2581y": 748, "sp\u2581o": 749, "ne\u2581ed</w>": 750, "b\u2581lu": 751, "in\u2581st": 752, "be\u2581ing</w>": 753, "\u00e2\u013f\u2581\u00a4": 754, "w\u2581el": 755, "l\u2581s</w>": 756, "hi\u2581m</w>": 757, "m\u2581ay</w>": 758, "st\u2581ing</w>": 759, "n\u2581a</w>": 760, "el\u2581y</w>": 761, "litt\u2581le</w>": 762, "g\u2581a": 763, "n\u2581at": 764, "tom\u2581or": 765, "m\u2581c": 766, "h\u2581on": 767, "w\u2581ant</w>": 768, "a\u2581ir": 769, "pi\u2581c</w>": 770, "am\u2581eric": 771, "p\u2581er</w>": 772, "le\u2581ss</w>": 773, "wee\u2581k": 774, "ve\u2581l</w>": 775, "a\u2581h</w>": 776, "c\u2581ap": 777, "ch\u2581am": 778, "g\u2581er": 779, "ti\u2581m": 780, "tomor\u2581row</w>": 781, "ne\u2581ss</w>": 782, "st\u2581ate</w>": 783, "h\u2581al": 784, "ser\u2581v": 785, "z\u2581e</w>": 786, "o\u2581s</w>": 787, "p\u2581at": 788, "v\u2581is": 789, "ex\u2581c": 790, "s\u2581in": 791, "f\u2581f</w>": 792, "c\u2581ity</w>": 793, "c\u2581en": 794, "an\u2581y": 795, "b\u2581el": 796, "su\u2581mm": 797, "t\u2581in": 798, "w\u2581ould</w>": 799, "loo\u2581king</w>": 800, "k\u2581o": 801, "ce\u2581le": 802, "fam\u2581ily</w>": 803, "m\u2581er": 804, "po\u2581w": 805, "hel\u2581p</w>": 806, "bu\u2581s": 807, "c\u2581o</w>": 808, "c\u2581le": 809, "sel\u2581f</w>": 810, "en\u2581s</w>": 811, "ic\u2581s</w>": 812, "th\u2581o": 813, "an\u2581i": 814, "ch\u2581o": 815, "le\u2581ad": 816, "b\u2581s</w>": 817, "t\u2581wee": 818, "th\u2581ink</w>": 819, "for\u2581e</w>": 820, "ch\u2581il": 821, "vi\u2581de": 822, "di\u2581d</w>": 823, "al\u2581e</w>": 824, "ch\u2581i": 825, "v\u2581il": 826, "en\u2581ds</w>": 827, "w\u2581ing</w>": 828, "p\u2581as": 829, "'\u2581ll</w>": 830, "v\u2581ol": 831, "s\u2581a</w>": 832, "g\u2581s</w>": 833, "man\u2581y</w>": 834, "j\u2581ec": 835, "be\u2581fore</w>": 836, "gra\u2581ph": 837, "n\u2581y</w>": 838, "ur\u2581ing</w>": 839, "w\u2581il": 840, "d\u2581d": 841, "bu\u2581il": 842, "f\u2581av": 843, "st\u2581ed</w>": 844, "tr\u2581an": 845, "l\u2581ing</w>": 846, "ou\u2581d</w>": 847, "d\u2581ge</w>": 848, "fi\u2581el": 849, "nati\u2581onal</w>": 850, "st\u2581a": 851, "c\u2581er": 852, "w\u2581ere</w>": 853, "in\u2581a</w>": 854, "se\u2581ason</w>": 855, "c\u2581ou": 856, "n\u2581ed</w>": 857, "amaz\u2581ing</w>": 858, "ti\u2581ons</w>": 859, "cele\u2581br": 860, "n\u2581s</w>": 861, "a\u2581th": 862, "he\u2581ad</w>": 863, "s\u2581day</w>": 864, "d\u2581ar": 865, "lo\u2581c": 866, "v\u2581in": 867, "an\u2581other</w>": 868, "g\u2581oo": 869, "s\u2581at": 870, "n\u2581y": 871, "jo\u2581in</w>": 872, "pre\u2581s": 873, "s\u2581es</w>": 874, "s\u2581ing": 875, "an\u2581a</w>": 876, "in\u2581ing</w>": 877, "..\u2581..</w>": 878, "c\u2581our": 879, "\u00ef\u00b8\u2581\u0131": 880, "ac\u2581t</w>": 881, "cau\u2581se</w>": 882, "li\u2581ght</w>": 883, "am\u2581s</w>": 884, "t\u2581a</w>": 885, "b\u2581al": 886, "f\u2581c</w>": 887, "hi\u2581gh</w>": 888, "off\u2581ici": 889, "t\u2581t</w>": 890, "chri\u2581st": 891, "d\u2581ic": 892, "d\u2581ay": 893, "ra\u2581l</w>": 894, "h\u2581or": 895, ":\u2581)</w>": 896, "vi\u2581si": 897, "n\u2581am": 898, "o\u2581b": 899, "ma\u2581s</w>": 900, "gh\u2581t": 901, "re\u2581ally</w>": 902, "t\u2581un": 903, "fin\u2581d</w>": 904, "thr\u2581ough</w>": 905, "por\u2581t</w>": 906, "u\u2581t": 907, "ti\u2581ve</w>": 908, "st\u2581y": 909, "n\u2581e</w>": 910, "or\u2581e</w>": 911, "\u00f0\u0141\u013a\u2581\u0124": 912, "supp\u2581ort</w>": 913, "ne\u2581ver</w>": 914, "ev\u2581en</w>": 915, "\u00f0\u0141\u2581\u0136": 916, "h\u2581a</w>": 917, "y\u2581a</w>": 918, "l\u2581d": 919, "u\u2581k</w>": 920, "r\u2581an": 921, "j\u2581am": 922, "wi\u2581th": 923, "me\u2581di": 924, "d\u2581es</w>": 925, "ne\u2581y</w>": 926, "ch\u2581ing</w>": 927, "al\u2581e": 928, "h\u2581y": 929, "k\u2581in": 930, "!\u2581!": 931, "d\u2581y": 932, "pl\u2581ace</w>": 933, "al\u2581so</w>": 934, "b\u2581le": 935, "wh\u2581ich</w>": 936, "bl\u2581ack</w>": 937, "b\u2581li": 938, "s\u2581ay</w>": 939, "par\u2581k</w>": 940, "pl\u2581ay</w>": 941, "ir\u2581e</w>": 942, "vide\u2581o</w>": 943, "week\u2581end</w>": 944, "a\u2581il": 945, "ke\u2581y</w>": 946, "p\u2581t</w>": 947, "w\u2581ard</w>": 948, "fri\u2581day</w>": 949, "d\u2581in": 950, "ine\u2581ss</w>": 951, "g\u2581ro": 952, "b\u2581en": 953, "al\u2581ways</w>": 954, "t\u2581ball</w>": 955, "ag\u2581o</w>": 956, "m\u2581il": 957, "c\u2581y": 958, "pro\u2581duc": 959, "di\u2581sc": 960, "un\u2581der": 961, "ple\u2581ase</w>": 962, "sp\u2581or": 963, "fu\u2581ll</w>": 964, "e\u2581y</w>": 965, "\u00f0\u0141\u2581\u013b": 966, "is\u2581e</w>": 967, "iti\u2581es</w>": 968, "c\u2581at": 969, "k\u2581no": 970, "u\u2581se</w>": 971, "fo\u2581re": 972, "k\u2581er</w>": 973, "ar\u2581t": 974, "hi\u2581gh": 975, "op\u2581en</w>": 976, "s\u2581an": 977, "e\u2581f": 978, "our\u2581s</w>": 979, "sh\u2581ed</w>": 980, "st\u2581ri": 981, "d\u2581ro": 982, "aga\u2581in</w>": 983, "i\u2581m</w>": 984, "\u00f0\u0141\u2581\u0135": 985, "en\u2581jo": 986, "fu\u2581n</w>": 987, "ge\u2581tting</w>": 988, "p\u2581en": 989, "g\u2581er</w>": 990, "c\u2581li": 991, "an\u2581y</w>": 992, "ever\u2581y</w>": 993, "e\u2581u": 994, "wom\u2581en</w>": 995, "\u00e2\u2581\u013e": 996, "e\u2581st</w>": 997, "c\u2581ould</w>": 998, "r\u2581y": 999, "\"\u2581@</w>": 1000, "th\u2581ou": 1001, "sh\u2581a": 1002, "comm\u2581un": 1003, "b\u2581er</w>": 1004, "d\u2581ents</w>": 1005, "di\u2581s": 1006, "wh\u2581ile</w>": 1007, "aw\u2581ay</w>": 1008, "di\u2581o</w>": 1009, "h\u2581am": 1010, "g\u2581la": 1011, "d\u2581ate</w>": 1012, "k\u2581a</w>": 1013, "mis\u2581s</w>": 1014, "un\u2581ch</w>": 1015, "w\u2581on": 1016, "in\u2581f": 1017, "roo\u2581m</w>": 1018, "g\u2581a</w>": 1019, "re\u2581al</w>": 1020, "ex\u2581per": 1021, "di\u2581rec": 1022, "sh\u2581ould</w>": 1023, "sp\u2581r": 1024, "g\u2581ol": 1025, "l\u2581ong</w>": 1026, "bet\u2581ter</w>": 1027, "or\u2581i": 1028, "e\u2581y": 1029, "i\u2581ence</w>": 1030, "il\u2581s</w>": 1031, "z\u2581z": 1032, "h\u2581an": 1033, "f\u2581ound</w>": 1034, "v\u2581s</w>": 1035, "\u00e2\u2581\u013b": 1036, "po\u2581st</w>": 1037, "ti\u2581c</w>": 1038, "par\u2581t</w>": 1039, "m\u2581en": 1040, "ren\u2581ce</w>": 1041, "ce\u2581ss</w>": 1042, "v\u2581ic": 1043, "s\u2581il": 1044, "sho\u2581p</w>": 1045, "\u00f0\u0141\u013a\u2581\u0124</w>": 1046, "f\u2581ood</w>": 1047, "v\u2581al</w>": 1048, "sti\u2581c</w>": 1049, "y\u2581ou": 1050, "s\u2581ays</w>": 1051, "e\u2581lec": 1052, "st\u2581ar</w>": 1053, "o\u2581c": 1054, "l\u2581and": 1055, "i\u2581d": 1056, "c\u2581tion</w>": 1057, "fiel\u2581d</w>": 1058, "s\u2581of": 1059, "st\u2581art</w>": 1060, "wat\u2581er</w>": 1061, "fri\u2581ends</w>": 1062, "on\u2581es</w>": 1063, "\u00f0\u0141\u2581\u012e": 1064, "f\u2581la": 1065, "f\u2581ar": 1066, "wh\u2581ite</w>": 1067, "par\u2581ty</w>": 1068, "in\u2581st</w>": 1069, "gr\u2581ou": 1070, "t\u2581v</w>": 1071, "every\u2581one</w>": 1072, "m\u2581ent": 1073, "j\u2581a": 1074, "ch\u2581a": 1075, "pr\u2581in": 1076, "an\u2581ts</w>": 1077, "d\u2581uring</w>": 1078, "l\u2581at": 1079, "l\u2581ar": 1080, "we\u2581st</w>": 1081, "th\u2581en</w>": 1082, "k\u2581a": 1083, "y\u2581oun": 1084, "in\u2581sp": 1085, "in\u2581te": 1086, "we\u2581en</w>": 1087, "visi\u2581t</w>": 1088, "aga\u2581inst</w>": 1089, "re\u2581le": 1090, "he\u2581ad": 1091, "c\u2581es</w>": 1092, "to\u2581wn</w>": 1093, "loo\u2581ks</w>": 1094, "th\u2581re": 1095, "re\u2581gi": 1096, "ren\u2581t</w>": 1097, "pro\u2581jec": 1098, "gir\u2581l</w>": 1099, "se\u2581ar": 1100, "w\u2581o": 1101, "m\u2581om": 1102, "c\u2581ar</w>": 1103, "h\u2581un": 1104, "pu\u2581bli": 1105, "d\u2581i</w>": 1106, "p\u2581le</w>": 1107, "c\u2581all</w>": 1108, "c\u2581ri": 1109, "u\u2581m": 1110, "for\u2581d</w>": 1111, "per\u2581fe": 1112, "fri\u2581end</w>": 1113, "h\u2581ard</w>": 1114, "ssi\u2581on</w>": 1115, "te\u2581st</w>": 1116, "pla\u2581ying</w>": 1117, "ar\u2581ound</w>": 1118, "be\u2581cause</w>": 1119, "ke\u2581ts</w>": 1120, "me\u2581et</w>": 1121, "sat\u2581ur": 1122, "ar\u2581ti": 1123, "wor\u2581k": 1124, "j\u2581un": 1125, "v\u2581en</w>": 1126, "r\u2581un": 1127, "me\u2581mber</w>": 1128, "por\u2581t": 1129, "su\u2581per": 1130, "t\u2581wit": 1131, "s\u2581am": 1132, "el\u2581s</w>": 1133, "t\u2581ly</w>": 1134, "ad\u2581v": 1135, "ati\u2581ve</w>": 1136, "at\u2581h</w>": 1137, "s\u2581ure</w>": 1138, "av\u2581ail": 1139, "la\u2581r</w>": 1140, "s\u2581qu": 1141, "ar\u2581ds</w>": 1142, "ev\u2581ent</w>": 1143, "m\u2581en</w>": 1144, "l\u2581l": 1145, "o\u2581ver": 1146, "lo\u2581gy</w>": 1147, "it\u2581al</w>": 1148, "tim\u2581es</w>": 1149, "m\u2581al": 1150, "b\u2581ack": 1151, "c\u2581oo": 1152, "ma\u2581king</w>": 1153, "st\u2581ru": 1154, "\u00e2\u2581\u0123": 1155, "it\u2581u": 1156, "sh\u2581ar": 1157, "g\u2581an</w>": 1158, "c\u2581as": 1159, "s\u2581n": 1160, "summ\u2581er</w>": 1161, "pic\u2581ture</w>": 1162, "f\u2581an": 1163, "h\u2581in": 1164, "christ\u2581mas</w>": 1165, "c\u2581y</w>": 1166, "pr\u2581oud</w>": 1167, "cham\u2581pi": 1168, "desig\u2581n</w>": 1169, "pp\u2581ing</w>": 1170, "ho\u2581pe</w>": 1171, "c\u2581a</w>": 1172, "avail\u2581able</w>": 1173, "ma\u2581y": 1174, "we\u2581d": 1175, "photo\u2581graph": 1176, "spe\u2581cial</w>": 1177, "sal\u2581e</w>": 1178, "sto\u2581p</w>": 1179, "er\u2581y</w>": 1180, "a\u2581we": 1181, "al\u2581ity</w>": 1182, "hi\u2581story</w>": 1183, "am\u2581a</w>": 1184, "pre\u2581si": 1185, "b\u2581ru": 1186, "wor\u2581king</w>": 1187, "d\u2581one</w>": 1188, "d\u2581r</w>": 1189, "k\u2581en</w>": 1190, "fe\u2581at": 1191, "w\u2581ood</w>": 1192, "ate\u2581st</w>": 1193, "sun\u2581day</w>": 1194, "mo\u2581vi": 1195, "vel\u2581y</w>": 1196, "s\u2581le": 1197, "f\u2581ace</w>": 1198, "sp\u2581ec": 1199, "stu\u2581dents</w>": 1200, "b\u2581y": 1201, "ha\u2581m</w>": 1202, "sp\u2581on": 1203, "bus\u2581iness</w>": 1204, "d\u2581at": 1205, "i\u2581e</w>": 1206, "i\u2581p": 1207, "so\u2581ci": 1208, "g\u2581lo": 1209, "h\u2581and": 1210, "re\u2581cor": 1211, "r\u2581s</w>": 1212, "me\u2581e": 1213, "ke\u2581ep</w>": 1214, "p\u2581ur": 1215, "heal\u2581th</w>": 1216, "sh\u2581e": 1217, "com\u2581ple": 1218, "go\u2581d</w>": 1219, "da\u2581vi": 1220, "col\u2581lec": 1221, "li\u2581st": 1222, "r\u2581a</w>": 1223, "clu\u2581b</w>": 1224, "t\u2581ers</w>": 1225, "in\u2581clu": 1226, "th\u2581ings</w>": 1227, "pl\u2581an": 1228, "\u00e2\u2581\u013a": 1229, "joh\u2581n</w>": 1230, "sh\u2581ing</w>": 1231, "at\u2581ul": 1232, "so\u2581on</w>": 1233, "blu\u2581e</w>": 1234, "g\u2581or": 1235, "satur\u2581day</w>": 1236, "w\u2581on</w>": 1237, "congr\u2581atul": 1238, "se\u2581e": 1239, "\u00e2\u013f\u00a4\u2581\u00ef\u00b8\u0131</w>": 1240, "tho\u2581se</w>": 1241, "\u00f0\u0141\u013a\u2581\u012f</w>": 1242, "fin\u2581al</w>": 1243, "d\u2581ou": 1244, "it\u2581h</w>": 1245, "o\u2581wn</w>": 1246, "ro\u2581ad</w>": 1247, "t\u2581our</w>": 1248, "a\u2581st": 1249, "indi\u2581a</w>": 1250, "ti\u2581l</w>": 1251, "n\u2581d</w>": 1252, "f\u2581er": 1253, "fav\u2581or": 1254, "su\u2581l": 1255, "lear\u2581n</w>": 1256, "fir\u2581e</w>": 1257, "ju\u2581st": 1258, "grou\u2581p</w>": 1259, "a\u2581h": 1260, "r\u2581ac": 1261, "bo\u2581dy</w>": 1262, "u\u2581r</w>": 1263, "c\u2581are</w>": 1264, "\u00e0\u2581\u00b8": 1265, "p\u2581lo": 1266, "o\u2581h</w>": 1267, "po\u2581s": 1268, "gi\u2581ve</w>": 1269, "te\u2581ch": 1270, "su\u2581b": 1271, "c\u2581ent": 1272, "er\u2581ing</w>": 1273, "y\u2581m": 1274, "il\u2581ity</w>": 1275, "f\u2581ic": 1276, "lon\u2581don</w>": 1277, "v\u2581ir": 1278, "gu\u2581ys</w>": 1279, "b\u2581a</w>": 1280, "\u00f0\u0141\u2581\u00a4": 1281, "bab\u2581y</w>": 1282, "sc\u2581re": 1283, "\u00f0\u0141\u013a\u2581\u012f": 1284, "tru\u2581mp</w>": 1285, "un\u2581der</w>": 1286, "chan\u2581ge</w>": 1287, "i\u2581an</w>": 1288, "col\u2581le": 1289, "ss\u2581es</w>": 1290, "l\u2581er</w>": 1291, "ss\u2581ed</w>": 1292, "n\u2581ice</w>": 1293, "ann\u2581oun": 1294, "pow\u2581er</w>": 1295, "s\u2581ar": 1296, "a\u2581king</w>": 1297, "min\u2581i": 1298, "s\u2581li": 1299, "s\u2581wee": 1300, "k\u2581ar": 1301, "fu\u2581l": 1302, "c\u2581ru": 1303, "ac\u2581tion</w>": 1304, "a\u2581ther</w>": 1305, ")\u2581.</w>": 1306, "st\u2581and": 1307, "de\u2581vel": 1308, "a\u2581a": 1309, "g\u2581an": 1310, "le\u2581ft</w>": 1311, "lo\u2581l</w>": 1312, "re\u2581l": 1313, "tran\u2581s": 1314, "m\u2581ents</w>": 1315, "in\u2581t": 1316, "e\u2581f</w>": 1317, "man\u2581ag": 1318, "di\u2581g": 1319, "gen\u2581er": 1320, "do\u2581wn": 1321, "p\u2581au": 1322, "ti\u2581v": 1323, "k\u2581u": 1324, "th\u2581ur": 1325, "k\u2581en": 1326, "st\u2581on</w>": 1327, "f\u2581ans</w>": 1328, "tal\u2581k</w>": 1329, "twee\u2581t</w>": 1330, "t\u2581oo": 1331, "sty\u2581le</w>": 1332, "pro\u2581te": 1333, "se\u2581con": 1334, "fr\u2581on": 1335, "awe\u2581some</w>": 1336, "g\u2581l": 1337, "p\u2581al": 1338, "ne\u2581t": 1339, "s\u2581or": 1340, "la\u2581u": 1341, "g\u2581on": 1342, "sin\u2581ce</w>": 1343, "t\u2581ty</w>": 1344, "ser\u2581ies</w>": 1345, "me\u2581mor": 1346, "b\u2581eli": 1347, "fil\u2581m</w>": 1348, "di\u2581d": 1349, "di\u2581es</w>": 1350, "o\u2581t": 1351, "congratul\u2581ations</w>": 1352, "p\u2581ra": 1353, "e\u2581ve</w>": 1354, "w\u2581oo": 1355, "offici\u2581al</w>": 1356, "su\u2581c": 1357, "in\u2581cre": 1358, "b\u2581on": 1359, "par\u2581t": 1360, "pp\u2581ed</w>": 1361, "cla\u2581ss</w>": 1362, "si\u2581ve</w>": 1363, "bo\u2581y</w>": 1364, "cu\u2581l": 1365, "perfe\u2581ct</w>": 1366, "t\u2581ou": 1367, "d\u2581am": 1368, "wel\u2581come</w>": 1369, "foo\u2581tball</w>": 1370, "h\u2581i</w>": 1371, "p\u2581ap": 1372, "wa\u2581it</w>": 1373, "ad\u2581a</w>": 1374, "congr\u2581ats</w>": 1375, "youn\u2581g</w>": 1376, "exc\u2581ited</w>": 1377, "re\u2581ce": 1378, "j\u2581an": 1379, "v\u2581a</w>": 1380, "re\u2581d": 1381, "st\u2581ra": 1382, "medi\u2581a</w>": 1383, "'\u2581d</w>": 1384, "do\u2581es</w>": 1385, "le\u2581t": 1386, "mu\u2581l": 1387, "ill\u2581s</w>": 1388, "gre\u2581en</w>": 1389, "m\u2581el": 1390, "to\u2581ge": 1391, "fu\u2581ture</w>": 1392, "ye\u2581ster": 1393, "vers\u2581ity</w>": 1394, "for\u2581m</w>": 1395, "ta\u2581in</w>": 1396, "i\u2581de": 1397, "ch\u2581es</w>": 1398, "ki\u2581ds</w>": 1399, "qu\u2581i": 1400, "ha\u2581ha": 1401, "de\u2581ta": 1402, "bi\u2581g": 1403, "favor\u2581ite</w>": 1404, "gir\u2581ls</w>": 1405, "con\u2581tin": 1406, "do\u2581m</w>": 1407, "sear\u2581ch</w>": 1408, "u\u2581al</w>": 1409, "a\u2581ir</w>": 1410, "d\u2581ers</w>": 1411, "mon\u2581th</w>": 1412, "c\u2581er</w>": 1413, "yester\u2581day</w>": 1414, "commun\u2581ity</w>": 1415, "ad\u2581e</w>": 1416, "do\u2581g</w>": 1417, "vil\u2581le</w>": 1418, "ic\u2581es</w>": 1419, "d\u2581eli": 1420, "sy\u2581ste": 1421, "ru\u2581n</w>": 1422, "is\u2581m</w>": 1423, "he\u2581art</w>": 1424, "c\u2581up</w>": 1425, "en\u2581ti": 1426, "fe\u2581w</w>": 1427, "presi\u2581dent</w>": 1428, "e\u2581ds</w>": 1429, "un\u2581til</w>": 1430, "fe\u2581sti": 1431, "o\u2581k": 1432, "f\u2581lo": 1433, "sa\u2581id</w>": 1434, "ol\u2581e</w>": 1435, "me\u2581d": 1436, "tra\u2581vel</w>": 1437, "\u00c2\u2581\u00a3</w>": 1438, "ph\u2581one</w>": 1439, "toge\u2581ther</w>": 1440, "fa\u2581st</w>": 1441, "lo\u2581t</w>": 1442, "gam\u2581es</w>": 1443, "sh\u2581ir": 1444, "bet\u2581ween</w>": 1445, "y\u2581es</w>": 1446, "th\u2581ers</w>": 1447, "do\u2581ing</w>": 1448, "m\u2581ac": 1449, "at\u2581or</w>": 1450, "b\u2581and</w>": 1451, "fol\u2581low": 1452, "projec\u2581t</w>": 1453, "devel\u2581op": 1454, "di\u2581ffe": 1455, "con\u2581fe": 1456, "spe\u2581ci": 1457, "ca\u2581st</w>": 1458, "y\u2581s": 1459, "bo\u2581ard</w>": 1460, "r\u2581d</w>": 1461, "i\u2581al</w>": 1462, "sh\u2581oo": 1463, "r\u2581am": 1464, "ha\u2581ving</w>": 1465, "sh\u2581are</w>": 1466, "fol\u2581low</w>": 1467, "on\u2581e": 1468, "n\u2581ame</w>": 1469, "m\u2581r</w>": 1470, "pu\u2581t</w>": 1471, "disc\u2581u": 1472, "or\u2581y</w>": 1473, "c\u2581ame</w>": 1474, "ou\u2581s": 1475, "s\u2581ite</w>": 1476, "twit\u2581ter</w>": 1477, "t\u2581b": 1478, "t\u2581it": 1479, "fin\u2581ally</w>": 1480, "z\u2581ed</w>": 1481, "su\u2581per</w>": 1482, "com\u2581pan": 1483, "us\u2581ing</w>": 1484, "all\u2581s</w>": 1485, "li\u2581st</w>": 1486, "r\u2581is</w>": 1487, "sho\u2581t</w>": 1488, "g\u2581al": 1489, "t\u2581ar": 1490, "de\u2581l</w>": 1491, "joh\u2581n": 1492, "\u00e2\u0122\u2581\u0136</w>": 1493, "some\u2581thing</w>": 1494, "ra\u2581m</w>": 1495, "inte\u2581re": 1496, "wh\u2581e": 1497, "b\u2581it</w>": 1498, "\u00f0\u0141\u2581\u012f": 1499, "stre\u2581et</w>": 1500, "oun\u2581d": 1501, "a\u2581i": 1502, "tic\u2581kets</w>": 1503, "movi\u2581e</w>": 1504, "re\u2581al": 1505, "k\u2581y": 1506, "ta\u2581king</w>": 1507, "o\u2581pp": 1508, "c\u2581c</w>": 1509, "l\u2581am": 1510, "m\u2581oun": 1511, "in\u2581ve": 1512, "bl\u2581ack": 1513, "us\u2581ed</w>": 1514, "on\u2581line</w>": 1515, "y\u2581or": 1516, "loc\u2581al</w>": 1517, "gu\u2581e": 1518, "c\u2581ks</w>": 1519, "o\u2581w": 1520, "ge\u2581st</w>": 1521, "bo\u2581ys</w>": 1522, "illi\u2581on</w>": 1523, "con\u2581t": 1524, "re\u2581ci": 1525, "in\u2581ed</w>": 1526, "eu\u2581ro": 1527, "no\u2581w": 1528, "se\u2581en</w>": 1529, "p\u2581h</w>": 1530, "te\u2581ach": 1531, "de\u2581f": 1532, "sou\u2581th</w>": 1533, "su\u2581ch</w>": 1534, "aw\u2581ard</w>": 1535, "mu\u2581st</w>": 1536, "is\u2581su": 1537, "ca\u2581re": 1538, "fe\u2581el</w>": 1539, "p\u2581lu": 1540, "l\u2581atest</w>": 1541, "spor\u2581ts</w>": 1542, "we\u2581b": 1543, "te\u2581x": 1544, "e\u2581ment</w>": 1545, "s\u2581k</w>": 1546, "fi\u2581c</w>": 1547, "w\u2581an": 1548, "te\u2581ch</w>": 1549, "o\u2581t</w>": 1550, "bo\u2581x</w>": 1551, "n\u2581er": 1552, "fre\u2581e": 1553, "t\u2581al</w>": 1554, "a\u2581sh": 1555, "c\u2581ase</w>": 1556, "ho\u2581t</w>": 1557, "won\u2581der": 1558, "mee\u2581ting</w>": 1559, "er\u2581a</w>": 1560, "ch\u2581all": 1561, "\u00f0\u0141\u2581\u0132": 1562, "jo\u2581b</w>": 1563, "il\u2581i": 1564, "c\u2581ool</w>": 1565, "j\u2581our": 1566, "th\u2581s</w>": 1567, "m\u2581o</w>": 1568, "f\u2581el": 1569, "di\u2581e</w>": 1570, "mic\u2581ha": 1571, "e\u2581le": 1572, "te\u2581am": 1573, "serv\u2581ice</w>": 1574, "st\u2581and</w>": 1575, "ma\u2581kes</w>": 1576, "p\u2581ing</w>": 1577, "ear\u2581ly</w>": 1578, "com\u2581es</w>": 1579, "e\u2581k</w>": 1580, "ho\u2581li": 1581, "v\u2581ers</w>": 1582, "ag\u2581ue</w>": 1583, "s\u2581au": 1584, "thre\u2581e</w>": 1585, "mon\u2581day</w>": 1586, "fa\u2581shi": 1587, "some\u2581one</w>": 1588, "th\u2581ro": 1589, "se\u2581a</w>": 1590, "b\u2581ad</w>": 1591, "supp\u2581or": 1592, "tur\u2581n</w>": 1593, "ur\u2581y</w>": 1594, "m\u2581ing</w>": 1595, "photograph\u2581y</w>": 1596, "n\u2581ic": 1597, "mar\u2581k</w>": 1598, "pre\u2581tty</w>": 1599, "ss\u2581ing</w>": 1600, "wat\u2581ching</w>": 1601, "me\u2581mb": 1602, "ar\u2581ri": 1603, "coun\u2581ty</w>": 1604, "be\u2581ach</w>": 1605, "fr\u2581an": 1606, "cen\u2581ter</w>": 1607, "pol\u2581ice</w>": 1608, "b\u2581at": 1609, "publi\u2581c</w>": 1610, "t\u2581an": 1611, "pre\u2581ss</w>": 1612, "s\u2581af": 1613, "s\u2581y</w>": 1614, "ge\u2581ts</w>": 1615, "ro\u2581y": 1616, "n\u2581ers</w>": 1617, "y\u2581our": 1618, "bu\u2581y</w>": 1619, "st\u2581ers</w>": 1620, "sho\u2581w": 1621, "as\u2581ed</w>": 1622, "chil\u2581dre": 1623, "af\u2581ric": 1624, "in\u2581es</w>": 1625, "sp\u2581ace</w>": 1626, "sc\u2581ri": 1627, "h\u2581all</w>": 1628, "pa\u2581in": 1629, "ar\u2581ing</w>": 1630, "hom\u2581e": 1631, "m\u2581ur": 1632, "heal\u2581th": 1633, "ch\u2581ed</w>": 1634, "s\u2581and": 1635, "rece\u2581i": 1636, "gu\u2581y</w>": 1637, "e\u2581a": 1638, "americ\u2581an</w>": 1639, "re\u2581si": 1640, "childre\u2581n</w>": 1641, "-\u2581-": 1642, "i\u2581ri": 1643, "ing\u2581ton</w>": 1644, "coun\u2581try</w>": 1645, "ro\u2581ss</w>": 1646, "le\u2581n</w>": 1647, "ann\u2581a</w>": 1648, "boo\u2581ks</w>": 1649, "b\u2581c</w>": 1650, "e\u2581ce</w>": 1651, "d\u2581om": 1652, "lo\u2581vely</w>": 1653, "k\u2581h": 1654, "pe\u2581t": 1655, "g\u2581y": 1656, "g\u2581ri": 1657, "st\u2581age</w>": 1658, "off\u2581ice</w>": 1659, "ro\u2581ck</w>": 1660, "m\u2581on</w>": 1661, "b\u2581ay</w>": 1662, "t\u2581able</w>": 1663, "su\u2581n</w>": 1664, "m\u2581ed</w>": 1665, "th\u2581in": 1666, "l\u2581or": 1667, "f\u2581low": 1668, "(\u2581@</w>": 1669, "uni\u2581versity</w>": 1670, "stor\u2581e</w>": 1671, "fron\u2581t</w>": 1672, "goo\u2581d": 1673, "z\u2581a</w>": 1674, "vo\u2581te</w>": 1675, "nor\u2581th</w>": 1676, "he\u2581y</w>": 1677, "an\u2581im": 1678, "or\u2581der</w>": 1679, "mi\u2581d": 1680, "with\u2581out</w>": 1681, "a\u2581de": 1682, "re\u2581member</w>": 1683, "mar\u2581ket</w>": 1684, "?\u2581?</w>": 1685, "mu\u2581s": 1686, "tra\u2581ining</w>": 1687, "e\u2581duc": 1688, "bu\u2581t": 1689, "co\u2581ver</w>": 1690, "st\u2581an": 1691, "sc\u2581en": 1692, "b\u2581la": 1693, "bre\u2581ak": 1694, "l\u2581ou": 1695, "s\u2581ame</w>": 1696, "g\u2581old</w>": 1697, "a\u2581in</w>": 1698, "o\u2581s": 1699, "bo\u2581th</w>": 1700, "l\u2581it": 1701, "ver\u2581n": 1702, "a\u2581i</w>": 1703, "al\u2581bu": 1704, "p\u2581a</w>": 1705, "enjo\u2581y</w>": 1706, "be\u2581g": 1707, "ell\u2581ing</w>": 1708, "thur\u2581sday</w>": 1709, "inf\u2581o</w>": 1710, "s\u2581an</w>": 1711, "americ\u2581a</w>": 1712, "ha\u2581ir</w>": 1713, "te\u2581l</w>": 1714, "mar\u2581ch</w>": 1715, "con\u2581cer": 1716, "colle\u2581ge</w>": 1717, "confe\u2581rence</w>": 1718, "ap\u2581p</w>": 1719, "h\u2581our</w>": 1720, "ch\u2581ang": 1721, "\u00e2\u2581\u013c": 1722, "s\u2581our": 1723, "ol\u2581s</w>": 1724, "we\u2581ather</w>": 1725, "w\u2581ar</w>": 1726, "p\u2581hi": 1727, "festi\u2581val</w>": 1728, "secon\u2581d</w>": 1729, "cu\u2581te</w>": 1730, "pr\u2581ac": 1731, "en\u2581er": 1732, "str\u2581y</w>": 1733, "le\u2581a": 1734, "pol\u2581it": 1735, "s\u2581av": 1736, "se\u2581n</w>": 1737, "o\u2581w</w>": 1738, "m\u2581i</w>": 1739, "ne\u2581ar</w>": 1740, "ou\u2581ght</w>": 1741, "z\u2581e": 1742, "co\u2581ffe": 1743, "w\u2581illi": 1744, "d\u2581an": 1745, "se\u2581y</w>": 1746, "davi\u2581d</w>": 1747, "e\u2581se</w>": 1748, "f\u2581an</w>": 1749, "de\u2581ci": 1750, "the\u2581at": 1751, "no\u2581v": 1752, "ati\u2581on": 1753, "tr\u2581ac": 1754, "sc\u2581i": 1755, "re\u2581view</w>": 1756, "c\u2581el": 1757, "e\u2581m</w>": 1758, "u\u2581n</w>": 1759, "ju\u2581ly</w>": 1760, "or\u2581ig": 1761, "ti\u2581on": 1762, "d\u2581ru": 1763, "form\u2581er</w>": 1764, "st\u2581ay</w>": 1765, "af\u2581ter": 1766, "in\u2581v": 1767, "too\u2581k</w>": 1768, "dat\u2581a</w>": 1769, "b\u2581al</w>": 1770, "tu\u2581es": 1771, "d\u2581an</w>": 1772, "ev\u2581ening</w>": 1773, "\u00f0\u0141\u013a\u0124\u2581\u00f0\u0141\u013a\u0124": 1774, "d\u2581ol": 1775, "u\u2581res</w>": 1776, "pro\u2581vi": 1777, "t\u2581s": 1778, "e\u2581st": 1779, "sig\u2581n</w>": 1780, "j\u2581ac": 1781, "u\u2581k": 1782, "s\u2581ong</w>": 1783, "ye\u2581t</w>": 1784, "bo\u2581w": 1785, "in\u2581du": 1786, "j\u2581ap": 1787, "h\u2581oo": 1788, "po\u2581int</w>": 1789, "any\u2581one</w>": 1790, "z\u2581y</w>": 1791, "i\u2581st</w>": 1792, "h\u2581ur": 1793, "it\u2581al": 1794, "buil\u2581ding</w>": 1795, "wom\u2581an</w>": 1796, "ch\u2581ur": 1797, "j\u2581er": 1798, "per\u2581for": 1799, "co\u2581ach</w>": 1800, "le\u2581ague</w>": 1801, "ce\u2581ss": 1802, "ne\u2581t</w>": 1803, "i\u2581mag": 1804, "nati\u2581on": 1805, "br\u2581it": 1806, "qu\u2581e</w>": 1807, "aw\u2581ards</w>": 1808, "ag\u2581es</w>": 1809, "wor\u2581ks</w>": 1810, "c\u2581ed</w>": 1811, "man\u2581ce</w>": 1812, "l\u2581ate</w>": 1813, "ig\u2581n</w>": 1814, "mon\u2581ey</w>": 1815, "tru\u2581e</w>": 1816, "i\u2581i</w>": 1817, "t\u2581ell</w>": 1818, "pl\u2581ac": 1819, "p\u2581ac": 1820, "as\u2581y</w>": 1821, "wor\u2581ld": 1822, "be\u2581hin": 1823, "im\u2581port": 1824, "read\u2581ing</w>": 1825, "gra\u2581m</w>": 1826, "gi\u2581ving</w>": 1827, "me\u2581t</w>": 1828, "h\u2581it</w>": 1829, "for\u2581ward</w>": 1830, "st\u2581om": 1831, "pres\u2581ent": 1832, "jun\u2581e</w>": 1833, "so\u2581cial</w>": 1834, "no\u2581on</w>": 1835, "mar\u2581t": 1836, "hal\u2581f</w>": 1837, "s\u2581we": 1838, "go\u2581vern": 1839, "k\u2581er": 1840, "deta\u2581ils</w>": 1841, "li\u2581sh</w>": 1842, "_\u2581_": 1843, "ac\u2581y</w>": 1844, "si\u2581a</w>": 1845, "ber\u2581t</w>": 1846, "f\u2581all</w>": 1847, "!\u2581!!!</w>": 1848, ")\u2581,</w>": 1849, "th\u2581i": 1850, "d\u2581iti": 1851, "sp\u2581ort</w>": 1852, "k\u2581ing": 1853, "f\u2581it": 1854, "st\u2581af": 1855, "c\u2581at</w>": 1856, "mu\u2581se": 1857, "cen\u2581tr": 1858, "y\u2581er</w>": 1859, "con\u2581tro": 1860, "b\u2581loo": 1861, "wal\u2581k</w>": 1862, "ac\u2581tu": 1863, "did\u2581n</w>": 1864, "li\u2581m": 1865, "lear\u2581ning</w>": 1866, "re\u2581search</w>": 1867, "wed\u2581ne": 1868, "au\u2581th": 1869, "h\u2581ours</w>": 1870, "k\u2581y</w>": 1871, "f\u2581ar</w>": 1872, "h\u2581en": 1873, "..\u2581..": 1874, "it\u2581ch": 1875, "ri\u2581l</w>": 1876, "str\u2581ong</w>": 1877, "sk\u2581y</w>": 1878, "que\u2581sti": 1879, "jam\u2581es</w>": 1880, "r\u2581on": 1881, "d\u2581g": 1882, "f\u2581ur": 1883, "c\u2581in": 1884, "do\u2581es": 1885, "app\u2581ro": 1886, "mar\u2581ke": 1887, "tu\u2581res</w>": 1888, "ful\u2581ly</w>": 1889, "ch\u2581at</w>": 1890, "behin\u2581d</w>": 1891, "te\u2581m": 1892, "fin\u2581i": 1893, "mis\u2581sion</w>": 1894, "b\u2581att": 1895, "fe\u2581el": 1896, "he\u2581av": 1897, "every\u2581thing</w>": 1898, "b\u2581ar</w>": 1899, "w\u2581ish</w>": 1900, "pre\u2581mi": 1901, "i\u2581ma": 1902, "exper\u2581ience</w>": 1903, "e\u2581ach</w>": 1904, "re\u2581port</w>": 1905, "swee\u2581t</w>": 1906, "tic\u2581s</w>": 1907, "spr\u2581ing</w>": 1908, "re\u2581spon": 1909, "syste\u2581m</w>": 1910, "vic\u2581tor": 1911, "l\u2581in</w>": 1912, "sa\u2581w</w>": 1913, "al\u2581ready</w>": 1914, "gh\u2581ter</w>": 1915, "f\u2581le": 1916, "\u00e3\u2581\u0125": 1917, "br\u2581ing</w>": 1918, "albu\u2581m</w>": 1919, "-\u2581-</w>": 1920, "ell\u2581s</w>": 1921, "st\u2581an</w>": 1922, "to\u2581m</w>": 1923, "inter\u2581national</w>": 1924, "w\u2581ent</w>": 1925, "an\u2581ni": 1926, "mat\u2581ch</w>": 1927, "pp\u2581er</w>": 1928, "st\u2581one</w>": 1929, "sm\u2581all</w>": 1930, "ra\u2581in</w>": 1931, "fashi\u2581on</w>": 1932, "are\u2581a</w>": 1933, "v\u2581an": 1934, "ag\u2581ram</w>": 1935, "k\u2581o</w>": 1936, "thou\u2581ght</w>": 1937, "wor\u2581th</w>": 1938, "v\u2581an</w>": 1939, "m\u2581er</w>": 1940, "coffe\u2581e</w>": 1941, "it\u2581es</w>": 1942, "g\u2581n": 1943, "arti\u2581st</w>": 1944, "c\u2581on</w>": 1945, "ar\u2581ch": 1946, "c\u2581ir": 1947, "se\u2581cre": 1948, "gr\u2581ound</w>": 1949, "is\u2581o": 1950, "h\u2581and</w>": 1951, "co\u2581m</w>": 1952, "bri\u2581dge</w>": 1953, "h\u2581s</w>": 1954, "x\u2581i": 1955, "l\u2581ink</w>": 1956, "pu\u2581l": 1957, "sp\u2581l": 1958, "r\u2581ace</w>": 1959, "f\u2581li": 1960, "ri\u2581ver</w>": 1961, "g\u2581as</w>": 1962, "di\u2581sco": 1963, "d\u2581al": 1964, "play\u2581er</w>": 1965, "f\u2581it</w>": 1966, "photo\u2581s</w>": 1967, "it\u2581y": 1968, "o\u2581k</w>": 1969, "j\u2581or": 1970, "tr\u2581a</w>": 1971, "ap\u2581ril</w>": 1972, "ad\u2581s</w>": 1973, "a\u2581di": 1974, "sol\u2581u": 1975, "beau\u2581ty</w>": 1976, "do\u2581or</w>": 1977, "me\u2581ss": 1978, "up\u2581date</w>": 1979, "ali\u2581a</w>": 1980, "sch\u2581o": 1981, "en\u2581ed</w>": 1982, "mom\u2581ent</w>": 1983, "sco\u2581t": 1984, "sc\u2581ience</w>": 1985, "i\u2581or</w>": 1986, "ti\u2581es</w>": 1987, "ac\u2581ross</w>": 1988, "ous\u2581ly</w>": 1989, "sh\u2581es</w>": 1990, "does\u2581n</w>": 1991, "p\u2581age</w>": 1992, "wat\u2581er": 1993, "m\u2581illion</w>": 1994, "cla\u2581ssi": 1995, "l\u2581ic": 1996, "ca\u2581st": 1997, "form\u2581ation</w>": 1998, "micha\u2581el</w>": 1999, "ell\u2581o</w>": 2000, "s\u2581mo": 2001, "in\u2581ts</w>": 2002, "vi\u2581sion</w>": 2003, "op\u2581ening</w>": 2004, "ld\u2581n</w>": 2005, "au\u2581str": 2006, "tues\u2581day</w>": 2007, "win\u2581ner</w>": 2008, "po\u2581ssi": 2009, "r\u2581ound</w>": 2010, "shir\u2581t</w>": 2011, "di\u2581t</w>": 2012, "b\u2581o</w>": 2013, "u\u2581es</w>": 2014, "il\u2581led</w>": 2015, "al\u2581ong</w>": 2016, "tri\u2581p</w>": 2017, "star\u2581ting</w>": 2018, "im\u2581pro": 2019, "k\u2581an": 2020, "per\u2581son</w>": 2021, "no\u2581t": 2022, "re\u2581co": 2023, "ne\u2581eds</w>": 2024, "c\u2581le</w>": 2025, "li\u2581e</w>": 2026, "re\u2581st</w>": 2027, "r\u2581ing</w>": 2028, "win\u2581ter</w>": 2029, "si\u2581mp": 2030, "mo\u2581m</w>": 2031, "be\u2581er</w>": 2032, "fac\u2581e": 2033, "tor\u2581s</w>": 2034, "us\u2581a</w>": 2035, "collec\u2581tion</w>": 2036, "ge\u2581or": 2037, "se\u2581ssion</w>": 2038, "tr\u2581ying</w>": 2039, "la\u2581s</w>": 2040, "la\u2581ke</w>": 2041, "j\u2581en": 2042, "orig\u2581in": 2043, "stu\u2581dent</w>": 2044, "se\u2581cur": 2045, "v\u2581in</w>": 2046, "pic\u2581s</w>": 2047, "ex\u2581pe": 2048, "com\u2581p": 2049, "gon\u2581na</w>": 2050, "e\u2581qu": 2051, "b\u2581ad": 2052, "le\u2581y": 2053, "a\u2581u</w>": 2054, "memb\u2581ers</w>": 2055, "bre\u2581ak</w>": 2056, "w\u2581all</w>": 2057, "gi\u2581c</w>": 2058, "din\u2581ner</w>": 2059, "bu\u2581l": 2060, "insp\u2581ir": 2061, "r\u2581i</w>": 2062, "min\u2581d</w>": 2063, "ic\u2581a</w>": 2064, "win\u2581ning</w>": 2065, "tal\u2581king</w>": 2066, "t\u2581ren": 2067, "s\u2581is</w>": 2068, "t\u2581en</w>": 2069, "wonder\u2581ful</w>": 2070, "s\u2581now</w>": 2071, "he\u2581ar</w>": 2072, "th\u2581om": 2073, "no\u2581thing</w>": 2074, "gu\u2581i": 2075, "st\u2581in": 2076, "blo\u2581g</w>": 2077, "fe\u2581st</w>": 2078, "b\u2581un": 2079, "le\u2581e</w>": 2080, "war\u2581ds</w>": 2081, "ch\u2581ance</w>": 2082, "dre\u2581ss</w>": 2083, "re\u2581n</w>": 2084, "pau\u2581l</w>": 2085, "p\u2581es</w>": 2086, "tech\u2581no": 2087, "ru\u2581ssi": 2088, "c\u2581ard</w>": 2089, "e\u2581ast</w>": 2090, "mar\u2581i": 2091, "w\u2581ine</w>": 2092, "t\u2581i</w>": 2093, "la\u2581w</w>": 2094, "str\u2581ic": 2095, "k\u2581i</w>": 2096, "ap\u2581e</w>": 2097, "au\u2581gu": 2098, "pro\u2581fe": 2099, "as\u2581h</w>": 2100, "cour\u2581se</w>": 2101, "ma\u2581il</w>": 2102, "ren\u2581tly</w>": 2103, "d\u2581un": 2104, "m\u2581un": 2105, "lo\u2581ve": 2106, "is\u2581land</w>": 2107, "dri\u2581ve</w>": 2108, "s\u2581l": 2109, "end\u2581ed</w>": 2110, "ma\u2581in</w>": 2111, "lo\u2581st</w>": 2112, "nat\u2581ure</w>": 2113, "\u00e2\u013f\u00a4\u2581\u00ef\u00b8\u0131": 2114, "ch\u2581ic": 2115, "re\u2581por": 2116, "p\u2581in": 2117, "pr\u2581o</w>": 2118, "st\u2581ation</w>": 2119, "ce\u2581p": 2120, "ta\u2581kes</w>": 2121, "compan\u2581y</w>": 2122, "go\u2581es</w>": 2123, "on\u2581d</w>": 2124, "ma\u2581ch": 2125, "ra\u2581dio</w>": 2126, "d\u2581ad</w>": 2127, "ro\u2581ck": 2128, "j\u2581a</w>": 2129, "p\u2581ay": 2130, "champi\u2581on": 2131, "e\u2581e": 2132, "in\u2581de": 2133, "tt\u2581a</w>": 2134, "ati\u2581c</w>": 2135, "t\u2581ab": 2136, "beli\u2581eve</w>": 2137, "ener\u2581gy</w>": 2138, "z\u2581i": 2139, "t\u2581at": 2140, "wor\u2581d</w>": 2141, "on\u2581ce</w>": 2142, "re\u2581sul": 2143, "y\u2581l": 2144, "and\u2581re": 2145, "an\u2581o</w>": 2146, "inst\u2581agram</w>": 2147, "clo\u2581se</w>": 2148, "t\u2581am": 2149, "cu\u2581stom": 2150, "w\u2581a</w>": 2151, "con\u2581om": 2152, "sho\u2581ws</w>": 2153, "li\u2581fe": 2154, "k\u2581in</w>": 2155, "ro\u2581b": 2156, "t\u2581age</w>": 2157, "n\u2581ation</w>": 2158, "al\u2581most</w>": 2159, "list\u2581en</w>": 2160, "sa\u2581ve</w>": 2161, "re\u2581li": 2162, "ac\u2581e": 2163, "mar\u2581y</w>": 2164, "tre\u2581e</w>": 2165, "for\u2581get</w>": 2166, "j\u2581ack": 2167, "wa\u2581iting</w>": 2168, "direc\u2581tor</w>": 2169, "h\u2581ill</w>": 2170, "bor\u2581n</w>": 2171, "te\u2581mp": 2172, "f\u2581l</w>": 2173, "st\u2581e</w>": 2174, "on\u2581a</w>": 2175, "sing\u2581le</w>": 2176, "wedne\u2581sday</w>": 2177, "un\u2581ited</w>": 2178, "in\u2581o</w>": 2179, "@\u2581_</w>": 2180, "ne\u2581l</w>": 2181, "celebr\u2581ate</w>": 2182, "en\u2581ding</w>": 2183, "de\u2581al</w>": 2184, "j\u2581i</w>": 2185, "can\u2581ada</w>": 2186, "hu\u2581ge</w>": 2187, "tr\u2581ack</w>": 2188, "\u00e2\u0122\u2581\u00a2</w>": 2189, "f\u2581y</w>": 2190, "fan\u2581ta": 2191, "an\u2581g</w>": 2192, "yor\u2581k</w>": 2193, "rele\u2581ase</w>": 2194, "p\u2581un": 2195, "ep\u2581iso": 2196, "wor\u2581ds</w>": 2197, "t\u2581our": 2198, "p\u2581ack": 2199, "i\u2581gh": 2200, "classi\u2581c</w>": 2201, "perfor\u2581mance</w>": 2202, "ke\u2581t": 2203, "after\u2581noon</w>": 2204, "recor\u2581d</w>": 2205, "win\u2581s</w>": 2206, "pro\u2581ble": 2207, "\u00e2\u013f\u2581\u00a4</w>": 2208, "f\u2581our</w>": 2209, "b\u2581ed</w>": 2210, "ban\u2581k</w>": 2211, "d\u2581ance</w>": 2212, "s\u2581la": 2213, "cal\u2581led</w>": 2214, "mi\u2581ght</w>": 2215, "a\u2581p</w>": 2216, "pa\u2581st</w>": 2217, "\u00f0\u0141\u2581\u013c": 2218, "diffe\u2581rent</w>": 2219, "it\u2581e": 2220, "gi\u2581ft</w>": 2221, "ssi\u2581ve</w>": 2222, "chur\u2581ch</w>": 2223, "c\u2581us</w>": 2224, "pro\u2581gram</w>": 2225, "ho\u2581tel</w>": 2226, "ic\u2581e": 2227, "ma\u2581d": 2228, "secur\u2581ity</w>": 2229, "en\u2581ge</w>": 2230, "d\u2581c</w>": 2231, "en\u2581ough</w>": 2232, "st\u2581a</w>": 2233, "e\u2581ty</w>": 2234, "de\u2581ad</w>": 2235, "g\u2581un": 2236, "he\u2581ar": 2237, "m\u2581ir": 2238, "hu\u2581man</w>": 2239, "gre\u2581ss</w>": 2240, "oun\u2581ds</w>": 2241, "pi\u2581ece</w>": 2242, "bre\u2581aking</w>": 2243, "gar\u2581den</w>": 2244, "fi\u2581ght</w>": 2245, "vie\u2581ws</w>": 2246, "f\u2581ish</w>": 2247, "star\u2581ted</w>": 2248, "run\u2581ning</w>": 2249, "gre\u2581en": 2250, "ser\u2581i": 2251, "s\u2581m</w>": 2252, "as\u2581k</w>": 2253, "d\u2581or": 2254, "de\u2581ath</w>": 2255, "e\u2581conom": 2256, "er\u2581i": 2257, "ir\u2581d</w>": 2258, "s\u2581er</w>": 2259, "l\u2581unch</w>": 2260, "\u00e2\u0123\u2581\u00a6": 2261, "bo\u2581x": 2262, "nat\u2581u": 2263, "ba\u2581se": 2264, "b\u2581an</w>": 2265, "f\u2581al": 2266, "glo\u2581bal</w>": 2267, "wil\u2581d": 2268, "wo\u2581w</w>": 2269, "out\u2581side</w>": 2270, "mo\u2581ve</w>": 2271, "le\u2581ad</w>": 2272, "an\u2581al": 2273, "muse\u2581um</w>": 2274, "on\u2581g": 2275, "ha\u2581w": 2276, "pow\u2581er": 2277, "than\u2581k": 2278, "b\u2581ac": 2279, "char\u2581ac": 2280, "cam\u2581pa": 2281, "dig\u2581ital</w>": 2282, "r\u2581o</w>": 2283, "op\u2581er": 2284, "de\u2581v": 2285, "w\u2581ol": 2286, "p\u2581ati": 2287, "f\u2581a</w>": 2288, "m\u2581ale</w>": 2289, "pap\u2581er</w>": 2290, "ill\u2581ing</w>": 2291, "c\u2581s</w>": 2292, "\u00e2\u2581\u0125": 2293, "educ\u2581ation</w>": 2294, "ta\u2581ken</w>": 2295, "e\u2581ffe": 2296, "m\u2581ou": 2297, "s\u2581ad": 2298, "\"\u2581.</w>": 2299, "bas\u2581ed</w>": 2300, "staf\u2581f</w>": 2301, "inclu\u2581ding</w>": 2302, "li\u2581ving</w>": 2303, "a\u2581c</w>": 2304, "ch\u2581ina</w>": 2305, "mo\u2581b": 2306, "stor\u2581m</w>": 2307, "lu\u2581ck</w>": 2308, "ph\u2581il": 2309, "o\u2581o</w>": 2310, "y\u2581n": 2311, "tra\u2581vel": 2312, "k\u2581el": 2313, "ti\u2581al</w>": 2314, "pr\u2581ice</w>": 2315, "boo\u2581k": 2316, "import\u2581ant</w>": 2317, "bi\u2581o": 2318, "p\u2581ool</w>": 2319, "ny\u2581c</w>": 2320, "f\u2581ab": 2321, "lo\u2581ad</w>": 2322, "?\u2581!</w>": 2323, "chall\u2581enge</w>": 2324, "cr\u2581y": 2325, "ser\u2581ve</w>": 2326, "we\u2581ar</w>": 2327, "bu\u2581s</w>": 2328, "ta\u2581in": 2329, "nu\u2581mber</w>": 2330, "ro\u2581r</w>": 2331, "k\u2581at": 2332, "i\u2581z": 2333, "th\u2581ough</w>": 2334, "ho\u2581sp": 2335, "m\u2581m</w>": 2336, "fa\u2581ir</w>": 2337, "ut\u2581es</w>": 2338, "ho\u2581t": 2339, "po\u2581p</w>": 2340, "fi\u2581ed</w>": 2341, "cam\u2581p": 2342, "develop\u2581ment</w>": 2343, "li\u2581br": 2344, "c\u2581ali": 2345, "em\u2581s</w>": 2346, "\u00e2\u0123\u00a6\u2581@</w>": 2347, "b\u2581ol": 2348, "is\u2581ed</w>": 2349, "stand\u2581ing</w>": 2350, "mo\u2581del</w>": 2351, "it\u2581a</w>": 2352, "g\u2581le</w>": 2353, "bro\u2581wn</w>": 2354, "ima\u2581ge</w>": 2355, "ve\u2581red</w>": 2356, "for\u2581ce</w>": 2357, "o\u2581il</w>": 2358, "par\u2581tic": 2359, "sh\u2581u": 2360, "da\u2581ily</w>": 2361, "la\u2581w": 2362, "se\u2581c": 2363, "cla\u2581ss": 2364, "cam\u2581p</w>": 2365, "holi\u2581day</w>": 2366, "cl\u2581in": 2367, "k\u2581ers</w>": 2368, "pres\u2581ent</w>": 2369, "gam\u2581e": 2370, "incre\u2581di": 2371, "er\u2581ship</w>": 2372, "inter\u2581view</w>": 2373, "b\u2581ill</w>": 2374, "du\u2581e</w>": 2375, "and\u2581y</w>": 2376, "ab\u2581o": 2377, "in\u2581nov": 2378, "ke\u2581y": 2379, "ac\u2581ade": 2380, "p\u2581il": 2381, "mo\u2581der": 2382, "st\u2581ars</w>": 2383, "br\u2581and</w>": 2384, "f\u2581er</w>": 2385, "wee\u2581ks</w>": 2386, "con\u2581si": 2387, "pr\u2581e</w>": 2388, "sa\u2581fe": 2389, "wr\u2581it": 2390, "di\u2581um</w>": 2391, "la\u2581unch</w>": 2392, "marke\u2581ting</w>": 2393, "ann\u2581ual</w>": 2394, "as\u2581si": 2395, "cour\u2581t</w>": 2396, "la\u2581dy</w>": 2397, "c\u2581ted</w>": 2398, "and\u2581a</w>": 2399, "in\u2581side</w>": 2400, "chil\u2581d</w>": 2401, "opp\u2581or": 2402, "sm\u2581ith</w>": 2403, "centr\u2581e</w>": 2404, "gu\u2581e</w>": 2405, "\u00e2\u0123\u2581\u00a9</w>": 2406, "f\u2581ren": 2407, "st\u2581y</w>": 2408, "for\u2581t</w>": 2409, "ent\u2581ly</w>": 2410, "is\u2581n</w>": 2411, "ke\u2581ep": 2412, "to\u2581ber</w>": 2413, "on\u2581y</w>": 2414, "bo\u2581y": 2415, "al\u2581d</w>": 2416, "col\u2581la": 2417, "de\u2581mo": 2418, "le\u2581vel</w>": 2419, "com\u2581pet": 2420, "ad\u2581o</w>": 2421, "b\u2581our": 2422, "fanta\u2581stic</w>": 2423, "m\u2581ate</w>": 2424, "s\u2581u</w>": 2425, "sou\u2581th": 2426, "oppor\u2581tun": 2427, "vers\u2581ary</w>": 2428, "lat\u2581er</w>": 2429, "bu\u2581d": 2430, "face\u2581book</w>": 2431, "la\u2581un": 2432, "ster\u2581n</w>": 2433, "p\u2581it": 2434, "!\u2581\"</w>": 2435, "ma\u2581j": 2436, "gr\u2581am": 2437, "tb\u2581t</w>": 2438, "fi\u2581re": 2439, "happ\u2581y": 2440, "a\u2581ks</w>": 2441, "wh\u2581ole</w>": 2442, "actu\u2581ally</w>": 2443, "ill\u2581er</w>": 2444, "ell\u2581a</w>": 2445, "lo\u2581ts</w>": 2446, "al\u2581ex": 2447, "an\u2581ge": 2448, "lan\u2581ds</w>": 2449, "\u00f0\u0141\u013a\u2581\u0143": 2450, "en\u2581ter": 2451, "r\u2581ou": 2452, "episo\u2581de</w>": 2453, "p\u2581ed</w>": 2454, "in\u2581ten": 2455, "sh\u2581ire</w>": 2456, "wh\u2581o": 2457, "pl\u2581an</w>": 2458, "h\u2581o</w>": 2459, "ca\u2581ke</w>": 2460, "we\u2581st": 2461, "mag\u2581az": 2462, "fre\u2581sh</w>": 2463, "c\u2581c": 2464, "n\u2581ar": 2465, "ch\u2581ris</w>": 2466, "wr\u2581iting</w>": 2467, "w\u2581er</w>": 2468, "n\u2581om": 2469, "l\u2581o</w>": 2470, "mi\u2581dd": 2471, "dre\u2581am</w>": 2472, "o\u2581l</w>": 2473, "ti\u2581onal</w>": 2474, "de\u2581b": 2475, ">\u2581></w>": 2476, "be\u2581come</w>": 2477, "s\u2581i</w>": 2478, "gr\u2581and</w>": 2479, "all\u2581ing</w>": 2480, "hi\u2581stor": 2481, "ri\u2581de</w>": 2482, "i\u2581red</w>": 2483, "saf\u2581e</w>": 2484, "que\u2581en</w>": 2485, "ci\u2581l</w>": 2486, "in\u2581tro": 2487, "vi\u2581l</w>": 2488, "d\u2581ani": 2489, "..\u2581.": 2490, "ar\u2581tic": 2491, "st\u2581at": 2492, "sh\u2581ort</w>": 2493, "or\u2581ing</w>": 2494, "sel\u2581fi": 2495, "mis\u2581si": 2496, "do\u2581c": 2497, "b\u2581it": 2498, "g\u2581all": 2499, "b\u2581om": 2500, "i\u2581re": 2501, "se\u2581lec": 2502, "d\u2581ition</w>": 2503, "\u00f0\u0141\u0136\u2581\u00a5</w>": 2504, "fri\u2581end": 2505, "be\u2581at</w>": 2506, "gh\u2581ting</w>": 2507, "\u00f0\u0141\u013a\u2581\u012c</w>": 2508, "pe\u2581ace</w>": 2509, "ex\u2581hi": 2510, "ant\u2581a</w>": 2511, "ab\u2581ility</w>": 2512, "il\u2581lu": 2513, "j\u2581on": 2514, "qu\u2581ality</w>": 2515, "tri\u2581bu": 2516, "m\u2581es</w>": 2517, "play\u2581ers</w>": 2518, "fa\u2581ir": 2519, "cu\u2581t</w>": 2520, "c\u2581ab": 2521, "suc\u2581cess</w>": 2522, "b\u2581i</w>": 2523, "su\u2581s</w>": 2524, "pro\u2581mo": 2525, "sch\u2581e": 2526, "an\u2581ge</w>": 2527, "ic\u2581o</w>": 2528, "comm\u2581it": 2529, "cat\u2581ch</w>": 2530, "ill\u2581a</w>": 2531, "kin\u2581d</w>": 2532, "feel\u2581ing</w>": 2533, "qu\u2581o": 2534, "s\u2581ay": 2535, "anni\u2581versary</w>": 2536, "spo\u2581t</w>": 2537, "mo\u2581ther</w>": 2538, "an\u2581e</w>": 2539, "p\u2581end": 2540, "your\u2581self</w>": 2541, "op\u2581s</w>": 2542, "app\u2581le</w>": 2543, "min\u2581utes</w>": 2544, "p\u2581o</w>": 2545, "gr\u2581and": 2546, "ri\u2581es</w>": 2547, "ha\u2581ha</w>": 2548, "care\u2581er</w>": 2549, "ed\u2581ition</w>": 2550, "de\u2581c": 2551, "ric\u2581k</w>": 2552, "am\u2581i</w>": 2553, "concer\u2581t</w>": 2554, "iti\u2581ve</w>": 2555, "ge\u2581ous</w>": 2556, "d\u2581ly</w>": 2557, "t\u2581te</w>": 2558, "adv\u2581ent": 2559, "i\u2581g</w>": 2560, "li\u2581ghts</w>": 2561, "ak\u2581er</w>": 2562, "sk\u2581y": 2563, "\u00e2\u0125\u2581\u00a3</w>": 2564, "r\u2581ay</w>": 2565, "fini\u2581shed</w>": 2566, "w\u2581ay": 2567, "s\u2581d": 2568, "ac\u2581coun": 2569, "\u00f0\u0141\u0134\u2581\u0137</w>": 2570, "ck\u2581y</w>": 2571, "ch\u2581el": 2572, "lit\u2581er": 2573, "pain\u2581ting</w>": 2574, "lo\u2581s</w>": 2575, "st\u2581un": 2576, "techno\u2581logy</w>": 2577, "n\u2581as": 2578, "ma\u2581r</w>": 2579, "b\u2581il": 2580, "afric\u2581a</w>": 2581, "ki\u2581e</w>": 2582, "ey\u2581es</w>": 2583, "gol\u2581f</w>": 2584, "plu\u2581s</w>": 2585, "ni\u2581a</w>": 2586, "it\u2581ec": 2587, "serv\u2581ices</w>": 2588, "wed\u2581ding</w>": 2589, "kno\u2581wn</w>": 2590, "te\u2581le": 2591, "..\u2581...</w>": 2592, "star\u2581ts</w>": 2593, "pa\u2581ren": 2594, "w\u2581ants</w>": 2595, "ati\u2581onal</w>": 2596, "mon\u2581ths</w>": 2597, "win\u2581do": 2598, "fav\u2581our": 2599, "er\u2581t</w>": 2600, "magaz\u2581ine</w>": 2601, "ex\u2581clu": 2602, "re\u2581ve": 2603, "b\u2581c": 2604, "origin\u2581al</w>": 2605, "e\u2581ss": 2606, "n\u2581al</w>": 2607, "an\u2581ti": 2608, "st\u2581ro": 2609, "t\u2581ice</w>": 2610, "stu\u2581dy</w>": 2611, "\u00e0\u2581\u00a4": 2612, "v\u2581ac": 2613, "nation\u2581al": 2614, "fi\u2581ve</w>": 2615, "ra\u2581in": 2616, "ve\u2581ment</w>": 2617, "u\u2581te</w>": 2618, "ver\u2581se</w>": 2619, "em\u2581er": 2620, "ar\u2581my</w>": 2621, "possi\u2581ble</w>": 2622, "gue\u2581ss</w>": 2623, "val\u2581ley</w>": 2624, "ther\u2581n</w>": 2625, "cro\u2581w": 2626, "m\u2581r": 2627, "col\u2581or</w>": 2628, "on\u2581to</w>": 2629, "pic\u2581k</w>": 2630, "cle\u2581ar</w>": 2631, "dar\u2581k</w>": 2632, "t\u2581ac": 2633, "wan\u2581ted</w>": 2634, "it\u2581ting</w>": 2635, "can\u2581cer</w>": 2636, "govern\u2581ment</w>": 2637, "di\u2581e": 2638, "ri\u2581se</w>": 2639, "z\u2581ing</w>": 2640, "col\u2581d</w>": 2641, "f\u2581oun": 2642, "stu\u2581dio</w>": 2643, "str\u2581ation</w>": 2644, "bro\u2581ther</w>": 2645, "a\u2581head</w>": 2646, "sh\u2581el": 2647, "mic\u2581ro": 2648, "ic\u2581ally</w>": 2649, "d\u2581au": 2650, "sig\u2581ned</w>": 2651, "vi\u2581ol": 2652, "a\u2581x": 2653, "as\u2581se": 2654, "i\u2581o": 2655, "w\u2581re": 2656, "spl\u2581ay</w>": 2657, "ch\u2581ick": 2658, "augu\u2581st</w>": 2659, "pl\u2581at": 2660, "ti\u2581ps</w>": 2661, "sp\u2581i": 2662, "hu\u2581man": 2663, "e\u2581asy</w>": 2664, "lo\u2581gi": 2665, "mi\u2581ke</w>": 2666, "gro\u2581w": 2667, "ag\u2581re": 2668, "w\u2581w": 2669, "sh\u2581ad": 2670, "mo\u2581tiv": 2671, "wi\u2581de</w>": 2672, "tur\u2581ns</w>": 2673, "om\u2581g</w>": 2674, "v\u2581ar": 2675, "de\u2581fin": 2676, "su\u2581g": 2677, "j\u2581im": 2678, "\u00f0\u0141\u0136\u2581\u00a5": 2679, "t\u2581d</w>": 2680, "campa\u2581ign</w>": 2681, "nam\u2581ed</w>": 2682, "re\u2581tweet</w>": 2683, "co\u2581p": 2684, "t\u2581v": 2685, "le\u2581av": 2686, "k\u2581is": 2687, "dou\u2581ble</w>": 2688, "s\u2581mar": 2689, "issu\u2581e</w>": 2690, "vil\u2581la": 2691, "in\u2581formation</w>": 2692, "li\u2581es</w>": 2693, "sto\u2581ck</w>": 2694, "n\u2581t</w>": 2695, "di\u2581stric": 2696, "sh\u2581or": 2697, "mi\u2581x": 2698, "er\u2581o": 2699, "se\u2581p": 2700, "me\u2581x": 2701, "see\u2581ing</w>": 2702, "li\u2581ve": 2703, "re\u2581min": 2704, "co\u2581de</w>": 2705, "g\u2581ur": 2706, "s\u2581c</w>": 2707, "wil\u2581d</w>": 2708, "l\u2581un": 2709, "h\u2581ood</w>": 2710, "spo\u2581t": 2711, "fa\u2581ther</w>": 2712, "fore\u2581ver</w>": 2713, "up\u2581d": 2714, "tra\u2581f": 2715, "f\u2581ly</w>": 2716, "ne\u2581ed": 2717, "gra\u2581du": 2718, "tra\u2581in</w>": 2719, "ma\u2581ke": 2720, "s\u2581ab": 2721, "be\u2581y": 2722, "si\u2581ze</w>": 2723, "lead\u2581er</w>": 2724, "tal\u2581ks</w>": 2725, "e\u2581u</w>": 2726, "lo\u2581g": 2727, "fo\u2581x</w>": 2728, "gor\u2581geous</w>": 2729, "le\u2581ss": 2730, "le\u2581ts</w>": 2731, "sur\u2581pri": 2732, "my\u2581self</w>": 2733, "no\u2581te</w>": 2734, "li\u2581ves</w>": 2735, "f\u2581ru": 2736, "lo\u2581ved</w>": 2737, "se\u2581ver": 2738, "de\u2581m": 2739, "j\u2581i": 2740, "so\u2581c": 2741, "h\u2581old</w>": 2742, "do\u2581gs</w>": 2743, "n\u2581i</w>": 2744, "\u00e2\u2581\u0140": 2745, "lea\u2581ve</w>": 2746, "air\u2581port</w>": 2747, "ben\u2581ef": 2748, "ex\u2581pl": 2749, "shi\u2581ps</w>": 2750, "comple\u2581te</w>": 2751, "ach\u2581i": 2752, "gre\u2581at": 2753, "vin\u2581tage</w>": 2754, "j\u2581ack</w>": 2755, "ro\u2581c": 2756, "woo\u2581d": 2757, "pri\u2581v": 2758, "off\u2581er</w>": 2759, "ey\u2581e</w>": 2760, "ver\u2581sion</w>": 2761, "te\u2581a</w>": 2762, "co\u2581ach": 2763, "off\u2581ic": 2764, "w\u2581ell": 2765, "g\u2581en</w>": 2766, "s\u2581at</w>": 2767, "h\u2581h": 2768, "you\u2581th</w>": 2769, "o\u2581x": 2770, "?\u2581\"</w>": 2771, "m\u2581t</w>": 2772, "mi\u2581x</w>": 2773, "g\u2581g</w>": 2774, "d\u2581le</w>": 2775, "natu\u2581ral</w>": 2776, "buil\u2581d</w>": 2777, "break\u2581fast</w>": 2778, "thin\u2581king</w>": 2779, "theat\u2581re</w>": 2780, "mo\u2581on</w>": 2781, "ber\u2581g</w>": 2782, "go\u2581als</w>": 2783, "geor\u2581ge</w>": 2784, "en\u2581e": 2785, "exc\u2581ell": 2786, "il\u2581ing</w>": 2787, "tun\u2581e</w>": 2788, "y\u2581ed</w>": 2789, "g\u2581ate</w>": 2790, "m\u2581it": 2791, "net\u2581work</w>": 2792, "jo\u2581e</w>": 2793, "h\u2581ello</w>": 2794, "f\u2581b</w>": 2795, "tu\u2581be</w>": 2796, "we\u2581aring</w>": 2797, "ath\u2581le": 2798, "stru\u2581c": 2799, "har\u2581d": 2800, "gla\u2581ss</w>": 2801, "g\u2581ers</w>": 2802, "thro\u2581w": 2803, "g\u2581es</w>": 2804, "b\u2581t": 2805, "indu\u2581stry</w>": 2806, "manag\u2581ement</w>": 2807, "ali\u2581st</w>": 2808, "go\u2581al</w>": 2809, "stre\u2581am</w>": 2810, "y\u2581el": 2811, "a\u2581vi": 2812, "ici\u2581ous</w>": 2813, "o\u2581thers</w>": 2814, "s\u2581ki": 2815, "chri\u2581sti": 2816, "bir\u2581d</w>": 2817, "e\u2581sc": 2818, "m\u2581in</w>": 2819, "tr\u2581o</w>": 2820, "l\u2581t</w>": 2821, "j\u2581an</w>": 2822, "im\u2581p": 2823, "ri\u2581ghts</w>": 2824, "sh\u2581a</w>": 2825, "or\u2581gan": 2826, "cent\u2581ral</w>": 2827, "ar\u2581a</w>": 2828, "ro\u2581ll</w>": 2829, "favour\u2581ite</w>": 2830, "che\u2581ster</w>": 2831, "el\u2581se</w>": 2832, "p\u2581ay</w>": 2833, "car\u2581s</w>": 2834, "m\u2581ine</w>": 2835, "ste\u2581p</w>": 2836, "prac\u2581tice</w>": 2837, "maj\u2581or</w>": 2838, "h\u2581ang": 2839, "\u00f0\u0141\u013a\u2581\u013a</w>": 2840, "n\u2581on</w>": 2841, "v\u2581ari": 2842, "eng\u2581ine": 2843, "vol\u2581un": 2844, "di\u2581a</w>": 2845, "i\u2581led</w>": 2846, "arch\u2581itec": 2847, "p\u2581ink</w>": 2848, "d\u2581s": 2849, "th\u2581y</w>": 2850, "wa\u2581sh": 2851, "web\u2581site</w>": 2852, "ba\u2581g</w>": 2853, "contro\u2581l</w>": 2854, "el\u2581li": 2855, "f\u2581ra": 2856, "an\u2581sw": 2857, "d\u2581ence</w>": 2858, "y\u2581u": 2859, "r\u2581on</w>": 2860, "ol\u2581a</w>": 2861, "g\u2581in": 2862, "dr\u2581in": 2863, "li\u2581c</w>": 2864, "cou\u2581ple</w>": 2865, "sp\u2581ar": 2866, "g\u2581on</w>": 2867, "cre\u2581ate</w>": 2868, "c\u2581t": 2869, "celebr\u2581ating</w>": 2870, "de\u2581ep</w>": 2871, "e\u2581at</w>": 2872, "te\u2581e</w>": 2873, "vo\u2581ice</w>": 2874, "dro\u2581p</w>": 2875, "vis\u2581it": 2876, "at\u2581ors</w>": 2877, "sta\u2581dium</w>": 2878, "f\u2581t": 2879, "w\u2581is": 2880, "ro\u2581l": 2881, "gra\u2581de</w>": 2882, "fam\u2581il": 2883, "po\u2581ints</w>": 2884, "re\u2581pre": 2885, "w\u2581as": 2886, "traf\u2581fic</w>": 2887, "jap\u2581an</w>": 2888, "or\u2581g": 2889, "hon\u2581or</w>": 2890, "tex\u2581as</w>": 2891, "man\u2581u": 2892, "\u00e2\u013b\u2581\u00a5</w>": 2893, "safe\u2581ty</w>": 2894, "re\u2581r</w>": 2895, "b\u2581ag": 2896, "em\u2581plo": 2897, "rele\u2581ased</w>": 2898, "re\u2581gu": 2899, "ak\u2581a</w>": 2900, "n\u2581av": 2901, "ro\u2581le</w>": 2902, "sen\u2581ior</w>": 2903, "spec\u2581t</w>": 2904, "cro\u2581ss</w>": 2905, "lin\u2581es</w>": 2906, "be\u2581st": 2907, "p\u2581ack</w>": 2908, "s\u2581in</w>": 2909, "ti\u2581e</w>": 2910, "mis\u2581sing</w>": 2911, "sun\u2581set</w>": 2912, "li\u2581ber": 2913, "is\u2581ing</w>": 2914, "j\u2581ay": 2915, "sk\u2581i</w>": 2916, "champion\u2581ship</w>": 2917, "ac\u2581tiv": 2918, "la\u2581dies</w>": 2919, "play\u2581ed</w>": 2920, "y\u2581y": 2921, "pu\u2581bl": 2922, "al\u2581o": 2923, "pri\u2581de</w>": 2924, "s\u2581r": 2925, "pa\u2581ki": 2926, "lu\u2581x": 2927, "sur\u2581vi": 2928, "ck\u2581ed</w>": 2929, "e\u2581ts</w>": 2930, "cho\u2581col": 2931, "austr\u2581alia</w>": 2932, "par\u2581is</w>": 2933, "mi\u2581les</w>": 2934, "h\u2581at": 2935, "ment\u2581al</w>": 2936, "al\u2581a</w>": 2937, "me\u2581an</w>": 2938, "mob\u2581ile</w>": 2939, "en\u2581a</w>": 2940, "in\u2581si": 2941, "f\u2581ound": 2942, "chi\u2581ef</w>": 2943, "t\u2581ag": 2944, "incredi\u2581ble</w>": 2945, "re\u2581turn</w>": 2946, "\u00c3\u2581\u00a9": 2947, "goo\u2581gle</w>": 2948, "fren\u2581ch</w>": 2949, "cre\u2581w</w>": 2950, "hal\u2581lo": 2951, "ali\u2581an</w>": 2952, "j\u2581az": 2953, "ch\u2581er</w>": 2954, "sil\u2581ver</w>": 2955, "nor\u2581th": 2956, "eng\u2581lish</w>": 2957, "base\u2581ball</w>": 2958, "c\u2581af": 2959, "lim\u2581ited</w>": 2960, "follow\u2581ing</w>": 2961, "app\u2581reci": 2962, "ear\u2581th</w>": 2963, "k\u2581ir": 2964, "ve\u2581mber</w>": 2965, "w\u2581ed</w>": 2966, "p\u2581tion</w>": 2967, "g\u2581ed</w>": 2968, "oc\u2581tober</w>": 2969, "fl\u2581ori": 2970, "c\u2581r</w>": 2971, "en\u2581cy</w>": 2972, "ga\u2581ve</w>": 2973, "lor\u2581d</w>": 2974, "stu\u2581ff</w>": 2975, "ber\u2581ry</w>": 2976, "po\u2581st": 2977, "sm\u2581ile</w>": 2978, "bro\u2581ad": 2979, "st\u2581ate": 2980, "gg\u2581er</w>": 2981, "me\u2581ans</w>": 2982, "ic\u2581y</w>": 2983, "gu\u2581n</w>": 2984, "y\u2581o</w>": 2985, "ma\u2581ster</w>": 2986, "bur\u2581g</w>": 2987, "han\u2581ds</w>": 2988, "ni\u2581e</w>": 2989, "/\u2581/</w>": 2990, "uni\u2581on</w>": 2991, "brit\u2581ish</w>": 2992, "big\u2581gest</w>": 2993, "distric\u2581t</w>": 2994, "am\u2581ing</w>": 2995, "h\u2581il": 2996, "o\u2581ce": 2997, "per\u2581son": 2998, "pas\u2581s</w>": 2999, "en\u2581vir": 3000, "scho\u2581ols</w>": 3001, "arri\u2581ved</w>": 3002, "anc\u2581es</w>": 3003, "insp\u2581ired</w>": 3004, "ex\u2581pla": 3005, "be\u2581n</w>": 3006, "libr\u2581ary</w>": 3007, "bo\u2581tt": 3008, "am\u2581p": 3009, "ste\u2581ph": 3010, "cont\u2581act</w>": 3011, "b\u2581ang": 3012, "m\u2581s": 3013, "cali\u2581for": 3014, "t\u2581old</w>": 3015, "batt\u2581le</w>": 3016, "b\u2581b</w>": 3017, "chic\u2581ago</w>": 3018, "\u00e2\u013e\u2581\u00a8</w>": 3019, "str\u2581ate": 3020, "sh\u2581i</w>": 3021, "de\u2581ce": 3022, "-\u2581)</w>": 3023, "ad\u2581d</w>": 3024, "la\u2581b": 3025, "j\u2581ones</w>": 3026, "leg\u2581end</w>": 3027, "cast\u2581le</w>": 3028, "ing\u2581er</w>": 3029, "st\u2581ance</w>": 3030, "be\u2581l</w>": 3031, "ur\u2581a</w>": 3032, "re\u2581fu": 3033, "lead\u2581ers</w>": 3034, "po\u2581t": 3035, "se\u2581x": 3036, "h\u2581ic": 3037, "artic\u2581le</w>": 3038, "ki\u2581d</w>": 3039, "fr\u2581ance</w>": 3040, "x\u2581x</w>": 3041, "ex\u2581e": 3042, "gui\u2581de</w>": 3043, "volun\u2581te": 3044, "pr\u2581int</w>": 3045, "al\u2581i</w>": 3046, "ce\u2581o</w>": 3047, "twee\u2581ts</w>": 3048, "w\u2581x</w>": 3049, "scen\u2581e</w>": 3050, "vol\u2581u": 3051, "ant\u2581i</w>": 3052, "h\u2581an</w>": 3053, "as\u2581soci": 3054, "shar\u2581ing</w>": 3055, "ro\u2581se</w>": 3056, "mini\u2581ster</w>": 3057, "sh\u2581er": 3058, "in\u2581ste": 3059, "cle\u2581an": 3060, "demo\u2581cr": 3061, "po\u2581ster</w>": 3062, "sk\u2581in</w>": 3063, "p\u2581sy": 3064, "pro\u2581per": 3065, "cra\u2581zy</w>": 3066, "i\u2581am": 3067, "o\u2581re": 3068, "in\u2581i</w>": 3069, "any\u2581thing</w>": 3070, "po\u2581d": 3071, "mo\u2581ving</w>": 3072, "cl\u2581ick</w>": 3073, "ex\u2581plo": 3074, "com\u2581b": 3075, "cra\u2581ft</w>": 3076, "f\u2581i</w>": 3077, "bloo\u2581d</w>": 3078, "is\u2581ra": 3079, "publ\u2581ic": 3080, "d\u2581ent": 3081, "ol\u2581ym": 3082, "eng\u2581land</w>": 3083, "a\u2581si": 3084, "ch\u2581er": 3085, "fac\u2581t</w>": 3086, "envir\u2581on": 3087, "har\u2581ry</w>": 3088, "g\u2581one</w>": 3089, "me\u2581dic": 3090, "enjo\u2581ying</w>": 3091, "just\u2581ice</w>": 3092, "j\u2581r</w>": 3093, "indi\u2581an</w>": 3094, "wi\u2581fe</w>": 3095, "s\u2581ound</w>": 3096, "t\u2581es</w>": 3097, "dra\u2581wing</w>": 3098, "p\u2581al</w>": 3099, "ide\u2581a</w>": 3100, "cr\u2581it": 3101, "ju\u2581li": 3102, "il\u2581er</w>": 3103, "war\u2581m</w>": 3104, "cl\u2581ar": 3105, "thou\u2581ghts</w>": 3106, "def\u2581en": 3107, "coun\u2581cil</w>": 3108, "intro\u2581duc": 3109, "di\u2581ed</w>": 3110, "jan\u2581u": 3111, "an\u2581i</w>": 3112, "s\u2581end</w>": 3113, "li\u2581er</w>": 3114, "m\u2581l": 3115, "intere\u2581sting</w>": 3116, "tra\u2581de</w>": 3117, "win\u2581d</w>": 3118, "b\u2581ay": 3119, "s\u2581ac": 3120, "anc\u2581y</w>": 3121, "sour\u2581ce</w>": 3122, "b\u2581es</w>": 3123, "org\u2581ani": 3124, "ar\u2581ly</w>": 3125, "lar\u2581ge</w>": 3126, "ff\u2581ici": 3127, "ta\u2581g</w>": 3128, "u\u2581t</w>": 3129, "de\u2581sp": 3130, "o\u2581es</w>": 3131, "tit\u2581le</w>": 3132, "sy\u2581m": 3133, "pic\u2581tures</w>": 3134, "op\u2581en": 3135, "wom\u2581en": 3136, "sho\u2581wing</w>": 3137, "ri\u2581a</w>": 3138, "le\u2581ast</w>": 3139, "lead\u2581ership</w>": 3140, "cur\u2581rent</w>": 3141, "elec\u2581tr": 3142, "val\u2581ent": 3143, "list\u2581ening</w>": 3144, "c\u2581key</w>": 3145, "gener\u2581al</w>": 3146, "de\u2581ser": 3147, "du\u2581ce</w>": 3148, ";\u2581)</w>": 3149, "c\u2581ent</w>": 3150, "\u00f0\u0141\u013a\u012f\u2581\u00f0\u0141\u013a\u012f": 3151, "sco\u2581tt</w>": 3152, "po\u2581or</w>": 3153, "selfi\u2581e</w>": 3154, "ev\u2581ents</w>": 3155, "i\u2581on</w>": 3156, "wr\u2581ong</w>": 3157, "de\u2581v</w>": 3158, "h\u2581ill": 3159, "sep\u2581te": 3160, "cul\u2581ture</w>": 3161, "l\u2581ine": 3162, "sor\u2581ry</w>": 3163, "s\u2581ent</w>": 3164, "si\u2581ster</w>": 3165, "ce\u2581pt</w>": 3166, "k\u2581ri": 3167, "no\u2581vember</w>": 3168, "ar\u2581i</w>": 3169, "announ\u2581ce</w>": 3170, "z\u2581ation</w>": 3171, "br\u2581an": 3172, "g\u2581ent": 3173, "d\u2581u</w>": 3174, "l\u2581en": 3175, "per\u2581s": 3176, "f\u2581m</w>": 3177, "mart\u2581in</w>": 3178, "o\u2581p</w>": 3179, "e\u2581mb": 3180, "om\u2581e": 3181, "midd\u2581le</w>": 3182, "suc\u2581cess": 3183, "pe\u2581ter</w>": 3184, "janu\u2581ary</w>": 3185, "f\u2581lu": 3186, "rac\u2581ing</w>": 3187, "d\u2581av": 3188, "bi\u2581ke</w>": 3189, "\u00f0\u0141\u0131\u2581\u00bb</w>": 3190, "pe\u2581t</w>": 3191, "shoo\u2581t</w>": 3192, "profe\u2581ssi": 3193, "feat\u2581uring</w>": 3194, "septe\u2581mber</w>": 3195, "now\u2581playing</w>": 3196, "sta\u2581ur": 3197, "z\u2581a": 3198, "on\u2581ic</w>": 3199, "qu\u2581ick</w>": 3200, "bas\u2581ke": 3201, "spe\u2581aking</w>": 3202, "mil\u2581it": 3203, "z\u2581er</w>": 3204, "chick\u2581en</w>": 3205, "b\u2581ell</w>": 3206, "s\u2581ad</w>": 3207, "co\u2581ast</w>": 3208, "lo\u2581ving</w>": 3209, "y\u2581ers</w>": 3210, "d\u2581j</w>": 3211, "pan\u2581el</w>": 3212, "ver\u2581age</w>": 3213, "s\u2581wit": 3214, "ic\u2581ks</w>": 3215, "b\u2581ou": 3216, "califor\u2581nia</w>": 3217, "s\u2581am</w>": 3218, "paren\u2581ts</w>": 3219, "er\u2581o</w>": 3220, "k\u2581illed</w>": 3221, "ph\u2581ys": 3222, "jo\u2581bs</w>": 3223, "mi\u2581gr": 3224, "an\u2581th": 3225, "e\u2581mo": 3226, "hallo\u2581ween</w>": 3227, "and\u2581er": 3228, "c\u2581m</w>": 3229, "compet\u2581ition</w>": 3230, "e\u2581ag": 3231, "s\u2581ket": 3232, "sp\u2581ir": 3233, "may\u2581be</w>": 3234, "exclu\u2581sive</w>": 3235, "app\u2581e": 3236, "jour\u2581ney</w>": 3237, "scre\u2581en</w>": 3238, "for\u2581d": 3239, "i\u2581o</w>": 3240, "h\u2581ate</w>": 3241, "u\u2581g": 3242, "sou\u2581l</w>": 3243, "her\u2581o</w>": 3244, "soci\u2581ety</w>": 3245, "sy\u2581n": 3246, "gu\u2581it": 3247, "n\u2581h": 3248, "d\u2581j": 3249, "as\u2581es</w>": 3250, "im\u2581pre": 3251, "ti\u2581me": 3252, "sal\u2581es</w>": 3253, "d\u2581d</w>": 3254, "f\u2581ts</w>": 3255, "summ\u2581it</w>": 3256, "stun\u2581ning</w>": 3257, "om\u2581s</w>": 3258, "tur\u2581ned</w>": 3259, "cle\u2581an</w>": 3260, "sof\u2581t</w>": 3261, "be\u2581at": 3262, "re\u2581staur": 3263, "de\u2581red</w>": 3264, "en\u2581ces</w>": 3265, "ma\u2581gic</w>": 3266, "di\u2581o": 3267, "sh\u2581ine</w>": 3268, "gu\u2581est</w>": 3269, "health\u2581y</w>": 3270, "exhi\u2581b": 3271, "stor\u2581ies</w>": 3272, "po\u2581pu": 3273, "n\u2581is</w>": 3274, "el\u2581a</w>": 3275, "bel\u2581ow</w>": 3276, "fun\u2581ny</w>": 3277, "resul\u2581ts</w>": 3278, "s\u2581ne": 3279, "cur\u2581rently</w>": 3280, "ar\u2581d": 3281, "down\u2581load</w>": 3282, "f\u2581light</w>": 3283, "m\u2581al</w>": 3284, "f\u2581ine</w>": 3285, "p\u2581ad": 3286, "ch\u2581u": 3287, "ent\u2581ed</w>": 3288, "h\u2581at</w>": 3289, "\u00f0\u0141\u0133\u2581\u0131": 3290, "ste\u2581ve</w>": 3291, "j\u2581o</w>": 3292, "mar\u2581k": 3293, "r\u2581at": 3294, "b\u2581all": 3295, "p\u2581c</w>": 3296, "p\u2581on": 3297, "b\u2581by</w>": 3298, "o\u2581li": 3299, "ar\u2581ts</w>": 3300, "as\u2581ure</w>": 3301, "bow\u2581l</w>": 3302, "att\u2581ack</w>": 3303, "mi\u2581c</w>": 3304, "de\u2581ar</w>": 3305, "ran\u2581ge</w>": 3306, "en\u2581ter</w>": 3307, "chocol\u2581ate</w>": 3308, "br\u2581illi": 3309, "ac\u2581cess</w>": 3310, ",\u2581\"</w>": 3311, "?\u2581??</w>": 3312, "ch\u2581ap": 3313, "con\u2581st": 3314, "t\u2581n": 3315, "mat\u2581ter</w>": 3316, "blu\u2581e": 3317, "gall\u2581ery</w>": 3318, "em\u2581p": 3319, "work\u2581shop</w>": 3320, "lead\u2581ing</w>": 3321, "y\u2581ours</w>": 3322, "baske\u2581tball</w>": 3323, "w\u2581anna</w>": 3324, "th\u2581u": 3325, "_\u2581_</w>": 3326, "mar\u2581ri": 3327, "sle\u2581ep</w>": 3328, "bi\u2581a</w>": 3329, "ch\u2581e</w>": 3330, "ma\u2581d</w>": 3331, "imp\u2581act</w>": 3332, "o\u2581wn": 3333, "si\u2581r</w>": 3334, "chan\u2581nel</w>": 3335, "euro\u2581pe</w>": 3336, "e\u2581sp": 3337, "k\u2581itch": 3338, "hosp\u2581ital</w>": 3339, "w\u2581ra": 3340, "roy\u2581al</w>": 3341, "f\u2581s</w>": 3342, "ne\u2581u": 3343, "qu\u2581ar": 3344, "ne\u2581y": 3345, "ac\u2581ks</w>": 3346, "ch\u2581ase</w>": 3347, "pp\u2581y</w>": 3348, "st\u2581al": 3349, "at\u2581ely</w>": 3350, "ti\u2581m</w>": 3351, "dece\u2581mber</w>": 3352, "r\u2581are</w>": 3353, "per\u2581form": 3354, "cre\u2581am</w>": 3355, "we\u2581ight</w>": 3356, "ch\u2581oo": 3357, "ni\u2581ght": 3358, "ha\u2581ven</w>": 3359, "fr\u2581anc": 3360, "kh\u2581an</w>": 3361, "buil\u2581t</w>": 3362, "hel\u2581ping</w>": 3363, "tru\u2581st</w>": 3364, "ty\u2581pe</w>": 3365, "gol\u2581den</w>": 3366, "ta\u2581x</w>": 3367, "s\u2581now": 3368, "s\u2581wi": 3369, "di\u2581sa": 3370, "questi\u2581ons</w>": 3371, "ve\u2581y</w>": 3372, "li\u2581ght": 3373, "c\u2581n": 3374, "cl\u2581oud</w>": 3375, "thom\u2581as</w>": 3376, "ag\u2581ed</w>": 3377, "sh\u2581ou": 3378, "te\u2581ams</w>": 3379, "gr\u2581an": 3380, "re\u2581ason</w>": 3381, "a\u2581a</w>": 3382, "you\u2581tube</w>": 3383, "v\u2581p</w>": 3384, "pi\u2581zz": 3385, "manag\u2581er</w>": 3386, "bur\u2581y</w>": 3387, "cre\u2581dit</w>": 3388, "tre\u2581at</w>": 3389, "ma\u2581x</w>": 3390, "i\u2581k": 3391, "ma\u2581in": 3392, "g\u2581ing</w>": 3393, "de\u2581ad": 3394, "pro\u2581bab": 3395, "ye\u2581ah</w>": 3396, "\u00e3\u2581\u0124": 3397, "br\u2581and": 3398, "so\u2581li": 3399, "pl\u2581ant</w>": 3400, "ta\u2581yl": 3401, "gir\u2581l": 3402, "\u00f0\u0141\u013a\u2581\u0143</w>": 3403, "nam\u2581ent</w>": 3404, "au\u2581to": 3405, "mess\u2581age</w>": 3406, "ko\u2581re": 3407, "n\u2581ur": 3408, "ter\u2581r": 3409, "ag\u2581u": 3410, "ma\u2581p</w>": 3411, "sen\u2581ting</w>": 3412, "lo\u2581ves</w>": 3413, "gi\u2581ves</w>": 3414, "g\u2581ab": 3415, "z\u2581en</w>": 3416, "ro\u2581bert</w>": 3417, "con\u2581fir": 3418, "w\u2581ars</w>": 3419, "o\u2581m</w>": 3420, "sta\u2581in": 3421, "cam\u2581era</w>": 3422, "and\u2581er</w>": 3423, "won\u2581der</w>": 3424, "a\u2581b</w>": 3425, "ca\u2581p</w>": 3426, "s\u2581old</w>": 3427, "su\u2581it</w>": 3428, "wal\u2581king</w>": 3429, "contin\u2581ue</w>": 3430, "effe\u2581c": 3431, "dau\u2581ghter</w>": 3432, "d\u2581anc": 3433, "cha\u2581in</w>": 3434, "mul\u2581ti": 3435, "ki\u2581d": 3436, "y\u2581an": 3437, "champi\u2581on</w>": 3438, "v\u2581o</w>": 3439, "ta\u2581ins</w>": 3440, "ho\u2581st</w>": 3441, "min\u2581i</w>": 3442, "mis\u2581sed</w>": 3443, "re\u2581sc": 3444, "ly\u2581n": 3445, "fin\u2581ish</w>": 3446, "del\u2581icious</w>": 3447, "s\u2581as": 3448, "tayl\u2581or</w>": 3449, "i\u2581b": 3450, "pro\u2581mis": 3451, "produc\u2581ts</w>": 3452, "moun\u2581tain</w>": 3453, "flori\u2581da</w>": 3454, "regi\u2581ster</w>": 3455, "tre\u2581at": 3456, "rec\u2581ent</w>": 3457, "fe\u2581male</w>": 3458, "boo\u2581th</w>": 3459, "mat\u2581t</w>": 3460, "ve\u2581hic": 3461, "s\u2581op": 3462, "mo\u2581tor": 3463, "suppor\u2581ting</w>": 3464, "phi\u2581c</w>": 3465, "ex\u2581tre": 3466, "dr\u2581ink</w>": 3467, "lan\u2581e</w>": 3468, "th\u2581ird</w>": 3469, "p\u2581s": 3470, "con\u2581stru": 3471, "ce\u2581re": 3472, "far\u2581m</w>": 3473, "\u00f0\u0141\u0130\u2581\u012b</w>": 3474, "tu\u2581red</w>": 3475, "\u00f0\u0141\u0133\u2581\u012b</w>": 3476, "c\u2581ats</w>": 3477, "a\u2581j": 3478, "gi\u2581e</w>": 3479, "shoo\u2581ting</w>": 3480, "as\u2581ked</w>": 3481, "paki\u2581stan</w>": 3482, "am\u2581e": 3483, "m\u2581b</w>": 3484, "g\u2581il": 3485, "leg\u2581al</w>": 3486, "squ\u2581are</w>": 3487, "in\u2581vol": 3488, "dra\u2581w</w>": 3489, "oo\u2581oo": 3490, "!!\u2581!!": 3491, "opportun\u2581ity</w>": 3492, "p\u2581y": 3493, "e\u2581i": 3494, "b\u2581ts</w>": 3495, "teach\u2581er</w>": 3496, "charac\u2581ter</w>": 3497, "john\u2581son</w>": 3498, "br\u2581on": 3499, "ly\u2581wood</w>": 3500, "ch\u2581ine": 3501, "c\u2581ing</w>": 3502, "c\u2581ine": 3503, "d\u2581ge": 3504, "gam\u2581ing</w>": 3505, "russi\u2581a</w>": 3506, "ci\u2581a</w>": 3507, "quo\u2581te</w>": 3508, "ric\u2581h</w>": 3509, "go\u2581v": 3510, "flow\u2581ers</w>": 3511, "sp\u2581iri": 3512, "st\u2581in</w>": 3513, "grow\u2581th</w>": 3514, "\u00f0\u0141\u0131\u2581\u00bc</w>": 3515, "comm\u2581er": 3516, "j\u2581uni": 3517, "mu\u2581m</w>": 3518, "r\u2581an</w>": 3519, "s\u2581na": 3520, "a\u2581ren": 3521, "c\u2581b": 3522, "ac\u2581tor</w>": 3523, "col\u2581or": 3524, "si\u2581t</w>": 3525, "pa\u2581ir</w>": 3526, "ch\u2581i</w>": 3527, "bo\u2581w</w>": 3528, "acade\u2581my</w>": 3529, "hel\u2581d</w>": 3530, "r\u2581ang": 3531, "me\u2581tal</w>": 3532, "y\u2581l</w>": 3533, "ac\u2581tive</w>": 3534, "probab\u2581ly</w>": 3535, "t\u2581ch</w>": 3536, "need\u2581ed</w>": 3537, "spe\u2581e": 3538, "cho\u2581ice</w>": 3539, "ital\u2581y</w>": 3540, "ry\u2581an</w>": 3541, "\u00f0\u0141\u0129\u2581\u00ba": 3542, "flow\u2581er</w>": 3543, "v\u2581it": 3544, "m\u2581n</w>": 3545, "found\u2581ation</w>": 3546, "b\u2581ak": 3547, "si\u2581ons</w>": 3548, "ne\u2581igh": 3549, "f\u2581loo": 3550, "he\u2581ard</w>": 3551, "re\u2581mo": 3552, "fre\u2581sh": 3553, "ing\u2581ing</w>": 3554, "re\u2581f": 3555, "to\u2581wn": 3556, "cl\u2581ou": 3557, "je\u2581sus</w>": 3558, "spiri\u2581t</w>": 3559, "cou\u2581ldn</w>": 3560, "z\u2581es</w>": 3561, "\u00f0\u0141\u0134\u2581\u013b</w>": 3562, "willi\u2581ams</w>": 3563, "pro\u2581ce": 3564, "moder\u2581n</w>": 3565, "pro\u2581cess</w>": 3566, "sho\u2581es</w>": 3567, "cre\u2581ated</w>": 3568, "tri\u2581c</w>": 3569, "issu\u2581es</w>": 3570, "ann\u2581e</w>": 3571, "att\u2581en": 3572, "de\u2581but</w>": 3573, "h\u2581r</w>": 3574, "n\u2581it": 3575, "sti\u2581g": 3576, "a\u2581po": 3577, "e\u2581ps</w>": 3578, "z\u2581u": 3579, "\u00e3\u2581\u0122": 3580, "si\u2581x</w>": 3581, "car\u2581ds</w>": 3582, "lan\u2581gu": 3583, "fam\u2581ous</w>": 3584, "tour\u2581nament</w>": 3585, "se\u2581l</w>": 3586, "e\u2581bay</w>": 3587, "y\u2581n</w>": 3588, "st\u2581on": 3589, "k\u2581ick": 3590, "announ\u2581ced</w>": 3591, "k\u2581am": 3592, "vo\u2581c": 3593, "brilli\u2581ant</w>": 3594, "hou\u2581se": 3595, "che\u2581ese</w>": 3596, "war\u2581ri": 3597, "mus\u2581ic": 3598, "ho\u2581ckey</w>": 3599, "\u00f0\u0141\u013a\u0124\u2581\u00f0\u0141\u013a\u0124</w>": 3600, "sk\u2581ills</w>": 3601, "au\u2581tom": 3602, "smar\u2581t</w>": 3603, "med\u2581ical</w>": 3604, "mon\u2581y</w>": 3605, "e\u2581x</w>": 3606, "gu\u2581ar": 3607, "gi\u2581ve": 3608, "pers\u2581onal</w>": 3609, "ven\u2581tion</w>": 3610, "al\u2581li": 3611, "pre\u2581ss": 3612, "flo\u2581or</w>": 3613, "m\u2581c</w>": 3614, "victor\u2581y</w>": 3615, "hi\u2581m": 3616, "simp\u2581le</w>": 3617, "th\u2581or": 3618, "\u00f0\u0141\u0129\u00ba\u2581\u00f0\u0141\u0129": 3619, "ta\u2581il</w>": 3620, "lu\u2581cky</w>": 3621, "ale\u2581x</w>": 3622, "qu\u2581ite</w>": 3623, "bo\u2581t": 3624, "ssi\u2581ons</w>": 3625, "chall\u2581eng": 3626, "c\u2581ann": 3627, "amaz\u2581on</w>": 3628, "h\u2581ell</w>": 3629, "b\u2581ought</w>": 3630, ")\u2581:</w>": 3631, "ed\u2581y</w>": 3632, "secre\u2581t</w>": 3633, "produc\u2581tion</w>": 3634, "inde\u2581pend": 3635, "de\u2581fe": 3636, "ad\u2581ded</w>": 3637, "p\u2581r</w>": 3638, "p\u2581ag": 3639, "be\u2581d": 3640, "gre\u2581atest</w>": 3641, "with\u2581in</w>": 3642, "j\u2581ay</w>": 3643, "\u00f0\u0141\u2581\u00a5": 3644, "ire\u2581land</w>": 3645, "re\u2581ly</w>": 3646, "s\u2581d</w>": 3647, "te\u2581xt</w>": 3648, "dri\u2581ving</w>": 3649, "pro\u2581gram": 3650, "spe\u2581ed</w>": 3651, "col\u2581um": 3652, "str\u2581on": 3653, "\u00c3\u2581\u00a9</w>": 3654, "fore\u2581st</w>": 3655, "\u00e2\u2581\u0138": 3656, "mach\u2581ine</w>": 3657, "co\u2581in</w>": 3658, "sc\u2581ar": 3659, "oun\u2581t</w>": 3660, "bi\u2581e</w>": 3661, "\u00a1\u2581\u00ef\u00b8\u0131</w>": 3662, "por\u2581tra": 3663, "comm\u2581on</w>": 3664, "wre\u2581st": 3665, "recei\u2581ved</w>": 3666, "kno\u2581w": 3667, "inve\u2581st": 3668, "pl\u2581ans</w>": 3669, "ac\u2581cor": 3670, "ad\u2581op": 3671, "ter\u2581y</w>": 3672, "re\u2581ali": 3673, "p\u2581p</w>": 3674, "k\u2581al": 3675, "art\u2581work</w>": 3676, "me\u2581an": 3677, "go\u2581d": 3678, "inste\u2581ad</w>": 3679, "an\u2581ci": 3680, "motiv\u2581ation</w>": 3681, "as\u2581ing</w>": 3682, "inspir\u2581ation</w>": 3683, "up\u2581coming</w>": 3684, "polit\u2581ical</w>": 3685, "euro\u2581pe": 3686, "m\u2581ers</w>": 3687, "heav\u2581y</w>": 3688, "\u00f0\u0141\u0133\u2581\u012f</w>": 3689, "fe\u2581bru": 3690, "scot\u2581land</w>": 3691, "ou\u2581gh": 3692, "b\u2581t</w>": 3693, "bo\u2581ss</w>": 3694, "sche\u2581du": 3695, "spe\u2581ak</w>": 3696, "n\u2581ick": 3697, "u\u2581red</w>": 3698, "in\u2581o": 3699, "e\u2581k": 3700, "ri\u2581sk</w>": 3701, "tor\u2581y</w>": 3702, "pres\u2581ents</w>": 3703, "b\u2581on</w>": 3704, "ru\u2581g": 3705, "st\u2581ates</w>": 3706, "exhib\u2581ition</w>": 3707, "il\u2581o": 3708, "m\u2581ill": 3709, "br\u2581ought</w>": 3710, ":\u2581-)</w>": 3711, "tou\u2581ri": 3712, "com\u2581e": 3713, "offici\u2581ally</w>": 3714, "champi\u2581ons</w>": 3715, "do\u2581ors</w>": 3716, "re\u2581p": 3717, "po\u2581se</w>": 3718, "ex\u2581tra</w>": 3719, "k\u2581ings</w>": 3720, "soc\u2581cer</w>": 3721, "squ\u2581ad</w>": 3722, "app\u2581lic": 3723, "at\u2581a</w>": 3724, "some\u2581times</w>": 3725, "t\u2581ari": 3726, "excell\u2581ent</w>": 3727, "\u00f0\u0141\u013a\u2581\u013a": 3728, "stra\u2581ight</w>": 3729, "car\u2581ol": 3730, "ri\u2581p</w>": 3731, "\u00e2\u0122\u2581\u012f": 3732, "gra\u2581phic</w>": 3733, "m\u2581ol": 3734, "elec\u2581tion</w>": 3735, "febru\u2581ary</w>": 3736, "as\u2581ons</w>": 3737, "l\u2581i</w>": 3738, "di\u2581r": 3739, "m\u2581t": 3740, "n\u2581ick</w>": 3741, "u\u2581su": 3742, "m\u2581rs</w>": 3743, "com\u2581ics</w>": 3744, "inst\u2581itu": 3745, "cor\u2581por": 3746, "v\u2581i</w>": 3747, "\u00f0\u0141\u013b\u2581\u0131": 3748, "tu\u2581ral</w>": 3749, "di\u2581se": 3750, "ac\u2581ci": 3751, "we\u2581are": 3752, "am\u2581ong</w>": 3753, "sho\u2581pping</w>": 3754, "t\u2581ill</w>": 3755, "wh\u2581at": 3756, "cha\u2581ir</w>": 3757, "sp\u2581an": 3758, "chine\u2581se</w>": 3759, "innov\u2581ation</w>": 3760, "jo\u2581y</w>": 3761, "k\u2581it</w>": 3762, "cent\u2581ury</w>": 3763, "ob\u2581ama</w>": 3764, "ph\u2581ili": 3765, "f\u2581c": 3766, "re\u2581ach</w>": 3767, "c\u2581iti": 3768, "ul\u2581ous</w>": 3769, "n\u2581on": 3770, "d\u2581ang": 3771, "happ\u2581ening</w>": 3772, "bur\u2581n</w>": 3773, "p\u2581el": 3774, "or\u2581ange</w>": 3775, "d\u2581v": 3776, "k\u2581ick</w>": 3777, "cla\u2581im": 3778, "ing\u2581ham</w>": 3779, "ph\u2581y</w>": 3780, "no\u2581v</w>": 3781, "pod\u2581cast</w>": 3782, "wh\u2581i": 3783, "ni\u2581ghts</w>": 3784, "ear\u2581lier</w>": 3785, "be\u2581ar</w>": 3786, "la\u2581h</w>": 3787, "exc\u2581iting</w>": 3788, "or\u2581a</w>": 3789, "gi\u2581ven</w>": 3790, "s\u2581lo": 3791, "memor\u2581ies</w>": 3792, "contin\u2581ues</w>": 3793, "produc\u2581t</w>": 3794, "gh\u2581o": 3795, "c\u2581d": 3796, "kno\u2581ws</w>": 3797, "\u00f0\u0141\u0130\u2581\u012b": 3798, "publi\u2581shed</w>": 3799, "discu\u2581ss</w>": 3800, "y\u2581ard</w>": 3801, "i\u2581phone</w>": 3802, "tri\u2581es</w>": 3803, "w\u2581all": 3804, "fe\u2581b</w>": 3805, "are\u2581n</w>": 3806, "tru\u2581th</w>": 3807, "win\u2581ners</w>": 3808, "tu\u2581re": 3809, "diti\u2581onal</w>": 3810, "milit\u2581ary</w>": 3811, "proble\u2581m</w>": 3812, "m\u2581and": 3813, "do\u2581g": 3814, "lo\u2581ss</w>": 3815, "c\u2581ric": 3816, "can\u2581adi": 3817, "ve\u2581ter": 3818, "villa\u2581ge</w>": 3819, "\"\u2581,</w>": 3820, "y\u2581r</w>": 3821, "un\u2581g</w>": 3822, "don\u2581ald</w>": 3823, "ag\u2581ing</w>": 3824, "bir\u2581ds</w>": 3825, "sci\u2581enti": 3826, "le\u2581s": 3827, "th\u2581is": 3828, "regi\u2581on</w>": 3829, "tic\u2581al</w>": 3830, "itt\u2581en</w>": 3831, "il\u2581a</w>": 3832, "\u00f0\u0141\u013a\u2581\u0130</w>": 3833, "d\u2581ad": 3834, "di\u2581am": 3835, "abo\u2581ve</w>": 3836, "st\u2581ren": 3837, "li\u2581t</w>": 3838, "p\u2581ir": 3839, "la\u2581b</w>": 3840, "fo\u2581cus</w>": 3841, "bus\u2581y</w>": 3842, "d\u2581ur": 3843, "app\u2581ly</w>": 3844, "s\u2581ma": 3845, "auth\u2581or</w>": 3846, "ac\u2581i": 3847, "exe\u2581cu": 3848, "dom\u2581in": 3849, "re\u2581la": 3850, "jack\u2581son</w>": 3851, "at\u2581o</w>": 3852, "wash\u2581ington</w>": 3853, "\u00f0\u0141\u013b\u2581\u012e": 3854, "k\u2581ill</w>": 3855, "popu\u2581lar</w>": 3856, "ce\u2581ment</w>": 3857, "ro\u2581ad": 3858, "e\u2581ating</w>": 3859, "loc\u2581ation</w>": 3860, "v\u2581ent": 3861, "ar\u2581re": 3862, "n\u2581an": 3863, "cu\u2581sto": 3864, "advent\u2581ure</w>": 3865, "or\u2581din": 3866, "spor\u2581t": 3867, "ul\u2581t</w>": 3868, "lo\u2581ck</w>": 3869, "questi\u2581on</w>": 3870, "dri\u2581ver</w>": 3871, "land\u2581sc": 3872, "on\u2581i": 3873, "k\u2581ins</w>": 3874, "p\u2581d": 3875, "jor\u2581dan</w>": 3876, "te\u2581red</w>": 3877, "k\u2581k": 3878, "a\u2581f</w>": 3879, "chil\u2581d": 3880, "s\u2581p</w>": 3881, "just\u2581in</w>": 3882, "en\u2581i": 3883, "s\u2581elling</w>": 3884, "z\u2581o": 3885, "wh\u2581it": 3886, "bo\u2581ston</w>": 3887, "partic\u2581ip": 3888, "sig\u2581ning</w>": 3889, "happ\u2581ened</w>": 3890, "he\u2581at</w>": 3891, "m\u2581am": 3892, "dre\u2581ams</w>": 3893, "lo\u2581ws</w>": 3894, "gra\u2581ph</w>": 3895, "the\u2581day</w>": 3896, "head\u2581ing</w>": 3897, "br\u2581o</w>": 3898, "ble\u2581ssed</w>": 3899, "vi\u2581c</w>": 3900, "ve\u2581gas</w>": 3901, "h\u2581d</w>": 3902, "in\u2581ning</w>": 3903, "ro\u2581man": 3904, "and\u2581ro": 3905, "den\u2581ti": 3906, "u\u2581se": 3907, "c\u2581it": 3908, "pro\u2581gress</w>": 3909, "writ\u2581er</w>": 3910, "bo\u2581b</w>": 3911, "ff\u2581s</w>": 3912, "gro\u2581wing</w>": 3913, "b\u2581ly</w>": 3914, "aw\u2581are": 3915, "ex\u2581am": 3916, "sp\u2581ent</w>": 3917, "be\u2581t</w>": 3918, "sc\u2581ore</w>": 3919, "bey\u2581ond</w>": 3920, "do\u2581cu": 3921, "ad\u2581el": 3922, "s\u2581f": 3923, "cou\u2581ra": 3924, "colla\u2581bor": 3925, "in\u2581c</w>": 3926, "priv\u2581ate</w>": 3927, "bo\u2581at</w>": 3928, "*\u2581*</w>": 3929, "z\u2581one</w>": 3930, "p\u2581ha": 3931, "b\u2581ill": 3932, "to\u2581tal</w>": 3933, "plan\u2581ning</w>": 3934, "to\u2581wards</w>": 3935, "plac\u2581es</w>": 3936, "pre\u2581view</w>": 3937, "cre\u2581ative</w>": 3938, "dam\u2581n</w>": 3939, "ide\u2581as</w>": 3940, "se\u2581ems</w>": 3941, "po\u2581ten": 3942, "say\u2581ing</w>": 3943, "di\u2581splay</w>": 3944, "s\u2581w</w>": 3945, "a\u2581qu": 3946, "lou\u2581is</w>": 3947, "by\u2581e</w>": 3948, "li\u2581l</w>": 3949, "e\u2581mail</w>": 3950, "we\u2581stern</w>": 3951, "ger\u2581many</w>": 3952, "ell\u2581er</w>": 3953, "re\u2581s": 3954, "f\u2581ant": 3955, "ment\u2581ary</w>": 3956, "de\u2581als</w>": 3957, "ric\u2581hard</w>": 3958, "jer\u2581sey</w>": 3959, "stren\u2581g": 3960, "ra\u2581d": 3961, "pizz\u2581a</w>": 3962, "mon\u2581d</w>": 3963, "w\u2581are</w>": 3964, "l\u2581ac": 3965, "g\u2581i</w>": 3966, "ar\u2581chi": 3967, "c\u2581d</w>": 3968, "yel\u2581low</w>": 3969, "rec\u2581ently</w>": 3970, "re\u2581ach": 3971, "\u00e0\u2581\u00b9": 3972, "kitch\u2581en</w>": 3973, "desig\u2581ned</w>": 3974, "tr\u2581y": 3975, "g\u2581al</w>": 3976, "restaur\u2581ant</w>": 3977, "at\u2581ure</w>": 3978, "w\u2581w</w>": 3979, "j\u2581as": 3980, "l\u2581ma": 3981, "\u00f0\u0141\u0133\u2581\u012e</w>": 3982, "pa\u2581in</w>": 3983, "av\u2581o": 3984, "min\u2581ute</w>": 3985, "sch\u2581ol": 3986, "ther\u2581ap": 3987, "tic\u2581ket</w>": 3988, "d\u2581ry</w>": 3989, "jap\u2581an": 3990, "diti\u2581ons</w>": 3991, "ter\u2581ri": 3992, "sel\u2581ves</w>": 3993, "happ\u2581en</w>": 3994, "t\u2581up</w>": 3995, "ma\u2581g</w>": 3996, "cop\u2581y</w>": 3997, "sh\u2581er</w>": 3998, "free\u2581dom</w>": 3999, "f\u2581ile</w>": 4000, "speci\u2581ally</w>": 4001, "tor\u2581onto</w>": 4002, "lo\u2581ad": 4003, "g\u2581ary</w>": 4004, "re\u2581y</w>": 4005, "answ\u2581er</w>": 4006, "lo\u2581y": 4007, "cau\u2581ght</w>": 4008, "pri\u2581ze</w>": 4009, "u\u2581ne": 4010, "fic\u2581ation</w>": 4011, "ni\u2581ger": 4012, "sy\u2581d": 4013, "tou\u2581ch</w>": 4014, "feat\u2581ure</w>": 4015, "jaz\u2581z</w>": 4016, "recor\u2581ds</w>": 4017, "him\u2581self</w>": 4018, "di\u2581sh</w>": 4019, "ro\u2581ber": 4020, "spot\u2581ted</w>": 4021, "ma\u2581ster": 4022, "wa\u2581ve</w>": 4023, "fin\u2581als</w>": 4024, "bu\u2581ll": 4025, "for\u2581um</w>": 4026, "al\u2581d": 4027, "re\u2581comm": 4028, "ch\u2581a</w>": 4029, "a\u2581e</w>": 4030, "d\u2581oo": 4031, "inst\u2581ru": 4032, "tru\u2581ly</w>": 4033, "l\u2581g": 4034, "in\u2581k": 4035, "bro\u2581thers</w>": 4036, "de\u2581st</w>": 4037, "j\u2581im</w>": 4038, "m\u2581it</w>": 4039, "clo\u2581sed</w>": 4040, "is\u2581on</w>": 4041, "tri\u2581ed</w>": 4042, "s\u2581anta</w>": 4043, "af\u2581fe": 4044, "w\u2581an</w>": 4045, "hor\u2581se</w>": 4046, "g\u2581row</w>": 4047, "camp\u2581us</w>": 4048, "rel\u2581ation": 4049, "nati\u2581ve</w>": 4050, "jour\u2581n": 4051, "go\u2581v</w>": 4052, "o\u2581ct</w>": 4053, "k\u2581it": 4054, "b\u2581ound</w>": 4055, "part\u2581ner</w>": 4056, "re\u2581ma": 4057, "crow\u2581d</w>": 4058, "!\u2581)</w>": 4059, "c\u2581alls</w>": 4060, "ra\u2581il": 4061, "qu\u2581ali": 4062, "solu\u2581tion</w>": 4063, "con\u2581test</w>": 4064, "con\u2581vers": 4065, "sn\u2581ap": 4066, "b\u2581ase</w>": 4067, "in\u2581iti": 4068, "ta\u2581x": 4069, "y\u2581e</w>": 4070, "ent\u2581repre": 4071, "it\u2581or</w>": 4072, "constru\u2581ction</w>": 4073, "foo\u2581d": 4074, "present\u2581ed</w>": 4075, "n\u2581ings</w>": 4076, "cli\u2581mate</w>": 4077, "k\u2581m</w>": 4078, "mo\u2581del": 4079, "b\u2581j": 4080, "blo\u2581ck</w>": 4081, "present\u2581ation</w>": 4082, "dre\u2581am": 4083, "fi\u2581x": 4084, "c\u2581alling</w>": 4085, "bus\u2581ine": 4086, "con\u2581gress</w>": 4087, "under\u2581stand</w>": 4088, "we\u2581b</w>": 4089, "val\u2581ue</w>": 4090, "\u00ef\u00b8\u0131\u2581\u00e2\u0125\u00a3</w>": 4091, "mex\u2581ico</w>": 4092, "it\u2581ely</w>": 4093, "ki\u2581m</w>": 4094, "char\u2581ity</w>": 4095, "ref\u2581lec": 4096, "bl\u2581an": 4097, "fl\u2581ying</w>": 4098, "anal\u2581y": 4099, "famil\u2581ies</w>": 4100, "b\u2581and": 4101, "reci\u2581pe</w>": 4102, "celebr\u2581ation</w>": 4103, "ac\u2581cep": 4104, "ar\u2581y": 4105, "to\u2581t": 4106, "g\u2581b</w>": 4107, "intere\u2581sted</w>": 4108, "cap\u2581tain</w>": 4109, "\u00e2\u013b\u2581\u00a5": 4110, "ti\u2581p</w>": 4111, "ab\u2581sol": 4112, "bra\u2581z": 4113, "inve\u2581stig": 4114, "o\u2581logy</w>": 4115, "de\u2581c</w>": 4116, "tru\u2581ck</w>": 4117, "ver\u2581ing</w>": 4118, "c\u2581lear": 4119, "don\u2581t</w>": 4120, "go\u2581tta</w>": 4121, "ad\u2581vis": 4122, "beg\u2581ins</w>": 4123, "ma\u2581ss": 4124, "de\u2581scri": 4125, "blo\u2581ck": 4126, "k\u2581im": 4127, "davi\u2581d": 4128, "son\u2581gs</w>": 4129, "memor\u2581ial</w>": 4130, "feat\u2581ures</w>": 4131, "su\u2581stain": 4132, "'\u2581.</w>": 4133, "gra\u2581b</w>": 4134, "jo\u2581se": 4135, "v\u2581a": 4136, "con\u2581serv": 4137, "se\u2581ts</w>": 4138, "man\u2581chester</w>": 4139, "fi\u2581ghting</w>": 4140, "de\u2581gre": 4141, "ag\u2581a</w>": 4142, "in\u2581d</w>": 4143, "sle\u2581ep": 4144, "pos\u2581ition</w>": 4145, "ha\u2581ir": 4146, "sig\u2581ns</w>": 4147, "pol\u2581icy</w>": 4148, "it\u2581o</w>": 4149, "al\u2581ert</w>": 4150, "st\u2581am": 4151, "sp\u2581end</w>": 4152, "w\u2581y": 4153, "absol\u2581ut": 4154, "d\u2581m</w>": 4155, "anim\u2581al</w>": 4156, "my\u2581ster": 4157, "success\u2581ful</w>": 4158, "proble\u2581ms</w>": 4159, "ro\u2581bo": 4160, "k\u2581ay": 4161, "gar\u2581den": 4162, "p\u2581d</w>": 4163, "may\u2581or</w>": 4164, "d\u2581ale</w>": 4165, "t\u2581ol": 4166, "off\u2581ers</w>": 4167, "vis\u2581iting</w>": 4168, "friend\u2581ly</w>": 4169, "tre\u2581es</w>": 4170, "offic\u2581er</w>": 4171, "accoun\u2581t</w>": 4172, "ke\u2581vin</w>": 4173, "\u00f0\u0141\u0133\u2581\u012f": 4174, "gi\u2581ant</w>": 4175, "contin\u2581u": 4176, "con\u2581su": 4177, "tr\u2581act</w>": 4178, "n\u2581fl</w>": 4179, "\u00f0\u0141\u013a\u2581\u012c": 4180, "h\u2581q</w>": 4181, "b\u2581ility</w>": 4182, "a\u2581ar": 4183, "dis\u2581ney</w>": 4184, "te\u2581en</w>": 4185, "on\u2581ed</w>": 4186, "wh\u2581ite": 4187, "tra\u2581iler</w>": 4188, "de\u2581dic": 4189, "al\u2581one</w>": 4190, "absolut\u2581ely</w>": 4191, "dig\u2581ital": 4192, "willi\u2581am</w>": 4193, "in\u2581ation</w>": 4194, "s\u2581wa": 4195, "e\u2581e</w>": 4196, "enti\u2581re</w>": 4197, "ger\u2581man</w>": 4198, "ro\u2581ll": 4199, "h\u2581its</w>": 4200, "co\u2581st</w>": 4201, "st\u2581ay": 4202, "th\u2581a</w>": 4203, "ali\u2581ve</w>": 4204, "accor\u2581ding</w>": 4205, "co\u2581t": 4206, "liter\u2581ally</w>": 4207, "her\u2581it": 4208, "re\u2581ti": 4209, "haha\u2581ha</w>": 4210, "exper\u2581i": 4211, "li\u2581kes</w>": 4212, "g\u2581t</w>": 4213, "ste\u2581el</w>": 4214, "__\u2581__": 4215, "ch\u2581air": 4216, "christi\u2581an</w>": 4217, "to\u2581wer</w>": 4218, "diffe\u2581rence</w>": 4219, "m\u2581d</w>": 4220, "tre\u2581ss</w>": 4221, "mi\u2581d</w>": 4222, "prin\u2581ce</w>": 4223, "afric\u2581an</w>": 4224, "fe\u2581der": 4225, "foo\u2581t</w>": 4226, "car\u2581ri": 4227, "ser\u2581ved</w>": 4228, "r\u2581ice</w>": 4229, "sh\u2581all</w>": 4230, "feat\u2581ured</w>": 4231, "ck\u2581er</w>": 4232, "rec\u2581ru": 4233, "po\u2581e": 4234, "sen\u2581se</w>": 4235, "ni\u2581fic": 4236, "com\u2581edy</w>": 4237, "cont\u2581ent</w>": 4238, "f\u2581at": 4239, "po\u2581sted</w>": 4240, "con\u2581tribu": 4241, "tim\u2581ate</w>": 4242, "li\u2581ver": 4243, "mb\u2581le</w>": 4244, "inter\u2581net</w>": 4245, "ag\u2581e": 4246, "europe\u2581an</w>": 4247, "cl\u2581ing</w>": 4248, "gla\u2581d</w>": 4249, "ff\u2581ic": 4250, "sc\u2581o</w>": 4251, "ak\u2581es</w>": 4252, "el\u2581le</w>": 4253, "ter\u2581min": 4254, "ton\u2581y</w>": 4255, "p\u2581ale": 4256, "col\u2581our</w>": 4257, "seri\u2581ous</w>": 4258, "pat\u2581ri": 4259, "movi\u2581es</w>": 4260, "b\u2581m": 4261, "professi\u2581onal</w>": 4262, "ad\u2581o": 4263, "al\u2581u": 4264, "br\u2581inging</w>": 4265, "f\u2581alls</w>": 4266, "isra\u2581el</w>": 4267, "ter\u2581m</w>": 4268, "langu\u2581age</w>": 4269, "bro\u2581ok": 4270, "man\u2581n</w>": 4271, "commun\u2581ic": 4272, "can\u2581not</w>": 4273, "ac\u2581ti": 4274, "p\u2581he": 4275, "y\u2581an</w>": 4276, "entrepre\u2581ne": 4277, "tur\u2581key</w>": 4278, "log\u2581ical</w>": 4279, "lon\u2581g": 4280, "ar\u2581m</w>": 4281, "ur\u2581s</w>": 4282, "work\u2581ers</w>": 4283, "ing\u2581ly</w>": 4284, "gg\u2581s</w>": 4285, "ri\u2581c</w>": 4286, "tu\u2581al</w>": 4287, "recei\u2581ve</w>": 4288, "op\u2581ens</w>": 4289, "ge\u2581ar</w>": 4290, "soci\u2581al": 4291, "fe\u2581et</w>": 4292, "c\u2581king</w>": 4293, "ad\u2581ver": 4294, "fin\u2581an": 4295, "fe\u2581els</w>": 4296, "sp\u2581la": 4297, "h\u2581r": 4298, "ea\u2581ster</w>": 4299, "bra\u2581in</w>": 4300, "\u00e3\u2581\u0123": 4301, "fi\u2581g": 4302, "le\u2581dge</w>": 4303, "ne\u2581arly</w>": 4304, "prote\u2581ct</w>": 4305, "ma\u2581ssive</w>": 4306, "e\u2581th": 4307, "aw\u2581a": 4308, "\u00f0\u0141\u013a\u2581\u0123</w>": 4309, "y\u2581rs</w>": 4310, "aware\u2581ness</w>": 4311, "defin\u2581itely</w>": 4312, "k\u2581n": 4313, "imag\u2581ine</w>": 4314, "k\u2581u</w>": 4315, "syste\u2581ms</w>": 4316, "\u00f0\u0141\u0133\u2581\u0131</w>": 4317, "f\u2581as": 4318, "li\u2581k": 4319, "provi\u2581de</w>": 4320, "am\u2581o": 4321, "disco\u2581ver</w>": 4322, "inf\u2581lu": 4323, "ma\u2581ker</w>": 4324, "g\u2581az": 4325, "fit\u2581ness</w>": 4326, "stre\u2581et": 4327, "er\u2581s": 4328, "te\u2581d": 4329, "w\u2581c": 4330, "ys\u2581is</w>": 4331, "pos\u2581itive</w>": 4332, "hel\u2581ped</w>": 4333, "que\u2581st</w>": 4334, "andre\u2581w</w>": 4335, "bra\u2581d": 4336, "b\u2581in": 4337, "hang\u2581ing</w>": 4338, "l\u2581ing": 4339, "bri\u2581ght</w>": 4340, "se\u2581ction</w>": 4341, "ma\u2581ss</w>": 4342, "\u00f0\u0141\u013b\u2581\u012e</w>": 4343, "follow\u2581ers</w>": 4344, "ho\u2581sting</w>": 4345, "tem\u2581por": 4346, "fla\u2581g</w>": 4347, "a\u2581ve</w>": 4348, "let\u2581ter</w>": 4349, "k\u2581ur": 4350, "re\u2581qui": 4351, "of\u2581ten</w>": 4352, "cry\u2581p": 4353, "su\u2581ff": 4354, "\u00e2\u013c\u2581\u00bd": 4355, "russi\u2581an</w>": 4356, "treat\u2581ment</w>": 4357, "al\u2581le": 4358, "ha\u2581y": 4359, "l\u2581an</w>": 4360, "keep\u2581ing</w>": 4361, "hol\u2581y</w>": 4362, "power\u2581ful</w>": 4363, "pre\u2581dic": 4364, "fun\u2581d</w>": 4365, "e\u2581specially</w>": 4366, "windo\u2581w</w>": 4367, "je\u2581wel": 4368, "il\u2581y": 4369, "\u00f0\u0141\u0134\u2581\u013e</w>": 4370, "gener\u2581ation</w>": 4371, "app\u2581a": 4372, "seri\u2581ously</w>": 4373, "o\u2581d": 4374, "\u00f0\u0141\u013a\u0124\u00f0\u0141\u013a\u0124\u2581\u00f0\u0141\u013a\u0124</w>": 4375, "cer\u2581ti": 4376, "iri\u2581sh</w>": 4377, "\u00f0\u0141\u0133\u2581\u012e": 4378, "mi\u2581ami</w>": 4379, "be\u2581th</w>": 4380, "v\u2581ity</w>": 4381, "se\u2581cu": 4382, "che\u2581f</w>": 4383, "cri\u2581me</w>": 4384, "graph\u2581y</w>": 4385, "ma\u2581x": 4386, "arti\u2581sts</w>": 4387, "re\u2581volu": 4388, "gu\u2581ard</w>": 4389, "spee\u2581ch</w>": 4390, "u\u2581c": 4391, "upd\u2581ates</w>": 4392, "fac\u2581es</w>": 4393, "st\u2581ant</w>": 4394, "chang\u2581ed</w>": 4395, "repor\u2581ts</w>": 4396, "low\u2581er</w>": 4397, "pe\u2581ar": 4398, "n\u2581c</w>": 4399, "k\u2581il": 4400, "loo\u2581ked</w>": 4401, "spe\u2581aker</w>": 4402, "s\u2581f</w>": 4403, "re\u2581spect</w>": 4404, "ok\u2581ay</w>": 4405, "oce\u2581an</w>": 4406, "s\u2581itting</w>": 4407, "architec\u2581ture</w>": 4408, "tra\u2581il</w>": 4409, "se\u2581at</w>": 4410, "i\u2581ra": 4411, "le\u2581g</w>": 4412, "japan\u2581ese</w>": 4413, "d\u2581am</w>": 4414, "u\u2581lar</w>": 4415, "sw\u2581im": 4416, "polit\u2581ics</w>": 4417, "finan\u2581cial</w>": 4418, "ol\u2581d": 4419, "mou\u2581th</w>": 4420, "at\u2581temp": 4421, "de\u2581stin": 4422, "fi\u2581shing</w>": 4423, "atten\u2581tion</w>": 4424, "me\u2581m": 4425, "chang\u2581es</w>": 4426, "deci\u2581ded</w>": 4427, "reli\u2581gi": 4428, "g\u2581in</w>": 4429, "c\u2581av": 4430, "z\u2581z</w>": 4431, "ad\u2581am</w>": 4432, "ma\u2581c</w>": 4433, "wr\u2581ite</w>": 4434, "beg\u2581in</w>": 4435, "sc\u2581ul": 4436, "al\u2581ter": 4437, "is\u2581s</w>": 4438, "ath\u2581on</w>": 4439, "imag\u2581es</w>": 4440, "m\u2581oo": 4441, "jo\u2581ined</w>": 4442, "\u00f0\u0141\u013a\u2581\u012b</w>": 4443, "\u00e2\u0140\u2581\u00a1\u00ef\u00b8\u0131</w>": 4444, "pas\u2581sed</w>": 4445, "mu\u2581sli": 4446, "h\u2581ir": 4447, "lar\u2581gest</w>": 4448, "cam\u2581er": 4449, "com\u2581ic</w>": 4450, "gh\u2581ted</w>": 4451, "rug\u2581by</w>": 4452, "bur\u2581gh</w>": 4453, "gg\u2581ing</w>": 4454, "te\u2581sting</w>": 4455, "pre\u2581par": 4456, "lau\u2581gh": 4457, "al\u2581ed</w>": 4458, "impro\u2581ve</w>": 4459, "beli\u2581ev": 4460, "adv\u2581ice</w>": 4461, "sha\u2581res</w>": 4462, "he\u2581art": 4463, "tur\u2581ning</w>": 4464, "s\u2581b</w>": 4465, "t\u2581el": 4466, "caf\u2581e</w>": 4467, "n\u2581es</w>": 4468, "dani\u2581el</w>": 4469, "pat\u2581ter": 4470, "t\u2581z</w>": 4471, "se\u2581tt": 4472, "par\u2581k": 4473, "c\u2581and": 4474, "st\u2581ick</w>": 4475, "happ\u2581ens</w>": 4476, "bri\u2581an</w>": 4477, "ne\u2581west</w>": 4478, "e\u2581pic</w>": 4479, "ad\u2581or": 4480, "ki\u2581es</w>": 4481, "war\u2581ning</w>": 4482, "anim\u2581als</w>": 4483, "custo\u2581m</w>": 4484, "ar\u2581c": 4485, "di\u2581an</w>": 4486, "gol\u2581d": 4487, "cor\u2581e</w>": 4488, "t\u2581f</w>": 4489, "c\u2581ity": 4490, "pan\u2581ts</w>": 4491, "re\u2581ality</w>": 4492, "con\u2581fi": 4493, "in\u2581ju": 4494, "fo\u2581x": 4495, "gu\u2581il": 4496, "k\u2581new</w>": 4497, "\u00e2\u013a\u2581\u00ba": 4498, "cor\u2581rec": 4499, "itu\u2581de</w>": 4500, "d\u2581den</w>": 4501, ".\u2581#</w>": 4502, "re\u2581duc": 4503, "pas\u2581s": 4504, "f\u2581on": 4505, "y\u2581a": 4506, "ow\u2581ner</w>": 4507, "re\u2581turns</w>": 4508, "n\u2581c": 4509, "e\u2581ast": 4510, "ap\u2581ol": 4511, "in\u2581sur": 4512, "th\u2581o</w>": 4513, "si\u2581m": 4514, "juni\u2581or</w>": 4515, "be\u2581e</w>": 4516, "ang\u2581el": 4517, "att\u2581le</w>": 4518, "elec\u2581tric</w>": 4519, "hor\u2581ror</w>": 4520, "cra\u2581sh</w>": 4521, "e\u2581ye": 4522, "pat\u2581h</w>": 4523, "sou\u2581thern</w>": 4524, "emplo\u2581ye": 4525, "ge\u2581o": 4526, "t\u2581an</w>": 4527, "ha\u2581z": 4528, "r\u2581ally</w>": 4529, "\u00f0\u0141\u0131\u2581\u00bb": 4530, "proper\u2581ty</w>": 4531, "was\u2581n</w>": 4532, "enjo\u2581yed</w>": 4533, "gre\u2581y</w>": 4534, "g\u2581as": 4535, "bre\u2581w": 4536, "nor\u2581thern</w>": 4537, "hol\u2581ding</w>": 4538, "g\u2581p</w>": 4539, "ta\u2581ke": 4540, "ch\u2581art</w>": 4541, "ly\u2581n</w>": 4542, "dr\u2581ama</w>": 4543, "z\u2581o</w>": 4544, "pa\u2581id</w>": 4545, "throw\u2581back</w>": 4546, "cu\u2581p": 4547, "discu\u2581ssion</w>": 4548, "down\u2581town</w>": 4549, "w\u2581ill": 4550, "le\u2581w": 4551, "b\u2581is": 4552, "t\u2581ary</w>": 4553, "bre\u2581ad</w>": 4554, "up\u2581on</w>": 4555, "r\u2581ate</w>": 4556, "teach\u2581ers</w>": 4557, "it\u2581ation</w>": 4558, "anc\u2581ed</w>": 4559, "cy\u2581cle</w>": 4560, "choo\u2581se</w>": 4561, "d\u2581c": 4562, "ir\u2581an</w>": 4563, "co\u2581w": 4564, "da\u2581ve</w>": 4565, "ra\u2581ise</w>": 4566, "prin\u2581cess</w>": 4567, "fa\u2581ith</w>": 4568, "-\u2581></w>": 4569, "indu\u2581stri": 4570, "sp\u2581ain</w>": 4571, "guit\u2581ar</w>": 4572, "fac\u2581ts</w>": 4573, "m\u2581n": 4574, "sp\u2581en": 4575, "cour\u2581te": 4576, "go\u2581tt": 4577, "projec\u2581ts</w>": 4578, "au\u2581di": 4579, "o\u2581sc": 4580, "pe\u2581ter": 4581, "s\u2581and</w>": 4582, "intere\u2581st</w>": 4583, "happ\u2581iness</w>": 4584, "ven\u2581ue</w>": 4585, "sol\u2581di": 4586, "surpri\u2581se</w>": 4587, "poten\u2581tial</w>": 4588, "per\u2581io": 4589, "custom\u2581er</w>": 4590, "i\u2581i": 4591, "g\u2581ni": 4592, "manu\u2581fac": 4593, "e\u2581co": 4594, "bro\u2581ken</w>": 4595, "sing\u2581er</w>": 4596, "vel\u2581s</w>": 4597, "wal\u2581es</w>": 4598, "hu\u2581s": 4599, "in\u2581j": 4600, "f\u2581our": 4601, "tal\u2581ent</w>": 4602, "d\u2581ying</w>": 4603, "mat\u2581the": 4604, "fil\u2581m": 4605, "jo\u2581ining</w>": 4606, "s\u2581ell</w>": 4607, "j\u2581ar": 4608, "lma\u2581o</w>": 4609, "sur\u2581ger": 4610, "bb\u2581c": 4611, "sour\u2581ces</w>": 4612, "au\u2581stin</w>": 4613, "ni\u2581k": 4614, "char\u2581les</w>": 4615, "f\u2581am</w>": 4616, "prin\u2581ci": 4617, "ange\u2581l</w>": 4618, "cas\u2581h</w>": 4619, "lo\u2581t": 4620, "o\u2581red</w>": 4621, "pla\u2581ys</w>": 4622, "pl\u2581ate</w>": 4623, "don\u2581e": 4624, "memor\u2581y</w>": 4625, "br\u2581ings</w>": 4626, "n\u2581ba</w>": 4627, "solu\u2581tions</w>": 4628, "teach\u2581ing</w>": 4629, "gr\u2581ace</w>": 4630, "cir\u2581cu": 4631, "hel\u2581ps</w>": 4632, "foun\u2581der</w>": 4633, "mar\u2581y": 4634, "expl\u2581ore</w>": 4635, "de\u2581cor": 4636, "par\u2581ts</w>": 4637, "ch\u2581o</w>": 4638, "inte\u2581gr": 4639, "ha\u2581u": 4640, "is\u2581es</w>": 4641, "pu\u2581tting</w>": 4642, "in\u2581er</w>": 4643, "r\u2581it": 4644, "v\u2581y</w>": 4645, "mic\u2581hel": 4646, "blu\u2581es</w>": 4647, "every\u2581day</w>": 4648, "for\u2581ms</w>": 4649, "bi\u2581o</w>": 4650, "ye\u2581ar": 4651, "p\u2581in</w>": 4652, "t\u2581ter</w>": 4653, "spr\u2581ing": 4654, ")\u2581)</w>": 4655, "po\u2581t</w>": 4656, "al\u2581ing</w>": 4657, "perform\u2581ing</w>": 4658, "sh\u2581an": 4659, "plan\u2581et</w>": 4660, "mus\u2581ical</w>": 4661, "head\u2581s</w>": 4662, "it\u2581alian</w>": 4663, "stru\u2581gg": 4664, "\u00e2\u0122\u012f\u2581\u00e2\u013b": 4665, "w\u2581ings</w>": 4666, "pu\u2581mp": 4667, "h\u2581h</w>": 4668, "tr\u2581ou": 4669, "a\u2581id</w>": 4670, "pri\u2581me</w>": 4671, "ear\u2581th": 4672, "pa\u2581int</w>": 4673, "mon\u2581t": 4674, "am\u2581y</w>": 4675, "bb\u2581c</w>": 4676, "fab\u2581ulous</w>": 4677, "fru\u2581it</w>": 4678, "andro\u2581id</w>": 4679, "bour\u2581ne</w>": 4680, "cere\u2581mony</w>": 4681, "enti\u2581al</w>": 4682, "?\u2581?": 4683, "deb\u2581ate</w>": 4684, "on\u2581ing</w>": 4685, "dra\u2581ft</w>": 4686, "sol\u2581ar</w>": 4687, "t\u2581x</w>": 4688, "j\u2581am</w>": 4689, "cor\u2581n": 4690, "!!\u2581!!!</w>": 4691, "bro\u2581o": 4692, "mil\u2581k</w>": 4693, "po\u2581sed</w>": 4694, "o\u2581hi": 4695, "mo\u2581vement</w>": 4696, "b\u2581ren": 4697, "part\u2581ner": 4698, "p\u2581g</w>": 4699, "et\u2581te</w>": 4700, "ar\u2581ies</w>": 4701, "sh\u2581out</w>": 4702, "n\u2581g</w>": 4703, "leav\u2581ing</w>": 4704, "t\u2581ells</w>": 4705, "sen\u2581s": 4706, "ta\u2581ste</w>": 4707, "kel\u2581ly</w>": 4708, "wor\u2581l": 4709, "gy\u2581m</w>": 4710, "ric\u2581h": 4711, "e\u2581gy": 4712, "pi\u2581d</w>": 4713, "ma\u2581s": 4714, "\u00e2\u2581\u0124": 4715, "courte\u2581sy</w>": 4716, "fran\u2581k</w>": 4717, "incre\u2581ase</w>": 4718, "wr\u2581itten</w>": 4719, "pp\u2581ers</w>": 4720, "re\u2581l</w>": 4721, "ha\u2581i</w>": 4722, "s\u2581as</w>": 4723, "s\u2581ound": 4724, "tt\u2581i</w>": 4725, "w\u2581ich</w>": 4726, "ri\u2581ver": 4727, "..\u2581.\"</w>": 4728, "a\u2581g</w>": 4729, "fel\u2581low</w>": 4730, "ro\u2581me</w>": 4731, "sm\u2581all": 4732, "gen\u2581cy</w>": 4733, "ic\u2581an</w>": 4734, "lux\u2581ury</w>": 4735, "pro\u2581of</w>": 4736, "me\u2581t": 4737, "wild\u2581life</w>": 4738, "mom\u2581ents</w>": 4739, "ra\u2581ther</w>": 4740, "cor\u2581ner</w>": 4741, "com\u2581pe": 4742, "canadi\u2581an</w>": 4743, "lik\u2581ely</w>": 4744, "therap\u2581y</w>": 4745, "li\u2581am": 4746, "econom\u2581ic</w>": 4747, "indi\u2581e": 4748, "rou\u2581te</w>": 4749, "fi\u2581ght": 4750, "ho\u2581pe": 4751, "se\u2581tting</w>": 4752, "ant\u2581ly</w>": 4753, "cro\u2581ss": 4754, "fant\u2581asy</w>": 4755, "de\u2581e": 4756, "sket\u2581ch</w>": 4757, "comp\u2581li": 4758, "ym\u2581i</w>": 4759, "ru\u2581les</w>": 4760, "engine\u2581ering</w>": 4761, "fig\u2581ure</w>": 4762, "ro\u2581w": 4763, ".\u2581,</w>": 4764, "f\u2581w</w>": 4765, "syd\u2581ney</w>": 4766, "w\u2581ou": 4767, "t\u2581ation</w>": 4768, "dre\u2581w</w>": 4769, "us\u2581es</w>": 4770, "the\u2581re": 4771, "sp\u2581read</w>": 4772, "struc\u2581ture</w>": 4773, "pat\u2581rick</w>": 4774, "appa\u2581rently</w>": 4775, "ro\u2581s": 4776, "h\u2581ills</w>": 4777, "w\u2581we</w>": 4778, "ann\u2581y</w>": 4779, "com\u2581mission</w>": 4780, "di\u2581v": 4781, "f\u2581ying</w>": 4782, "con\u2581sul": 4783, "anal\u2581ysis</w>": 4784, "ex\u2581i": 4785, "ten\u2581nis</w>": 4786, "vehic\u2581le</w>": 4787, "\u00f0\u0141\u013a\u0143\u2581\u00f0\u0141\u013a\u0143": 4788, "as\u2581s</w>": 4789, "high\u2581ly</w>": 4790, "op\u2581ened</w>": 4791, "b\u2581ann": 4792, "\u00f0\u0141\u0134\u2581\u013b": 4793, "mp\u2581h</w>": 4794, "wi\u2581shing</w>": 4795, "v\u2581or</w>": 4796, "fi\u2581f": 4797, "give\u2581away</w>": 4798, "r\u2581r": 4799, "ra\u2581y": 4800, "je\u2581ss": 4801, "g\u2581at": 4802, "ic\u2581ymi</w>": 4803, "x\u2581it</w>": 4804, "high\u2581est</w>": 4805, "yor\u2581k": 4806, "pi\u2581e</w>": 4807, "invol\u2581ved</w>": 4808, "high\u2581er</w>": 4809, "ri\u2581e</w>": 4810, "mal\u2581ay": 4811, "int\u2581elli": 4812, "desp\u2581ite</w>": 4813, "che\u2581e": 4814, "sar\u2581ah</w>": 4815, "be\u2581an</w>": 4816, "reco\u2581gni": 4817, "ar\u2581sen": 4818, "tal\u2581ented</w>": 4819, "pas\u2581sion</w>": 4820, "ic\u2581h": 4821, "ab\u2581c</w>": 4822, "lead\u2581s</w>": 4823, "dise\u2581ase</w>": 4824, "v\u2581is</w>": 4825, "se\u2581c</w>": 4826, "pre\u2581senting</w>": 4827, "m\u2581illi": 4828, "hol\u2581e</w>": 4829, "sho\u2581ts</w>": 4830, "de\u2581part": 4831, "surger\u2581y</w>": 4832, "gov\u2581t</w>": 4833, "b\u2581in</w>": 4834, "du\u2581al</w>": 4835, "e\u2581vi": 4836, "lon\u2581ger</w>": 4837, "ev\u2581ol": 4838, "scre\u2581en": 4839, "portra\u2581it</w>": 4840, "et\u2581c</w>": 4841, "lo\u2581se</w>": 4842, "ch\u2581at": 4843, "p\u2581en</w>": 4844, "p\u2581i</w>": 4845, "om\u2581a</w>": 4846, "s\u2581ick</w>": 4847, "er\u2581c": 4848, "compan\u2581ies</w>": 4849, "en\u2581try</w>": 4850, "plan\u2581e</w>": 4851, "gr\u2581y</w>": 4852, "ven\u2581e": 4853, "liver\u2581pool</w>": 4854, "premi\u2581ere</w>": 4855, "sha\u2581red</w>": 4856, "a\u2581red</w>": 4857, "fil\u2581ms</w>": 4858, "ir\u2581a</w>": 4859, "holi\u2581days</w>": 4860, "cric\u2581ket</w>": 4861, "ici\u2581an</w>": 4862, "v\u2581ing": 4863, ".\u2581)</w>": 4864, "ul\u2581timate</w>": 4865, "di\u2581vision</w>": 4866, "con\u2581duc": 4867, "se\u2581pt</w>": 4868, "for\u2581ces</w>": 4869, "mon\u2581t</w>": 4870, "s\u2581mart": 4871, "disa\u2581pp": 4872, "sun\u2581shine</w>": 4873, "in\u2581d": 4874, "b\u2581less</w>": 4875, "ma\u2581de": 4876, "col\u2581ors</w>": 4877, "fran\u2581k": 4878, "ir\u2581on</w>": 4879, "bott\u2581le</w>": 4880, "s\u2581go": 4881, "m\u2581ood</w>": 4882, "j\u2581ason</w>": 4883, "er\u2581ic</w>": 4884, "bir\u2581th</w>": 4885, "te\u2581en": 4886, "respon\u2581se</w>": 4887, "tar\u2581get</w>": 4888, "state\u2581ment</w>": 4889, "fe\u2581ar</w>": 4890, "th\u2581el": 4891, "al\u2581um": 4892, "ar\u2581ab": 4893, "bl\u2581in</w>": 4894, "direc\u2581tion</w>": 4895, "ste\u2581ps</w>": 4896, "er\u2581ial</w>": 4897, "wor\u2581ked</w>": 4898, "at\u2581l": 4899, "\u00f0\u0141\u0134\u2581\u0137": 4900, "fel\u2581t</w>": 4901, "pol\u2581i</w>": 4902, "scen\u2581es</w>": 4903, "hom\u2581es</w>": 4904, "b\u2581ell": 4905, "e\u2581at": 4906, "ate\u2581ful</w>": 4907, "t\u2581in</w>": 4908, "l\u2581ace</w>": 4909, "fol\u2581ks</w>": 4910, "p\u2581se</w>": 4911, "an\u2581n</w>": 4912, "wis\u2581dom</w>": 4913, "fa\u2581v</w>": 4914, "but\u2581ter": 4915, "s\u2581r</w>": 4916, "are\u2581as</w>": 4917, "sm\u2581oo": 4918, "bi\u2581z</w>": 4919, "dg\u2581es</w>": 4920, "app\u2581o": 4921, "mo\u2581re": 4922, "the\u2581m": 4923, "effe\u2581ct</w>": 4924, "windo\u2581ws</w>": 4925, "sun\u2581ny</w>": 4926, "cap\u2581ital</w>": 4927, "tot\u2581ally</w>": 4928, "c\u2581ities</w>": 4929, "gr\u2581ant</w>": 4930, "mb\u2581ers</w>": 4931, "s\u2581low</w>": 4932, "au\u2581tu": 4933, "il\u2581ities</w>": 4934, "w\u2581ro": 4935, "ri\u2581sing</w>": 4936, "st\u2581ics</w>": 4937, "viol\u2581ence</w>": 4938, "i\u2581gh</w>": 4939, "qu\u2581ot": 4940, "h\u2581it": 4941, "t\u2581c</w>": 4942, "herit\u2581age</w>": 4943, "bu\u2581ff": 4944, "ne\u2581s": 4945, "z\u2581ar": 4946, "den\u2581tial</w>": 4947, "ex\u2581ac": 4948, "ed\u2581ge</w>": 4949, "de\u2581ep": 4950, "aren\u2581a</w>": 4951, "be\u2581came</w>": 4952, "benef\u2581its</w>": 4953, "mar\u2581ks</w>": 4954, "mb\u2581er": 4955, "a\u2581z</w>": 4956, "am\u2581es</w>": 4957, "pre\u2581ci": 4958, "dra\u2581gon</w>": 4959, "re\u2581g": 4960, "d\u2581ings</w>": 4961, "do\u2581s</w>": 4962, "\u00f0\u0141\u0134\u2581\u00aa": 4963, "n\u2581el": 4964, "s\u2581ity</w>": 4965, "me\u2581al</w>": 4966, "di\u2581st": 4967, "leg\u2581end": 4968, "pur\u2581chase</w>": 4969, "pic\u2581al</w>": 4970, "st\u2581ick": 4971, "f\u2581at</w>": 4972, "du\u2581ba": 4973, "profe\u2581ss": 4974, "car\u2581to": 4975, "pro\u2581f</w>": 4976, "coun\u2581tries</w>": 4977, "respon\u2581si": 4978, "se\u2581qu": 4979, "fa\u2581b</w>": 4980, "tribu\u2581te</w>": 4981, "hon\u2581ored</w>": 4982, "prac\u2581tic": 4983, "pur\u2581ple</w>": 4984, "an\u2581ton": 4985, "pa\u2581red</w>": 4986, "t\u2581ough</w>": 4987, "summ\u2581er": 4988, "environ\u2581ment</w>": 4989, "s\u2581ons</w>": 4990, "\u00f0\u0141\u013b\u2581\u0131</w>": 4991, "m\u2581ps</w>": 4992, "gi\u2581es</w>": 4993, "her\u2581oes</w>": 4994, "t\u2581elling</w>": 4995, "hen\u2581ry</w>": 4996, "f\u2581en": 4997, "know\u2581ledge</w>": 4998, "\u0122\u2581\u00ef\u00b8\u0131</w>": 4999, "f\u2581r</w>": 5000, "ne\u2581g": 5001, "u\u2581re": 5002, "ac\u2581king</w>": 5003, "hear\u2581ts</w>": 5004, "s\u2581oo": 5005, "hol\u2581lywood</w>": 5006, "ju\u2581mp": 5007, "sau\u2581ce</w>": 5008, "schedu\u2581le</w>": 5009, "tur\u2581n": 5010, "yo\u2581ga</w>": 5011, "cre\u2581ating</w>": 5012, "c\u2581ket</w>": 5013, "cre\u2581ek</w>": 5014, "\u00e2\u2581\u0143": 5015, "custom\u2581ers</w>": 5016, "ma\u2581dri": 5017, "gu\u2581l": 5018, "asse\u2581mb": 5019, "moun\u2581t</w>": 5020, "c\u2581ell</w>": 5021, "to\u2581p": 5022, "st\u2581al</w>": 5023, "dav\u2581is</w>": 5024, "t\u2581wi": 5025, "sig\u2581n": 5026, "premi\u2581er</w>": 5027, "iti\u2581ons</w>": 5028, "he\u2581aring</w>": 5029, "un\u2581k</w>": 5030, "pati\u2581ents</w>": 5031, "app\u2581ear": 5032, "heav\u2581en</w>": 5033, "al\u2581ty</w>": 5034, "doc\u2581tor</w>": 5035, "a\u2581e": 5036, "plat\u2581form</w>": 5037, "je\u2581ff</w>": 5038, "\u00f0\u0141\u0135\u2581\u00b7</w>": 5039, "regi\u2581onal</w>": 5040, "bi\u2581d</w>": 5041, "box\u2581ing</w>": 5042, "ex\u2581ten": 5043, "or\u2581ity</w>": 5044, "a\u2581w</w>": 5045, "w\u2581ise</w>": 5046, "il\u2581le</w>": 5047, "sever\u2581al</w>": 5048, "bi\u2581e": 5049, "s\u2581itu": 5050, "sy\u2581ria</w>": 5051, "\u00e2\u013e\u2581\u0127</w>": 5052, "remin\u2581der</w>": 5053, "enter\u2581tain": 5054, "li\u2581on</w>": 5055, "part\u2581ners</w>": 5056, "in\u2581n</w>": 5057, "ph\u2581ar": 5058, "f\u2581au": 5059, "pl\u2581s</w>": 5060, "expe\u2581cted</w>": 5061, "sug\u2581ar</w>": 5062, "deci\u2581sion</w>": 5063, "s\u2581b": 5064, "ch\u2581ron": 5065, "associ\u2581ation</w>": 5066, "leav\u2581es</w>": 5067, "vis\u2581ited</w>": 5068, "sh\u2581ap": 5069, "\u00f0\u0141\u0134\u2581\u0138</w>": 5070, "fur\u2581ther</w>": 5071, "h\u2581ann": 5072, "w\u2581i</w>": 5073, "run\u2581s</w>": 5074, "l\u2581er": 5075, "fun\u2581ding</w>": 5076, "fil\u2581led</w>": 5077, "..\u2581....</w>": 5078, "tin\u2581y</w>": 5079, "han\u2581g</w>": 5080, "or\u2581g</w>": 5081, "co\u2581ol": 5082, "se\u2581min": 5083, "\u00f0\u0141\u0131\u2581\u0128</w>": 5084, "spon\u2581s": 5085, "nav\u2581y</w>": 5086, "sa\u2581int</w>": 5087, "dru\u2581g</w>": 5088, "d\u2581al</w>": 5089, "r\u2581oun": 5090, "co\u2581vered</w>": 5091, "tra\u2581ditional</w>": 5092, "invest\u2581ment</w>": 5093, "de\u2581te": 5094, "al\u2581ism</w>": 5095, "f\u2581low</w>": 5096, "n\u2581is": 5097, "sun\u2581rise</w>": 5098, "fe\u2581at</w>": 5099, "f\u2581ted</w>": 5100, "we\u2581ird</w>": 5101, "je\u2581re": 5102, "ve\u2581gan</w>": 5103, "medic\u2581ine</w>": 5104, "an\u2581o": 5105, "ac\u2581cu": 5106, "deli\u2581very</w>": 5107, "temp\u2581le</w>": 5108, "chang\u2581ing</w>": 5109, "wil\u2581son</w>": 5110, "phili\u2581pp": 5111, "re\u2581fe": 5112, "n\u2581d": 5113, "is\u2581er</w>": 5114, "g\u2581ay</w>": 5115, "r\u2581and": 5116, "ati\u2581ves</w>": 5117, "t\u2581ely</w>": 5118, "p\u2581and": 5119, "intelli\u2581g": 5120, "g\u2581are": 5121, "am\u2581bas": 5122, "de\u2581mon": 5123, "commit\u2581tee</w>": 5124, "strate\u2581gy</w>": 5125, "refu\u2581ge": 5126, "bud\u2581get</w>": 5127, "prote\u2581c": 5128, "pi\u2581er": 5129, "ex\u2581press</w>": 5130, "nom\u2581in": 5131, "econom\u2581y</w>": 5132, "al\u2581low": 5133, "ic\u2581on</w>": 5134, "gal\u2581ax": 5135, "o\u2581h": 5136, "indi\u2581vi": 5137, "dem\u2581and</w>": 5138, "vir\u2581gin": 5139, "lu\u2581ke</w>": 5140, "ali\u2581sts</w>": 5141, "man\u2581i": 5142, "s\u2581mi": 5143, "ju\u2581dge</w>": 5144, "ent\u2581y</w>": 5145, "mic\u2581hi": 5146, "resul\u2581t</w>": 5147, "am\u2581ed</w>": 5148, "spe\u2581aks</w>": 5149, "'\u2581,</w>": 5150, "hou\u2581ston</w>": 5151, "sh\u2581in": 5152, "b\u2581ing</w>": 5153, "fl\u2581y": 5154, "ch\u2581em": 5155, "au\u2581to</w>": 5156, "v\u2581as": 5157, "ge\u2581t": 5158, "ar\u2581m": 5159, "thank\u2581s": 5160, "d\u2581in</w>": 5161, "gan\u2581g</w>": 5162, "x\u2581x": 5163, "si\u2581on": 5164, "loc\u2581ated</w>": 5165, "p\u2581l</w>": 5166, "jo\u2581sh</w>": 5167, "in\u2581fo": 5168, "jo\u2581ins</w>": 5169, "adver\u2581ti": 5170, "ot\u2581d</w>": 5171, "el\u2581d</w>": 5172, "si\u2581e</w>": 5173, "re\u2581asons</w>": 5174, "v\u2581ent</w>": 5175, "\u00f0\u0141\u0129\u00ba\u00f0\u0141\u0129\u2581\u00b8</w>": 5176, "\u00e2\u2581\u0142": 5177, "convers\u2581ation</w>": 5178, "stu\u2581di": 5179, "\u00f0\u0141\u0136\u00a5\u2581\u00f0\u0141\u0136\u00a5": 5180, "go\u2581s</w>": 5181, "s\u2581ounds</w>": 5182, "un\u2581it</w>": 5183, "mu\u2581sc": 5184, "ge\u2581l</w>": 5185, "ack\u2581ed</w>": 5186, "pac\u2581i": 5187, "co\u2581s</w>": 5188, "de\u2581re": 5189, "u\u2581u": 5190, "a\u2581o</w>": 5191, "la\u2581m</w>": 5192, "inspir\u2581ing</w>": 5193, "ar\u2581ms</w>": 5194, "tw\u2581are</w>": 5195, "mat\u2581ters</w>": 5196, "ad\u2581dic": 5197, "du\u2581de</w>": 5198, "ex\u2581t": 5199, "cri\u2581sis</w>": 5200, "b\u2581ath</w>": 5201, "me\u2581et": 5202, "sing\u2581h</w>": 5203, "expe\u2581ct</w>": 5204, "del\u2581hi</w>": 5205, "resc\u2581ue</w>": 5206, "wor\u2581st</w>": 5207, "au\u2581g</w>": 5208, "shi\u2581pping</w>": 5209, "ser\u2581ving</w>": 5210, "st\u2581o</w>": 5211, "dar\u2581k": 5212, "ac\u2581es</w>": 5213, "histor\u2581ic</w>": 5214, "landsc\u2581ape</w>": 5215, "desig\u2581ner</w>": 5216, "b\u2581illion</w>": 5217, "gr\u2581ateful</w>": 5218, "wa\u2581ke</w>": 5219, "e\u2581ve": 5220, "m\u2581iller</w>": 5221, "hou\u2581sing</w>": 5222, "dy\u2581nam": 5223, "is\u2581co</w>": 5224, "be\u2581ha": 5225, "sh\u2581op": 5226, "pr\u2581ou": 5227, "e\u2581as": 5228, "a\u2581sia</w>": 5229, "e\u2581ding</w>": 5230, "k\u2581on": 5231, "depart\u2581ment</w>": 5232, "aw\u2581ar": 5233, "mar\u2581ine</w>": 5234, "in\u2581ci": 5235, "photograph\u2581er</w>": 5236, "ta\u2581pe</w>": 5237, "lo\u2581go</w>": 5238, "r\u2581ings</w>": 5239, "d\u2581it": 5240, "--\u2581--": 5241, "vin\u2581yl</w>": 5242, "w\u2581c</w>": 5243, "vo\u2581ting</w>": 5244, "se\u2581ven</w>": 5245, "ambas\u2581sad": 5246, "dal\u2581las</w>": 5247, "t\u2581u</w>": 5248, "com\u2581ment</w>": 5249, "k\u2581ra": 5250, "b\u2581les</w>": 5251, "w\u2581ag": 5252, "u\u2581d</w>": 5253, "au\u2581dio</w>": 5254, "stri\u2581ke</w>": 5255, "offici\u2581al": 5256, "o\u2581ts</w>": 5257, "me\u2581tho": 5258, "to\u2581ols</w>": 5259, "ra\u2581di": 5260, "al\u2581an</w>": 5261, "hun\u2581t</w>": 5262, "wat\u2581ched</w>": 5263, "a\u2581ke</w>": 5264, "fa\u2581ke</w>": 5265, "drin\u2581king</w>": 5266, "mer\u2581ry</w>": 5267, "m\u2581l</w>": 5268, "b\u2581day</w>": 5269, "ri\u2581o</w>": 5270, "ni\u2581ke</w>": 5271, "c\u2581ant</w>": 5272, "re\u2581pe": 5273, "co\u2581stu": 5274, "mur\u2581der</w>": 5275, "ak\u2581ers</w>": 5276, "ch\u2581ers</w>": 5277, "ou\u2581ts</w>": 5278, "beg\u2581inning</w>": 5279, "so\u2581s</w>": 5280, "ad\u2581es</w>": 5281, "n\u2581in": 5282, "not\u2581es</w>": 5283, "wro\u2581te</w>": 5284, "sol\u2581o</w>": 5285, "c\u2581i</w>": 5286, "li\u2581ghting</w>": 5287, "ur\u2581ban</w>": 5288, "bre\u2581xit</w>": 5289, "att\u2581end</w>": 5290, "shir\u2581ts</w>": 5291, "pla\u2581yo": 5292, "ac\u2581tress</w>": 5293, "pl\u2581ic": 5294, "stand\u2581ard</w>": 5295, "quot\u2581es</w>": 5296, "par\u2581ade</w>": 5297, "anci\u2581ent</w>": 5298, "\u00c2\u2581\u00a9</w>": 5299, "tur\u2581ing</w>": 5300, "re\u2581e</w>": 5301, "pri\u2581mary</w>": 5302, "fla\u2581sh</w>": 5303, "citi\u2581z": 5304, "mat\u2581es</w>": 5305, "ste\u2581in</w>": 5306, "z\u2581i</w>": 5307, "clin\u2581ton</w>": 5308, "sk\u2581in": 5309, "gen\u2581e": 5310, "hu\u2581m": 5311, "g\u2581ar</w>": 5312, "t\u2581le</w>": 5313, "y\u2581i": 5314, "fo\u2581cu": 5315, "de\u2581an</w>": 5316, "pl\u2581ants</w>": 5317, "cy\u2581ber": 5318, "b\u2581u</w>": 5319, "om\u2581e</w>": 5320, "ho\u2581p</w>": 5321, "ad\u2581dress</w>": 5322, "ti\u2581x</w>": 5323, "gi\u2581fts</w>": 5324, "relation\u2581ship</w>": 5325, "sub\u2581scri": 5326, "fe\u2581ed</w>": 5327, "exac\u2581tly</w>": 5328, "haw\u2581ks</w>": 5329, "ex\u2581o</w>": 5330, "stre\u2581ss</w>": 5331, "s\u2581n</w>": 5332, "arre\u2581sted</w>": 5333, "an\u2581e": 5334, "sof\u2581tware</w>": 5335, "z\u2581ero</w>": 5336, "the\u2581me</w>": 5337, "mu\u2581mb": 5338, "im\u2581migr": 5339, "mi\u2581a</w>": 5340, "make\u2581up</w>": 5341, "ple\u2581asure</w>": 5342, "uni\u2581vers": 5343, "har\u2581b": 5344, "eng\u2581ine</w>": 5345, "ap\u2581er</w>": 5346, "r\u2581in": 5347, "br\u2581a</w>": 5348, "institu\u2581te</w>": 5349, "le\u2581ather</w>": 5350, "al\u2581th</w>": 5351, "sing\u2581ing</w>": 5352, "co\u2581s": 5353, "gh\u2581ty</w>": 5354, "me\u2581as": 5355, "st\u2581ic": 5356, "si\u2581de": 5357, "insur\u2581ance</w>": 5358, "co\u2581t</w>": 5359, "pit\u2581ch</w>": 5360, "moun\u2581tains</w>": 5361, "cri\u2581min": 5362, "su\u2581pre": 5363, "valent\u2581ine</w>": 5364, "at\u2581er</w>": 5365, "wou\u2581ldn</w>": 5366, "sc\u2581ale</w>": 5367, "rel\u2581ated</w>": 5368, "re\u2581gar": 5369, "star\u2581tup</w>": 5370, "pack\u2581ed</w>": 5371, "mi\u2581ke": 5372, "week\u2581ly</w>": 5373, "p\u2581ts</w>": 5374, "coun\u2581t</w>": 5375, "ha\u2581r</w>": 5376, "gott\u2581en</w>": 5377, "min\u2581d": 5378, "ber\u2581lin</w>": 5379, "con\u2581ditions</w>": 5380, "swit\u2581ch</w>": 5381, "cor\u2581n</w>": 5382, "sa\u2581ve": 5383, "g\u2581li": 5384, "emer\u2581gency</w>": 5385, "tun\u2581ed</w>": 5386, "sto\u2581ck": 5387, "discu\u2581ssing</w>": 5388, "every\u2581body</w>": 5389, "s\u2581day": 5390, "whe\u2581ther</w>": 5391, "wrest\u2581ling</w>": 5392, "ec\u2581es</w>": 5393, "gen\u2581der</w>": 5394, "ch\u2581en": 5395, "\u00f0\u0141\u0133\u2581\u0122</w>": 5396, "madri\u2581d</w>": 5397, "mar\u2581athon</w>": 5398, "e\u2581gg</w>": 5399, "i\u2581er</w>": 5400, "th\u2581x</w>": 5401, "as\u2581king</w>": 5402, "kore\u2581a</w>": 5403, "wol\u2581f</w>": 5404, "ay\u2581a</w>": 5405, "g\u2581m</w>": 5406, "g\u2581au": 5407, "at\u2581ory</w>": 5408, "v\u2581r</w>": 5409, "gra\u2581ss</w>": 5410, "k\u2581illing</w>": 5411, "b\u2581ble</w>": 5412, "ur\u2581o</w>": 5413, "un\u2581i</w>": 5414, "e\u2581th</w>": 5415, "sh\u2581ore</w>": 5416, "th\u2581en": 5417, "re\u2581ale": 5418, "bot\u2581tom</w>": 5419, "ex\u2581erc": 5420, "k\u2581ar</w>": 5421, "or\u2581ies</w>": 5422, "ad\u2581ri": 5423, "san\u2581ds</w>": 5424, "se\u2581x</w>": 5425, ".\u2581'</w>": 5426, "volunte\u2581ers</w>": 5427, "per\u2581form</w>": 5428, "par\u2581liam": 5429, "inclu\u2581de</w>": 5430, "deli\u2581ghted</w>": 5431, "execu\u2581tive</w>": 5432, "fu\u2581el</w>": 5433, "kis\u2581s</w>": 5434, "\u00e3\u2581\u0127": 5435, "char\u2581ge</w>": 5436, "h\u2581u</w>": 5437, "ca\u2581kes</w>": 5438, "ve\u2581t</w>": 5439, "g\u2581lu": 5440, "agre\u2581e</w>": 5441, "pr\u2581ices</w>": 5442, "n\u2581au": 5443, "h\u2581l</w>": 5444, "g\u2581ru": 5445, "ra\u2581j": 5446, "streng\u2581th</w>": 5447, "b\u2581ic": 5448, "sp\u2581ending</w>": 5449, "al\u2581es</w>": 5450, "av\u2581en": 5451, "b\u2581last</w>": 5452, ":\u2581(</w>": 5453, "yo\u2581f": 5454, "nor\u2581mal</w>": 5455, "si\u2581x": 5456, "qu\u2581ick": 5457, "se\u2581a": 5458, "d\u2581aw": 5459, "mee\u2581ts</w>": 5460, "lo\u2581vers</w>": 5461, "upd\u2581ated</w>": 5462, "po\u2581tat": 5463, "comple\u2581ted</w>": 5464, "coo\u2581k</w>": 5465, "opportun\u2581ities</w>": 5466, "p\u2581ure</w>": 5467, "organ\u2581ic</w>": 5468, "tem\u2581per": 5469, "c\u2581am</w>": 5470, "avo\u2581id</w>": 5471, "par\u2581king</w>": 5472, "duba\u2581i</w>": 5473, "and\u2581o</w>": 5474, "di\u2581stri": 5475, "to\u2581y</w>": 5476, "comple\u2581tely</w>": 5477, "don\u2581ald": 5478, "tri\u2581al</w>": 5479, "bas\u2581s</w>": 5480, "b\u2581oun": 5481, "back\u2581ground</w>": 5482, "v\u2581as</w>": 5483, "mar\u2581vel</w>": 5484, "lu\u2581m</w>": 5485, "ru\u2581s</w>": 5486, "t\u2581ool</w>": 5487, "com\u2581missi": 5488, "throw\u2581back": 5489, "fin\u2581ding</w>": 5490, "is\u2581lam": 5491, "!\u2581?</w>": 5492, "st\u2581op": 5493, "e\u2581vil</w>": 5494, "or\u2581al</w>": 5495, "resi\u2581dents</w>": 5496, "i\u2581denti": 5497, "o\u2581ak": 5498, "\u00f0\u0141\u0130\u2581\u00b6</w>": 5499, "l\u2581il": 5500, "span\u2581ish</w>": 5501, "chap\u2581ter</w>": 5502, "sto\u2581pped</w>": 5503, "direc\u2581t</w>": 5504, "ho\u2581sted</w>": 5505, "pic\u2581ked</w>": 5506, "lab\u2581our</w>": 5507, "lew\u2581is</w>": 5508, "defen\u2581se</w>": 5509, "\u00e0\u2581\u00ae": 5510, "health\u2581care</w>": 5511, "wh\u2581is": 5512, "mat\u2581h</w>": 5513, "pe\u2581ak</w>": 5514, "ra\u2581ised</w>": 5515, "fi\u2581x</w>": 5516, "bu\u2581ll</w>": 5517, "th\u2581ir": 5518, "chel\u2581sea</w>": 5519, "fol\u2581k</w>": 5520, "tr\u2581e</w>": 5521, "can\u2581di": 5522, "pau\u2581l": 5523, "ei\u2581ther</w>": 5524, "ad\u2581am": 5525, "poe\u2581try</w>": 5526, "jewel\u2581ry</w>": 5527, "\u00f0\u0141\u2581\u00a6": 5528, "pr\u2581ay</w>": 5529, "\u00d8\u2581\u00a7": 5530, "g\u2581c</w>": 5531, "o\u2581z</w>": 5532, "wi\u2581shes</w>": 5533, "fore\u2581ign</w>": 5534, "sun\u2581g</w>": 5535, "lear\u2581ned</w>": 5536, "en\u2581e</w>": 5537, "n\u2581ing": 5538, "micha\u2581el": 5539, "illu\u2581stration</w>": 5540, "legend\u2581ary</w>": 5541, "w\u2581av": 5542, "b\u2581au": 5543, "\u00f0\u0141\u013c\u2581\u00a8</w>": 5544, "cal\u2581end": 5545, "stre\u2581ets</w>": 5546, "\u00e2\u2581\u0128": 5547, "mon\u2581ster</w>": 5548, "bu\u2581ck": 5549, "g\u2581r</w>": 5550, "scho\u2581ol": 5551, "ba\u2581th": 5552, "wa\u2581ste</w>": 5553, "ne\u2581ck": 5554, "ha\u2581wa": 5555, "be\u2581ach": 5556, "re\u2581plac": 5557, "jec\u2581t</w>": 5558, "on\u2581er</w>": 5559, "fac\u2581tory</w>": 5560, "coun\u2581t": 5561, "\u00f0\u0141\u0135\u2581\u00b8</w>": 5562, "mor\u2581gan</w>": 5563, "der\u2581ing</w>": 5564, "se\u2581an</w>": 5565, "steph\u2581en</w>": 5566, "de\u2581p": 5567, "no\u2581vel</w>": 5568, "vide\u2581os</w>": 5569, "ic\u2581al": 5570, "press\u2581ure</w>": 5571, "arsen\u2581al</w>": 5572, "ex\u2581pre": 5573, "ir\u2581s</w>": 5574, "tren\u2581ding</w>": 5575, "ss\u2581a</w>": 5576, "fla\u2581sh": 5577, "re\u2581sear": 5578, "thr\u2581ough": 5579, "profess\u2581or</w>": 5580, "scul\u2581p": 5581, "to\u2581s</w>": 5582, "gg\u2581ed</w>": 5583, "mm\u2581a</w>": 5584, "be\u2581e": 5585, "a\u2581pe": 5586, "hun\u2581ter</w>": 5587, "am\u2581i": 5588, "he\u2581i": 5589, "pla\u2581stic</w>": 5590, "bu\u2581cks</w>": 5591, "uni\u2581verse</w>": 5592, "le\u2581gen": 5593, "niger\u2581ia</w>": 5594, "ple\u2581ased</w>": 5595, "ri\u2581s": 5596, "thin\u2581ks</w>": 5597, "autu\u2581mn</w>": 5598, "i\u2581ds</w>": 5599, "d\u2581is</w>": 5600, "anth\u2581ony</w>": 5601, "\u00f0\u0141\u0131\u2581\u00bd</w>": 5602, "ak\u2581ed</w>": 5603, "gla\u2581sses</w>": 5604, "fin\u2581ance</w>": 5605, "z\u2581er": 5606, "k\u2581as": 5607, "con\u2581tract</w>": 5608, "nu\u2581mbers</w>": 5609, "sh\u2581aw": 5610, "partner\u2581ship</w>": 5611, "t\u2581il": 5612, "laun\u2581ched</w>": 5613, "s\u2581al</w>": 5614, "victor\u2581ia</w>": 5615, "theat\u2581er</w>": 5616, "usu\u2581al</w>": 5617, "nam\u2581es</w>": 5618, "perio\u2581d</w>": 5619, "eli\u2581za": 5620, "i\u2581th": 5621, "bar\u2581cel": 5622, "ro\u2581cks</w>": 5623, "bag\u2581s</w>": 5624, "mat\u2581e": 5625, "distri\u2581bu": 5626, "j\u2581on</w>": 5627, "di\u2581ffic": 5628, "ali\u2581zed</w>": 5629, "cur\u2581ren": 5630, "sco\u2581red</w>": 5631, "b\u2581ha": 5632, "du\u2581blin</w>": 5633, "ro\u2581se": 5634, "in\u2581ted</w>": 5635, "soli\u2581d</w>": 5636, "beha\u2581vi": 5637, "wal\u2581ker</w>": 5638, "simp\u2581ly</w>": 5639, "garden\u2581s</w>": 5640, "head\u2581ed</w>": 5641, "in\u2581i": 5642, "ohi\u2581o</w>": 5643, "we\u2581ap": 5644, "f\u2581o</w>": 5645, "gl\u2581en": 5646, "e\u2581state</w>": 5647, "ran\u2581dom</w>": 5648, "th\u2581under": 5649, "thr\u2581u</w>": 5650, "k\u2581ill": 5651, "jac\u2581ket</w>": 5652, "it\u2581i</w>": 5653, "entertain\u2581ment</w>": 5654, "thanks\u2581giving</w>": 5655, "ent\u2581al</w>": 5656, "en\u2581coura": 5657, "el\u2581o": 5658, "a\u2581ther": 5659, "tan\u2581k</w>": 5660, "high\u2581lights</w>": 5661, "f\u2581ting</w>": 5662, "ru\u2581le</w>": 5663, "model\u2581s</w>": 5664, "bor\u2581der</w>": 5665, "bj\u2581p</w>": 5666, "hus\u2581band</w>": 5667, "in\u2581done": 5668, "ken\u2581ya</w>": 5669, "be\u2581ars</w>": 5670, "al\u2581o</w>": 5671, "n\u2581inten": 5672, "pi\u2581x": 5673, "str\u2581o</w>": 5674, "or\u2581ders</w>": 5675, "sal\u2581ad</w>": 5676, "ro\u2581ads</w>": 5677, "n\u2581or</w>": 5678, "l\u2581ation</w>": 5679, "sop\u2581hi": 5680, "\u00f0\u0141\u0131\u2581\u00bc": 5681, "pi\u2581eces</w>": 5682, "b\u2581one</w>": 5683, "min\u2581s</w>": 5684, "inclu\u2581des</w>": 5685, "nu\u2581tr": 5686, "phi\u2581l</w>": 5687, "s\u2581ent": 5688, "fun\u2581dra": 5689, "ga\u2581in</w>": 5690, "bor\u2581ough</w>": 5691, "n\u2581ad": 5692, "mon\u2581day": 5693, "activ\u2581ity</w>": 5694, "it\u2581ems</w>": 5695, "be\u2581coming</w>": 5696, "ken\u2581ne": 5697, "de\u2581tro": 5698, "car\u2581di": 5699, "gue\u2581sts</w>": 5700, "u\u2581x</w>": 5701, "world\u2581wide</w>": 5702, "sever\u2581e</w>": 5703, "new\u2581s": 5704, "thank\u2581ful</w>": 5705, "fic\u2581tion</w>": 5706, "ve\u2581ge": 5707, "m\u2581all</w>": 5708, "si\u2581an</w>": 5709, "er\u2581al</w>": 5710, "inj\u2581ury</w>": 5711, "le\u2581e": 5712, "men\u2581u</w>": 5713, "danc\u2581ing</w>": 5714, "scot\u2581ti": 5715, "exam\u2581ple</w>": 5716, "(\u2581#</w>": 5717, "na\u2581i": 5718, "studi\u2581os</w>": 5719, "ba\u2581i": 5720, "\u00f0\u0141\u0134\u2581\u013d</w>": 5721, "j\u2581av": 5722, "diam\u2581ond</w>": 5723, "vin\u2581ce</w>": 5724, "ric\u2581k": 5725, "prote\u2581ction</w>": 5726, "lin\u2581col": 5727, "cham\u2581ps</w>": 5728, "appro\u2581ach</w>": 5729, "d\u2581ar</w>": 5730, "m\u2581ile</w>": 5731, "clou\u2581ds</w>": 5732, "je\u2581ff": 5733, "in\u2581fin": 5734, "l\u2581ers</w>": 5735, "p\u2581les</w>": 5736, "pe\u2581ace": 5737, "go\u2581p</w>": 5738, "\u00e2\u013b\u2581\u00a1</w>": 5739, "tech\u2581n": 5740, "str\u2581a</w>": 5741, "a\u2581verage</w>": 5742, "ef\u2581fort</w>": 5743, "introduc\u2581ing</w>": 5744, "di\u2581versity</w>": 5745, "austr\u2581alian</w>": 5746, "am\u2581p</w>": 5747, "boo\u2581st</w>": 5748, "s\u2581ke": 5749, "pati\u2581ent</w>": 5750, "appreci\u2581ate</w>": 5751, "ici\u2581ans</w>": 5752, "pu\u2581r</w>": 5753, "f\u2581ell</w>": 5754, "woo\u2581ds</w>": 5755, "illu\u2581str": 5756, "\u00f0\u0141\u2581\u0138": 5757, "ag\u2581ency</w>": 5758, "ac\u2581tions</w>": 5759, "brit\u2581ain</w>": 5760, "under\u2581way</w>": 5761, "se\u2581attle</w>": 5762, "el\u2581and</w>": 5763, "ag\u2581o": 5764, "f\u2581ill</w>": 5765, "stre\u2581aming</w>": 5766, "pro\u2581test</w>": 5767, "challeng\u2581es</w>": 5768, "ky\u2581o</w>": 5769, "et\u2581sy</w>": 5770, "coo\u2581king</w>": 5771, "exper\u2581t</w>": 5772, "ru\u2581ss": 5773, "rain\u2581bow</w>": 5774, "commer\u2581cial</w>": 5775, "sp\u2581in": 5776, "be\u2581ats</w>": 5777, "c\u2581ry</w>": 5778, "val\u2581u": 5779, "el\u2581i</w>": 5780, "th\u2581row</w>": 5781, "gr\u2581ams</w>": 5782, "le\u2581vels</w>": 5783, "michi\u2581gan</w>": 5784, "c\u2581ad": 5785, "ador\u2581able</w>": 5786, "const\u2581itu": 5787, "w\u2581s": 5788, "pu\u2581b</w>": 5789, "mid\u2581night</w>": 5790, "th\u2581at": 5791, "net\u2581fli": 5792, "braz\u2581il</w>": 5793, "die\u2581go</w>": 5794, "regu\u2581lar</w>": 5795, "jo\u2581y": 5796, "\u00e2\u0124\u2581\u00ac</w>": 5797, "li\u2581qu": 5798, "ea\u2581stern</w>": 5799, "k\u2581ni": 5800, "fl\u2581at</w>": 5801, "n\u2581p</w>": 5802, "bro\u2581wn": 5803, "w\u2581er": 5804, "se\u2581y": 5805, "tt\u2581ers</w>": 5806, "ac\u2581ting</w>": 5807, "v\u2581anc": 5808, "cy\u2581cling</w>": 5809, "program\u2581me</w>": 5810, "ra\u2581w</w>": 5811, "comple\u2581x</w>": 5812, "tat\u2581too</w>": 5813, "throwback\u2581thursday</w>": 5814, "se\u2581ssions</w>": 5815, "ro\u2581oms</w>": 5816, "si\u2581ght</w>": 5817, "speci\u2581es</w>": 5818, "bom\u2581b</w>": 5819, "lau\u2581gh</w>": 5820, "ke\u2581eps</w>": 5821, "mo\u2581on": 5822, "offic\u2581ers</w>": 5823, "con\u2581ver": 5824, "t\u2581r</w>": 5825, "ha\u2581sh": 5826, "t\u2581ack": 5827, "ri\u2581ous</w>": 5828, "ad\u2581ap": 5829, "a\u2581j</w>": 5830, "reco\u2581gn": 5831, "ex\u2581po</w>": 5832, "sug\u2581ge": 5833, "confir\u2581med</w>": 5834, "rol\u2581ling</w>": 5835, "dre\u2581ssing</w>": 5836, "ic\u2581t</w>": 5837, "fri\u2581day": 5838, "ph\u2581ones</w>": 5839, "ri\u2581dge</w>": 5840, "con\u2581cept</w>": 5841, "ro\u2581y</w>": 5842, "ke\u2581ys</w>": 5843, "ef\u2581for": 5844, "c\u2581ate": 5845, "k\u2581ne": 5846, "ev\u2581en": 5847, "l\u2581ay</w>": 5848, "commun\u2581ities</w>": 5849, "mo\u2581d": 5850, "n\u2581az": 5851, "every\u2581where</w>": 5852, "al\u2581ab": 5853, "bit\u2581coin</w>": 5854, "ban\u2581ks</w>": 5855, "out\u2581door</w>": 5856, "feder\u2581al</w>": 5857, "sto\u2581res</w>": 5858, "h\u2581p</w>": 5859, "c\u2581al</w>": 5860, "m\u2581ely</w>": 5861, "sig\u2581nific": 5862, "be\u2581ar": 5863, "re\u2581public": 5864, "clo\u2581ser</w>": 5865, "al\u2581lah</w>": 5866, "pic\u2581k": 5867, "x\u2581d</w>": 5868, "pal\u2581ace</w>": 5869, "ch\u2581ill</w>": 5870, "b\u2581am": 5871, "er\u2581ous</w>": 5872, "un\u2581a</w>": 5873, "al\u2581len</w>": 5874, "out\u2581standing</w>": 5875, "olym\u2581pic</w>": 5876, "supp\u2581ly</w>": 5877, "fi\u2581gu": 5878, "v\u2581au": 5879, "l\u2581p</w>": 5880, "char\u2581lie</w>": 5881, "un\u2581es</w>": 5882, ">\u2581>></w>": 5883, "legen\u2581ds</w>": 5884, "ici\u2581al</w>": 5885, "co\u2581ast": 5886, "benef\u2581it</w>": 5887, "mul\u2581ti</w>": 5888, "f\u2581its</w>": 5889, "far\u2581mers</w>": 5890, "am\u2581ount</w>": 5891, "si\u2581sters</w>": 5892, "har\u2581ve": 5893, "hon\u2581ey</w>": 5894, "que\u2581en": 5895, "b\u2581ers</w>": 5896, "pl\u2581ann": 5897, "\u00e2\u0143\u2581\u0132": 5898, "m\u2581u</w>": 5899, "barcel\u2581ona</w>": 5900, "al\u2581ber": 5901, "stat\u2581us</w>": 5902, "re\u2581main</w>": 5903, "ex\u2581tra": 5904, "c\u2581andy</w>": 5905, "vi\u2581ous</w>": 5906, "\u00e2\u013e\u2581\u012e": 5907, "o\u2581v": 5908, "warri\u2581ors</w>": 5909, "--\u2581></w>": 5910, "ju\u2581mp</w>": 5911, "am\u2581ar": 5912, "x\u2581mas</w>": 5913, "stu\u2581dies</w>": 5914, "i\u2581ors</w>": 5915, "k\u2581or": 5916, "don\u2581ate</w>": 5917, "pre\u2581p": 5918, "fi\u2581sh": 5919, "im\u2581a</w>": 5920, "pain\u2581ted</w>": 5921, "ad\u2581mini": 5922, "co\u2581splay</w>": 5923, "spor\u2581ts": 5924, "dro\u2581ps</w>": 5925, "fi\u2581ghter</w>": 5926, "evi\u2581dence</w>": 5927, "\u00f0\u0141\u0134\u2581\u00aa</w>": 5928, "la\u2581ke": 5929, "ro\u2581b</w>": 5930, "cine\u2581ma</w>": 5931, "pro\u2581file</w>": 5932, "\u00c3\u2581\u00b1": 5933, "stan\u2581ds</w>": 5934, "leg\u2581acy</w>": 5935, "sh\u2581ape</w>": 5936, "ro\u2581of</w>": 5937, "ci\u2581vil</w>": 5938, "i\u2581ans</w>": 5939, "sy\u2581l": 5940, "sh\u2581am": 5941, "vo\u2581ted</w>": 5942, "re\u2581tail</w>": 5943, "ph\u2581illi": 5944, "li\u2581sted</w>": 5945, "du\u2581ty</w>": 5946, "n\u2581b": 5947, "th\u2581es</w>": 5948, "f\u2581are</w>": 5949, "au\u2581ction</w>": 5950, "ffici\u2581al</w>": 5951, "stor\u2581ms</w>": 5952, "d\u2581p</w>": 5953, "l\u2581oun": 5954, "sh\u2581ops</w>": 5955, "al\u2581y": 5956, "ani\u2581me</w>": 5957, "multi\u2581ple</w>": 5958, "\u00f0\u0141\u013a\u012f\u2581\u00f0\u0141\u013a\u012f</w>": 5959, "psy\u2581cho": 5960, "je\u2581an</w>": 5961, "ap\u2581art": 5962, "candi\u2581date</w>": 5963, "gg\u2581y</w>": 5964, "con\u2581f</w>": 5965, "jose\u2581ph</w>": 5966, "w\u2581ick</w>": 5967, "me\u2581at</w>": 5968, "fr\u2581ame</w>": 5969, "c\u2581l</w>": 5970, "for\u2581got</w>": 5971, "ph\u2581y": 5972, "f\u2581ing": 5973, "li\u2581ed</w>": 5974, "re\u2581p</w>": 5975, "se\u2581ed</w>": 5976, "f\u2581all": 5977, "u\u2581fc</w>": 5978, "nu\u2581t</w>": 5979, "lin\u2581d": 5980, "mo\u2581de</w>": 5981, "fiel\u2581ds</w>": 5982, "en\u2581ce": 5983, "s\u2581ley</w>": 5984, "\u00f0\u0141\u00a4\u2581\u0136</w>": 5985, "ch\u2581ill": 5986, "follow\u2581ed</w>": 5987, "announ\u2581ces</w>": 5988, "cor\u2581ru": 5989, "tro\u2581phy</w>": 5990, "them\u2581selves</w>": 5991, "ac\u2581le</w>": 5992, "al\u2581du": 5993, "k\u2581ong</w>": 5994, "l\u2581on</w>": 5995, "s\u2581v": 5996, "bro\u2581ke</w>": 5997, "ander\u2581son</w>": 5998, "ta\u2581i": 5999, "stor\u2581y": 6000, "tempor\u2581ary</w>": 6001, "activ\u2581ities</w>": 6002, "k\u2581ati": 6003, "ari\u2581z": 6004, "cry\u2581stal</w>": 6005, "spo\u2581ke</w>": 6006, "extre\u2581mely</w>": 6007, "tra\u2581ding</w>": 6008, "\u00f0\u0141\u0134\u2581\u013c</w>": 6009, "\u00c3\u2581\u00bc": 6010, "in\u2581ch</w>": 6011, "ed\u2581in": 6012, "out\u2581fit</w>": 6013, "equ\u2581ip": 6014, "ma\u2581di": 6015, "form\u2581ed</w>": 6016, "be\u2581ef</w>": 6017, "po\u2581p": 6018, "ti\u2581ger</w>": 6019, "this\u2581day</w>": 6020, "ti\u2581red</w>": 6021, "neigh\u2581b": 6022, "re\u2581tro": 6023, "is\u2581a</w>": 6024, "un\u2581t</w>": 6025, "t\u2581as": 6026, "kan\u2581sas</w>": 6027, "de\u2581st": 6028, "secon\u2581ds</w>": 6029, "ta\u2581y": 6030, "hur\u2581ric": 6031, "o\u2581u</w>": 6032, "galax\u2581y</w>": 6033, "dad\u2581dy</w>": 6034, "bro\u2581w": 6035, "bur\u2581ger</w>": 6036, "en\u2581ced</w>": 6037, "de\u2581sk</w>": 6038, "ac\u2581cur": 6039, "secre\u2581tary</w>": 6040, "el\u2581ite</w>": 6041, "k\u2581ab": 6042, "ch\u2581in": 6043, "touri\u2581sm</w>": 6044, "bud\u2581dy</w>": 6045, "ici\u2581de</w>": 6046, "dre\u2581ssed</w>": 6047, "u\u2581d": 6048, "vac\u2581ation</w>": 6049, "che\u2581ers</w>": 6050, "com\u2581for": 6051, "charac\u2581ters</w>": 6052, "j\u2581et</w>": 6053, "bu\u2581ying</w>": 6054, "l\u2581ins</w>": 6055, "n\u2581ap": 6056, "reale\u2581state</w>": 6057, "li\u2581e": 6058, "af\u2581c</w>": 6059, "i\u2581ii</w>": 6060, "f\u2581ame</w>": 6061, "n\u2581r": 6062, "b\u2581at</w>": 6063, "ag\u2581ent</w>": 6064, "ma\u2581kers</w>": 6065, "\u00e2\u0122\u2581\u00bc": 6066, "sec\u2581tor</w>": 6067, "op\u2581ti": 6068, "le\u2581on": 6069, "di\u2581et</w>": 6070, "pra\u2581yer</w>": 6071, "hi\u2581p</w>": 6072, "mi\u2581r</w>": 6073, "le\u2581x": 6074, "br\u2581y": 6075, "an\u2581a": 6076, "pas\u2581sing</w>": 6077, "w\u2581en": 6078, "reco\u2581very</w>": 6079, "ak\u2581i</w>": 6080, "po\u2581pul": 6081, "res\u2581ort</w>": 6082, "mar\u2581ia</w>": 6083, "stu\u2581ck</w>": 6084, "read\u2581s</w>": 6085, "ti\u2581er</w>": 6086, "perfe\u2581c": 6087, "netfli\u2581x</w>": 6088, "p\u2581oo": 6089, "cham\u2581p</w>": 6090, "o\u2581c</w>": 6091, "re\u2581duce</w>": 6092, "we\u2581red</w>": 6093, "comm\u2581ents</w>": 6094, "cla\u2581im</w>": 6095, "acci\u2581dent</w>": 6096, "s\u2581ag": 6097, "h\u2581ack": 6098, "sal\u2581t</w>": 6099, "kin\u2581da</w>": 6100, "k\u2581iller</w>": 6101, "i\u2581os</w>": 6102, "z\u2581y": 6103, "ex\u2581change</w>": 6104, "lec\u2581ture</w>": 6105, "eng\u2581er</w>": 6106, "ic\u2581king</w>": 6107, "t\u2581au": 6108, "reve\u2581als</w>": 6109, "pri\u2581son</w>": 6110, "z\u2581om": 6111, "gh\u2581an</w>": 6112, "u\u2581l</w>": 6113, "jour\u2581nal</w>": 6114, "i\u2581ot</w>": 6115, "tr\u2581in": 6116, "jon\u2581a": 6117, "govern\u2581or</w>": 6118, "cap\u2581e</w>": 6119, "quar\u2581ter</w>": 6120, "spec\u2581tive</w>": 6121, "impre\u2581ssive</w>": 6122, "bab\u2581ies</w>": 6123, "t\u2581x": 6124, "m\u2581ill</w>": 6125, "o\u2581y": 6126, "har\u2581ri": 6127, "jo\u2581int</w>": 6128, "su\u2581e</w>": 6129, "collabor\u2581ation</w>": 6130, "tren\u2581d</w>": 6131, "revolu\u2581tion</w>": 6132, "re\u2581new": 6133, "alum\u2581ni</w>": 6134, "ge\u2581tt": 6135, "sh\u2581ell</w>": 6136, "sun\u2581day": 6137, "ent\u2581u": 6138, "ni\u2581c</w>": 6139, "donald\u2581trump</w>": 6140, "block\u2581chain</w>": 6141, "paci\u2581fic</w>": 6142, "expla\u2581ins</w>": 6143, "sp\u2581y</w>": 6144, "ad\u2581voc": 6145, "par\u2581adi": 6146, "to\u2581f": 6147, "star\u2581ring</w>": 6148, "p\u2581av": 6149, "fe\u2581ed": 6150, "br\u2581ac": 6151, "smo\u2581ke</w>": 6152, "ham\u2581p": 6153, "y\u2581am": 6154, "to\u2581kyo</w>": 6155, "si\u2581mon</w>": 6156, "d\u2581h": 6157, "e\u2581ffici": 6158, "phys\u2581ical</w>": 6159, "n\u2581j</w>": 6160, "ell\u2581i</w>": 6161, "s\u2581low": 6162, "gradu\u2581ate</w>": 6163, "americ\u2581ans</w>": 6164, "ti\u2581fy</w>": 6165, "f\u2581red</w>": 6166, "ap\u2581ore</w>": 6167, "fin\u2581ds</w>": 6168, "rob\u2581in": 6169, "we\u2581t</w>": 6170, "not\u2581ice</w>": 6171, "se\u2581mi</w>": 6172, "un\u2581ve": 6173, "k\u2581om": 6174, "pil\u2581ot</w>": 6175, "scre\u2581ening</w>": 6176, "da\u2581ily": 6177, "\u00f0\u0141\u0134\u2581\u0139</w>": 6178, "roy\u2581al": 6179, "sp\u2581a</w>": 6180, "vo\u2581tes</w>": 6181, "n\u2581ag": 6182, "wh\u2581ate": 6183, "att\u2581ending</w>": 6184, "exper\u2581im": 6185, "ad\u2581dition</w>": 6186, "k\u2581ate</w>": 6187, "sto\u2581l</w>": 6188, "m\u2581ali": 6189, "foo\u2581t": 6190, "chri\u2581st</w>": 6191, "ch\u2581an</w>": 6192, "de\u2581e</w>": 6193, "lic\u2581en": 6194, "glo\u2581bal": 6195, "mo\u2581ore</w>": 6196, "ti\u2581a</w>": 6197, "bri\u2581gh": 6198, "myster\u2581y</w>": 6199, "y\u2581ay</w>": 6200, "\u00e2\u013f\u00a4\u00ef\u00b8\u0131\u2581\u00e2\u013f\u00a4\u00ef\u00b8\u0131": 6201, "cre\u2581ati": 6202, "me\u2581chan": 6203, "clo\u2581ck</w>": 6204, "di\u2581c</w>": 6205, "\u00e2\u0122\u2581\u0136": 6206, "pp\u2581er": 6207, "al\u2581ph": 6208, "through\u2581out</w>": 6209, "al\u2581low</w>": 6210, "re\u2581sources</w>": 6211, "selec\u2581tion</w>": 6212, "ham\u2581il": 6213, "bb\u2581q</w>": 6214, "aa\u2581aa": 6215, "virgin\u2581ia</w>": 6216, "dis\u2581ney": 6217, "en\u2581g</w>": 6218, "so\u2581red</w>": 6219, "drin\u2581ks</w>": 6220, "f\u2581ancy</w>": 6221, "consi\u2581der</w>": 6222, "end\u2581a</w>": 6223, "jan\u2581e</w>": 6224, "hand\u2581made</w>": 6225, "du\u2581l": 6226, "on\u2581tari": 6227, "i\u2581us</w>": 6228, "s\u2581ville</w>": 6229, "color\u2581ado</w>": 6230, "whate\u2581ver</w>": 6231, "whe\u2581el</w>": 6232, "promis\u2581e</w>": 6233, "ne\u2581ver": 6234, "desig\u2581ns</w>": 6235, "ab\u2581ly</w>": 6236, "sex\u2581ual</w>": 6237, "vanc\u2581ou": 6238, "at\u2581i</w>": 6239, "con\u2581vention</w>": 6240, "cul\u2581tural</w>": 6241, "sing\u2581apore</w>": 6242, "pro\u2581mo</w>": 6243, "load\u2581ed</w>": 6244, "gla\u2581sgo": 6245, "pp\u2581l</w>": 6246, "n\u2581oo": 6247, "ke\u2581e</w>": 6248, "ste\u2581m</w>": 6249, "men\u2581tion</w>": 6250, "i\u2581do": 6251, "cru\u2581ise</w>": 6252, "ri\u2581ding</w>": 6253, "be\u2581comes</w>": 6254, "be\u2581y</w>": 6255, "\u00e2\u013c\u00bd\u2581\u00ef\u00b8\u0131</w>": 6256, "tw\u2581in</w>": 6257, "dedic\u2581ated</w>": 6258, "na\u2581sh": 6259, "de\u2581si": 6260, "work\u2581out</w>": 6261, "jen\u2581ni": 6262, "i\u2581v": 6263, "grou\u2581ps</w>": 6264, "rela\u2581x": 6265, "pho\u2581eni": 6266, "li\u2581ft</w>": 6267, "mix\u2581ed</w>": 6268, "m\u2581ck": 6269, "p\u2581c": 6270, "mu\u2581st": 6271, "me\u2581tro</w>": 6272, "ci\u2581es</w>": 6273, "y\u2581ar": 6274, "a\u2581im": 6275, "ang\u2581er</w>": 6276, "i\u2581e": 6277, "rec\u2581y": 6278, "marri\u2581ed</w>": 6279, "dro\u2581pped</w>": 6280, "eng\u2581ag": 6281, "le\u2581st</w>": 6282, "ambassad\u2581or</w>": 6283, "op\u2581h": 6284, "de\u2581s": 6285, "w\u2581ick": 6286, "assi\u2581stant</w>": 6287, "nat\u2581ur": 6288, "fa\u2581il</w>": 6289, "l\u2581td</w>": 6290, "shor\u2581t": 6291, "k\u2581ap": 6292, "sha\u2581w</w>": 6293, "bi\u2581gger</w>": 6294, "rema\u2581ins</w>": 6295, "crit\u2581ical</w>": 6296, "sur\u2581vey</w>": 6297, "co\u2581verage</w>": 6298, "er\u2581son</w>": 6299, "win\u2581d": 6300, "n\u2581b</w>": 6301, "bil\u2581ly</w>": 6302, "let\u2581es</w>": 6303, "ac\u2581ts</w>": 6304, "jim\u2581my</w>": 6305, "at\u2581lan": 6306, "al\u2581and</w>": 6307, "t\u2581c": 6308, "import\u2581ance</w>": 6309, "dam\u2581age</w>": 6310, "f\u2581g</w>": 6311, "stor\u2581age</w>": 6312, "tw\u2581t</w>": 6313, "bon\u2581d</w>": 6314, "bal\u2581ance</w>": 6315, "cr\u2581ying</w>": 6316, "pu\u2581ppy</w>": 6317, "vo\u2581te": 6318, "pu\u2581sh</w>": 6319, "\u00f0\u0141\u0134\u2581\u013e": 6320, "pol\u2581y": 6321, "me\u2581l</w>": 6322, "lon\u2581don": 6323, "terr\u2581ori": 6324, "effec\u2581tive</w>": 6325, "corpor\u2581ate</w>": 6326, "atl\u2581anta</w>": 6327, "jac\u2581o": 6328, "nas\u2581a</w>": 6329, "gre\u2581ek</w>": 6330, "sen\u2581ate</w>": 6331, "i\u2581sh": 6332, "ev\u2581a</w>": 6333, "intellig\u2581ence</w>": 6334, "effor\u2581ts</w>": 6335, "al\u2581co": 6336, "k\u2581un": 6337, "h\u2581all": 6338, "di\u2581ag": 6339, "claim\u2581s</w>": 6340, "fir\u2581st": 6341, "h\u2581b": 6342, "ba\u2581e</w>": 6343, "v\u2581ul": 6344, "pu\u2581ll</w>": 6345, "\u00c2\u2581\u00b0</w>": 6346, "se\u2581par": 6347, "spe\u2581ed": 6348, "vic\u2581ti": 6349, "on\u2581thisday</w>": 6350, "audi\u2581ence</w>": 6351, "r\u2581ates</w>": 6352, "te\u2581ach</w>": 6353, "fil\u2581ming</w>": 6354, "bu\u2581sh</w>": 6355, "son\u2581g": 6356, "y\u2581um": 6357, "br\u2581un": 6358, "ra\u2581ine</w>": 6359, "aw\u2581a</w>": 6360, "par\u2581ks</w>": 6361, "\u00f0\u2581\u013f": 6362, "ra\u2581bb": 6363, "ra\u2581ch": 6364, "ra\u2581id</w>": 6365, "reach\u2581ed</w>": 6366, "ra\u2581il</w>": 6367, "mo\u2581ves</w>": 6368, "selec\u2581ted</w>": 6369, "fr\u2581i</w>": 6370, "ra\u2581ising</w>": 6371, "om\u2581y</w>": 6372, "st\u2581ones</w>": 6373, "su\u2581k</w>": 6374, "franc\u2581isco</w>": 6375, "cas\u2581es</w>": 6376, "cap\u2581it": 6377, "con\u2581fu": 6378, "w\u2581tf</w>": 6379, "po\u2581ke": 6380, "equip\u2581ment</w>": 6381, "gre\u2581g": 6382, "ess\u2581ential</w>": 6383, "off\u2581ering</w>": 6384, "ne\u2581x": 6385, "pi\u2581es</w>": 6386, "be\u2581c": 6387, "cre\u2581ation</w>": 6388, "chair\u2581man</w>": 6389, "cro\u2581wn</w>": 6390, "w\u2581al</w>": 6391, "john\u2581ny</w>": 6392, "shi\u2581ft</w>": 6393, "ne\u2581ck</w>": 6394, "ban\u2581g</w>": 6395, "bir\u2581d": 6396, "\u00f0\u0141\u013a\u2581\u0131</w>": 6397, "du\u2581ck</w>": 6398, "re\u2581serve</w>": 6399, "de\u2581pu": 6400, "ma\u2581sters</w>": 6401, "over\u2581all</w>": 6402, "no\u2581tic": 6403, "ju\u2581ice</w>": 6404, "sne\u2581ak</w>": 6405, "che\u2581er</w>": 6406, "cla\u2581sses</w>": 6407, "eag\u2581les</w>": 6408, "n\u2581ca": 6409, "car\u2581pet</w>": 6410, "ci\u2581vil": 6411, "coach\u2581es</w>": 6412, "har\u2581ris</w>": 6413, "u\u2581ps</w>": 6414, "b\u2581alls</w>": 6415, "dec\u2581or</w>": 6416, "mar\u2581tin": 6417, "ro\u2581s</w>": 6418, "v\u2581ice</w>": 6419, "announ\u2581cement</w>": 6420, "who\u2581se</w>": 6421, "ti\u2581gers</w>": 6422, "ste\u2581red</w>": 6423, "c\u2581ts</w>": 6424, "dr\u2581am": 6425, "ste\u2581el": 6426, "youn\u2581g": 6427, "inst\u2581all": 6428, "supp\u2581o": 6429, "recor\u2581ding</w>": 6430, "de\u2581ck</w>": 6431, "se\u2581ats</w>": 6432, "l\u2581der</w>": 6433, "ang\u2581le</w>": 6434, "bo\u2581t</w>": 6435, "sty\u2581les</w>": 6436, "elec\u2581tions</w>": 6437, "for\u2581tun": 6438, "n\u2581ab": 6439, "but\u2581ter</w>": 6440, "ari\u2581an</w>": 6441, "ka\u2581sh": 6442, "in\u2581ner</w>": 6443, "ou\u2581red</w>": 6444, "be\u2581ast</w>": 6445, "we\u2581i": 6446, "ic\u2581onic</w>": 6447, "exper\u2581ts</w>": 6448, "ne\u2581cess": 6449, "b\u2581eng": 6450, "jam\u2581es": 6451, "li\u2581a</w>": 6452, "gre\u2581ece</w>": 6453, "\u00f0\u0141\u0135\u2581\u00b7": 6454, "\u00f0\u0141\u013a\u2581\u0123": 6455, "good\u2581bye</w>": 6456, "m\u2581itch": 6457, "tw\u2581ice</w>": 6458, "mumb\u2581ai</w>": 6459, "ste\u2581am</w>": 6460, "ru\u2581sh</w>": 6461, "med\u2581al</w>": 6462, "ne\u2581tt</w>": 6463, "fashi\u2581on": 6464, "t\u2581ar</w>": 6465, "r\u2581s": 6466, "sav\u2581ing</w>": 6467, "ric\u2581ul": 6468, "l\u2581m": 6469, "sleep\u2581ing</w>": 6470, "brook\u2581lyn</w>": 6471, "mis\u2581s": 6472, "sen\u2581ding</w>": 6473, "disco\u2581vered</w>": 6474, "sp\u2581here</w>": 6475, "of\u2581theday</w>": 6476, "k\u2581icks</w>": 6477, "missi\u2581ons</w>": 6478, "w\u2581right</w>": 6479, "er\u2581n": 6480, "ght\u2581ly</w>": 6481, "i\u2581ous</w>": 6482, "mel\u2581bourne</w>": 6483, "star\u2581tu": 6484, "mo\u2581ved</w>": 6485, "car\u2581ry</w>": 6486, "d\u2581ak": 6487, "ag\u2581ues</w>": 6488, "bel\u2581gi": 6489, "e\u2581ma": 6490, "way\u2581ne</w>": 6491, "do\u2581t</w>": 6492, "er\u2581ie</w>": 6493, "pe\u2581l</w>": 6494, "it\u2581unes</w>": 6495, "matthe\u2581w</w>": 6496, "no\u2581body</w>": 6497, "est\u2581ab": 6498, "cal\u2581m</w>": 6499, "win\u2581ds</w>": 6500, "lu\u2581c": 6501, "prep\u2581are</w>": 6502, "tren\u2581ds</w>": 6503, "exerc\u2581ise</w>": 6504, "adv\u2581ant": 6505, "\u00f0\u0141\u0134\u2581\u00af</w>": 6506, "athle\u2581tics</w>": 6507, "app\u2581s</w>": 6508, "c\u2581tions</w>": 6509, "adv\u2581ance</w>": 6510, "laun\u2581ches</w>": 6511, "litt\u2581le": 6512, "real\u2581donaldtrump</w>": 6513, "eliza\u2581beth</w>": 6514, "carol\u2581ina</w>": 6515, "hu\u2581b</w>": 6516, "hi\u2581dden</w>": 6517, "n\u2581w</w>": 6518, "us\u2581er</w>": 6519, "pol\u2581l</w>": 6520, "great\u2581er</w>": 6521, "mo\u2581st": 6522, "f\u2581ed</w>": 6523, "p\u2581at</w>": 6524, "life\u2581style</w>": 6525, "s\u2581ati": 6526, "sco\u2581res</w>": 6527, "marri\u2581age</w>": 6528, "l\u2581r</w>": 6529, "aven\u2581ue</w>": 6530, "de\u2581serve</w>": 6531, "ri\u2581f": 6532, "\u00f0\u0141\u2581\u0139": 6533, "wat\u2581ch": 6534, "champion\u2581ships</w>": 6535, "gr\u2581ay</w>": 6536, "en\u2581ni": 6537, "cot\u2581ton</w>": 6538, "g\u2581om": 6539, "whe\u2581re": 6540, "pack\u2581age</w>": 6541, "su\u2581m": 6542, "ab\u2581solu": 6543, "new\u2581ly</w>": 6544, "foo\u2581ds</w>": 6545, "ty\u2581ler</w>": 6546, "assemb\u2581ly</w>": 6547, "musli\u2581m</w>": 6548, "ban\u2581k": 6549, "re\u2581memb": 6550, "op\u2581tions</w>": 6551, "produc\u2581er</w>": 6552, "land\u2581o</w>": 6553, "fun\u2581ds</w>": 6554, "u\u2581pper</w>": 6555, "shad\u2581ow</w>": 6556, "pro\u2581gre": 6557, "co\u2581p</w>": 6558, "ing\u2581e</w>": 6559, "leg\u2581s</w>": 6560, "detro\u2581it</w>": 6561, "hill\u2581ary</w>": 6562, "jo\u2581se</w>": 6563, "gi\u2581ants</w>": 6564, "sou\u2581p</w>": 6565, "sustain\u2581able</w>": 6566, "t\u2581us</w>": 6567, "clo\u2581thes</w>": 6568, "roc\u2581king</w>": 6569, "n\u2581z</w>": 6570, "min\u2581ne": 6571, "mat\u2581eri": 6572, "bru\u2581ce</w>": 6573, "ear\u2581t": 6574, "ca\u2581sting</w>": 6575, "independ\u2581ent</w>": 6576, "thou\u2581sands</w>": 6577, "ta\u2581h</w>": 6578, "de\u2581cl": 6579, "veter\u2581ans</w>": 6580, "li\u2581ons</w>": 6581, "wra\u2581p</w>": 6582, "\u00e2\u0122\u2581\u00a6": 6583, "de\u2581ss": 6584, "bl\u2581ing</w>": 6585, "st\u2581ine</w>": 6586, "e\u2581ggs</w>": 6587, "o\u2581on</w>": 6588, "clo\u2581sing</w>": 6589, "z\u2581ay": 6590, "at\u2581t</w>": 6591, "bac\u2581on</w>": 6592, "fa\u2581il": 6593, "ariz\u2581ona</w>": 6594, "de\u2581pre": 6595, "gho\u2581st</w>": 6596, "new\u2581sp": 6597, "w\u2581ers</w>": 6598, "vi\u2581p</w>": 6599, "li\u2581ked</w>": 6600, "id\u2581ent": 6601, "volunte\u2581er</w>": 6602, "ad\u2581ult</w>": 6603, "pu\u2581pp": 6604, "cir\u2581cle</w>": 6605, "mat\u2581erial</w>": 6606, "degre\u2581e</w>": 6607, "gro\u2581wn</w>": 6608, "boo\u2581m</w>": 6609, "calend\u2581ar</w>": 6610, "su\u2581r</w>": 6611, "vie\u2581wing</w>": 6612, "ath\u2581letes</w>": 6613, "ch\u2581and": 6614, "re\u2581ll</w>": 6615, "asi\u2581an</w>": 6616, "en\u2581tr": 6617, "vol\u2581ley": 6618, "victi\u2581ms</w>": 6619, "bo\u2581dy": 6620, "m\u2581ama</w>": 6621, "trans\u2581fer</w>": 6622, "ge\u2581ek</w>": 6623, "in\u2581dic": 6624, "sav\u2581ed</w>": 6625, "ma\u2581i": 6626, "g\u2581ent</w>": 6627, "it\u2581s": 6628, "loun\u2581ge</w>": 6629, "k\u2581ol": 6630, "the\u2581ory</w>": 6631, "situ\u2581ation</w>": 6632, "is\u2581lands</w>": 6633, "ar\u2581th": 6634, "z\u2581oo</w>": 6635, "floo\u2581d</w>": 6636, "vi\u2581ously</w>": 6637, "show\u2581ed</w>": 6638, "parliam\u2581ent</w>": 6639, "ch\u2581ev": 6640, "el\u2581ine</w>": 6641, "at\u2581trac": 6642, "ab\u2581ad</w>": 6643, "ta\u2581il": 6644, "h\u2581rs</w>": 6645, "lu\u2581s</w>": 6646, "por\u2581tu": 6647, "gor\u2581y</w>": 6648, "provi\u2581des</w>": 6649, "to\u2581ys</w>": 6650, "de\u2581ath": 6651, "in\u2581fe": 6652, "an\u2581ce": 6653, "g\u2581le": 6654, "li\u2581am</w>": 6655, "lo\u2581ver</w>": 6656, "hu\u2581d": 6657, "dv\u2581d</w>": 6658, "reve\u2581aled</w>": 6659, "g\u2581w": 6660, "re\u2581ment</w>": 6661, "ca\u2581the": 6662, "l\u2581ying</w>": 6663, "ra\u2581dio": 6664, "der\u2581by</w>": 6665, "stor\u2581s</w>": 6666, "che\u2581mi": 6667, "hosp\u2581it": 6668, "\u00e2\u013e\u2581\u00a8": 6669, "'\u2581:</w>": 6670, "ilo\u2581ve": 6671, "le\u2581mon</w>": 6672, "re\u2581public</w>": 6673, "s\u2581ni": 6674, "ne\u2581ss": 6675, "do\u2581or": 6676, "re\u2581action</w>": 6677, "pre\u2581gn": 6678, "fla\u2581v": 6679, "schol\u2581ar": 6680, "spo\u2581tify</w>": 6681, "is\u2581ation</w>": 6682, "vis\u2581ual</w>": 6683, "aw\u2581are</w>": 6684, "spon\u2581sored</w>": 6685, "jo\u2581ke</w>": 6686, "less\u2581ons</w>": 6687, "leg\u2581is": 6688, "lo\u2581ck": 6689, "si\u2581mil": 6690, "\u00f0\u0141\u013a\u2581\u012d</w>": 6691, "kin\u2581d": 6692, "la\u2581y": 6693, "ma\u2581h": 6694, "ho\u2581ping</w>": 6695, "vancou\u2581ver</w>": 6696, "as\u2581er</w>": 6697, "clean\u2581ing</w>": 6698, "gal\u2581a</w>": 6699, "thre\u2581at</w>": 6700, "la\u2581p": 6701, "ach\u2581e</w>": 6702, "ro\u2581mance</w>": 6703, "ex\u2581pen": 6704, "re\u2581post</w>": 6705, "z\u2581am": 6706, "e\u2581pi": 6707, "mir\u2581ror</w>": 6708, "o\u2581ak</w>": 6709, "ad\u2581ul": 6710, "bat\u2581man</w>": 6711, "s\u2581lu": 6712, "l\u2581c</w>": 6713, "vie\u2581wed</w>": 6714, "re\u2581views</w>": 6715, "d\u2581ates</w>": 6716, "indone\u2581sia</w>": 6717, "acti\u2581vi": 6718, "off\u2581en": 6719, "lea\u2581f</w>": 6720, "i\u2581si": 6721, "ag\u2581ricul": 6722, "costu\u2581me</w>": 6723, "s\u2581ites</w>": 6724, "spir\u2581itu": 6725, "appear\u2581ance</w>": 6726, "ir\u2581y</w>": 6727, "st\u2581air": 6728, "applic\u2581ation</w>": 6729, "spec\u2581tac": 6730, "ic\u2581ity</w>": 6731, "ski\u2581es</w>": 6732, "hand\u2581le</w>": 6733, "pun\u2581k</w>": 6734, "paradi\u2581se</w>": 6735, "t\u2581n</w>": 6736, "de\u2581al": 6737, "provi\u2581ding</w>": 6738, "do\u2581c</w>": 6739, "recei\u2581ving</w>": 6740, "bre\u2581w</w>": 6741, "micro\u2581soft</w>": 6742, "\u00c3\u2581\u00b6": 6743, "fer\u2581r": 6744, "me\u2581tro": 6745, "th\u2581ail": 6746, "y\u2581um</w>": 6747, "car\u2581ter</w>": 6748, "\u00c3\u2581\u00a1": 6749, "gent\u2581le": 6750, "bre\u2581aks</w>": 6751, "coo\u2581per": 6752, "show\u2581case</w>": 6753, "cu\u2581tting</w>": 6754, "egy\u2581pt</w>": 6755, "bab\u2581y": 6756, "semin\u2581ar</w>": 6757, "gl\u2581ori": 6758, "ss\u2581on</w>": 6759, "fa\u2581ve</w>": 6760, "re\u2581hear": 6761, "lo\u2581tte</w>": 6762, "la\u2581dy": 6763, "al\u2581as": 6764, "pre\u2581p</w>": 6765, "deli\u2581vered</w>": 6766, "nu\u2581clear</w>": 6767, "ir\u2581o</w>": 6768, "engag\u2581ement</w>": 6769, "at\u2581ta": 6770, "con\u2581ven": 6771, "z\u2581an": 6772, "gl\u2581ory</w>": 6773, "hol\u2581ds</w>": 6774, "busine\u2581sses</w>": 6775, "str\u2581ange</w>": 6776, "sch\u2581e</w>": 6777, "it\u2581self</w>": 6778, "gra\u2581d</w>": 6779, "mar\u2581kets</w>": 6780, "f\u2581alling</w>": 6781, "st\u2581ats</w>": 6782, "ge\u2581on</w>": 6783, "bu\u2581dd": 6784, "li\u2581s": 6785, "she\u2581et</w>": 6786, "thi\u2581si": 6787, "co\u2581lo": 6788, "deser\u2581t</w>": 6789, "regi\u2581stration</w>": 6790, "ig\u2581n": 6791, "expla\u2581in</w>": 6792, "inter\u2581ior</w>": 6793, "la\u2581ws</w>": 6794, "writ\u2581ers</w>": 6795, "spr\u2581ings</w>": 6796, "k\u2581r": 6797, "fri\u2581ed</w>": 6798, "blo\u2581om": 6799, "inf\u2581ra": 6800, "a\u2581o": 6801, "cre\u2581d": 6802, "pa\u2581st": 6803, "line\u2581up</w>": 6804, "bo\u2581o</w>": 6805, "bre\u2581a": 6806, "boo\u2581ts</w>": 6807, "celebr\u2581ity</w>": 6808, "att\u2581acks</w>": 6809, "bro\u2581ok</w>": 6810, "ev\u2581es</w>": 6811, "ex\u2581cu": 6812, "cher\u2581ry</w>": 6813, "oo\u2581p</w>": 6814, "fas\u2581cin": 6815, "boy\u2581friend</w>": 6816, "se\u2581as": 6817, "n\u2581ine</w>": 6818, "effec\u2581ts</w>": 6819, "po\u2581wered</w>": 6820, "k\u2581ha": 6821, "\u00f0\u0141\u013a\u2581\u0122</w>": 6822, "sh\u2581out": 6823, "con\u2581dition</w>": 6824, "i\u2581j": 6825, "her\u2581o": 6826, "enter\u2581pri": 6827, "win\u2581ter": 6828, "applic\u2581ations</w>": 6829, "sho\u2581e</w>": 6830, "g\u2581el": 6831, "batt\u2581le": 6832, "pro\u2581grams</w>": 6833, "w\u2581art</w>": 6834, "\u00f0\u0141\u0134\u2581\u00a5</w>": 6835, "ra\u2581p</w>": 6836, "ho\u2581l</w>": 6837, "dang\u2581erous</w>": 6838, "di\u2581a": 6839, "coun\u2581ter</w>": 6840, "ric\u2581s</w>": 6841, "i\u2581or": 6842, "k\u2581night</w>": 6843, "co\u2581at</w>": 6844, "emo\u2581tional</w>": 6845, "at\u2581ures</w>": 6846, "d\u2581as</w>": 6847, "whe\u2581el": 6848, "fore\u2581cast</w>": 6849, "tran\u2581sport</w>": 6850, "glasgo\u2581w</w>": 6851, "king\u2581dom</w>": 6852, "prepar\u2581ing</w>": 6853, "im\u2581medi": 6854, "ff\u2581in</w>": 6855, "awar\u2581ded</w>": 6856, "prin\u2581ting</w>": 6857, "ro\u2581man</w>": 6858, "fight\u2581ers</w>": 6859, "any\u2581more</w>": 6860, "bel\u2581t</w>": 6861, "p\u2581ine</w>": 6862, "win\u2581e": 6863, "x\u2581i</w>": 6864, "employe\u2581es</w>": 6865, "logi\u2581es</w>": 6866, "al\u2581led</w>": 6867, "de\u2581mo</w>": 6868, "birth\u2581day": 6869, "ange\u2581les</w>": 6870, "lo\u2581g</w>": 6871, "dri\u2581vers</w>": 6872, "neck\u2581lace</w>": 6873, "k\u2581ath": 6874, "s\u2581it": 6875, "athle\u2581te</w>": 6876, "ef\u2581s</w>": 6877, "s\u2581burg</w>": 6878, "pur\u2581pose</w>": 6879, "resi\u2581stance</w>": 6880, "rele\u2581ases</w>": 6881, "t\u2581is</w>": 6882, "vari\u2581ous</w>": 6883, "deli\u2581ver</w>": 6884, "ch\u2581al": 6885, "s\u2581anc": 6886, "opp\u2581o": 6887, "cra\u2581w": 6888, "neu\u2581ro": 6889, "dr\u2581a</w>": 6890, "suppor\u2581ters</w>": 6891, "sna\u2581p</w>": 6892, "diffic\u2581ult</w>": 6893, "swe\u2581ar</w>": 6894, "logi\u2581st</w>": 6895, "pa\u2581th": 6896, "attemp\u2581t</w>": 6897, "\u00e0\u2581\u00a5": 6898, "swim\u2581ming</w>": 6899, "ste\u2581ve": 6900, "hur\u2581t</w>": 6901, "inclu\u2581ded</w>": 6902, "b\u2581ap": 6903, "wa\u2581re": 6904, "\u00f0\u0141\u0134\u2581\u012d</w>": 6905, "end\u2581ers</w>": 6906, "ja\u2581ke</w>": 6907, "le\u2581eds</w>": 6908, "cli\u2581mb": 6909, "l\u2581b</w>": 6910, "im\u2581ple": 6911, "li\u2581sa</w>": 6912, "clo\u2581thing</w>": 6913, "\u00f0\u0141\u013a\u2581\u0130": 6914, "d\u2581t</w>": 6915, "com\u2581pla": 6916, "sw\u2581ing</w>": 6917, "stra\u2581w": 6918, "v\u2581als</w>": 6919, "k\u2581le</w>": 6920, "us\u2581ers</w>": 6921, "stor\u2581m": 6922, "cu\u2581ts</w>": 6923, "ontari\u2581o</w>": 6924, "p\u2581an</w>": 6925, "hand\u2581some</w>": 6926, "i\u2581ow": 6927, "ar\u2581gu": 6928, "chec\u2581king</w>": 6929, "scotti\u2581sh</w>": 6930, "\u0136\u2581\u00ef\u00b8\u0131</w>": 6931, "si\u2581er</w>": 6932, "em\u2581ma</w>": 6933, "po\u2581d</w>": 6934, "patter\u2581n</w>": 6935, "de\u2581sh</w>": 6936, "en\u2581h": 6937, "ed\u2581ward</w>": 6938, "t\u2581ing": 6939, "k\u2581h</w>": 6940, "hal\u2581f": 6941, "lincol\u2581n</w>": 6942, "mo\u2581ther": 6943, "al\u2581leg": 6944, "r\u2581c</w>": 6945, "volley\u2581ball</w>": 6946, "d\u2581n</w>": 6947, "g\u2581ay": 6948, "all\u2581y": 6949, "le\u2581ton</w>": 6950, "gro\u2581ve</w>": 6951, "l\u2581oud</w>": 6952, "adv\u2581anced</w>": 6953, "re\u2581spec": 6954, "cli\u2581ent</w>": 6955, "supre\u2581me</w>": 6956, "thail\u2581and</w>": 6957, "ho\u2581w": 6958, "gi\u2581g</w>": 6959, "to\u2581i": 6960, "do\u2581t": 6961, "dol\u2581lar</w>": 6962, "\u00f0\u0141\u0133\u2581\u0129</w>": 6963, "p\u2581it</w>": 6964, "r\u2581b</w>": 6965, "h\u2581n</w>": 6966, "produc\u2581ed</w>": 6967, "gg\u2581ers</w>": 6968, "\u00e2\u0128\u2581\u0134</w>": 6969, "ml\u2581b</w>": 6970, "can\u2581vas</w>": 6971, "fin\u2581eart": 6972, "us\u2581d</w>": 6973, "in\u2581the": 6974, "p\u2581son</w>": 6975, "actu\u2581al</w>": 6976, "s\u2581l</w>": 6977, "t\u2581b</w>": 6978, "ip\u2581ad</w>": 6979, "en\u2581sure</w>": 6980, "u\u2581mb": 6981, "w\u2581d</w>": 6982, "sk\u2581a</w>": 6983, "mar\u2581s</w>": 6984, "k\u2581end": 6985, "f\u2581eli": 6986, "th\u2581ing": 6987, "count\u2581down</w>": 6988, "absolu\u2581te</w>": 6989, "r\u2581out": 6990, "dra\u2581l</w>": 6991, "p\u2581y</w>": 6992, "inju\u2581red</w>": 6993, "min\u2581t</w>": 6994, "hun\u2581ting</w>": 6995, "mm\u2581er</w>": 6996, "s\u2581age</w>": 6997, "li\u2581gh": 6998, "ac\u2581ity</w>": 6999, "ex\u2581pan": 7000, "mur\u2581ray</w>": 7001, "ar\u2581o": 7002, "sec\u2581ure</w>": 7003, "four\u2581th</w>": 7004, "eag\u2581le</w>": 7005, "reli\u2581ef</w>": 7006, "st\u2581akes</w>": 7007, "industri\u2581al</w>": 7008, "clar\u2581k</w>": 7009, "under\u2581standing</w>": 7010, "see\u2581m</w>": 7011, "pl\u2581enty</w>": 7012, "sil\u2581ver": 7013, "cla\u2581u": 7014, "thre\u2581at": 7015, "sa\u2581il": 7016, "pro\u2581duce</w>": 7017, "ab\u2581str": 7018, "is\u2581is</w>": 7019, "b\u2581r</w>": 7020, "eng\u2581ers</w>": 7021, "wor\u2581ry</w>": 7022, "bie\u2581ber</w>": 7023, "s\u2581j": 7024, "just\u2581in": 7025, "reali\u2581ze</w>": 7026, "ky\u2581le</w>": 7027, "esp\u2581n</w>": 7028, "fil\u2581ter</w>": 7029, "s\u2581ch</w>": 7030, "ty\u2581pes</w>": 7031, "game\u2581dev</w>": 7032, "d\u2581ing": 7033, "twit\u2581ter": 7034, "soldi\u2581ers</w>": 7035, "p\u2581om": 7036, "car\u2581bon</w>": 7037, "y\u2581ards</w>": 7038, "child\u2581hood</w>": 7039, "ri\u2581ed</w>": 7040, "ke\u2581l</w>": 7041, "ele\u2581ph": 7042, "t\u2581ons</w>": 7043, "key\u2581note</w>": 7044, "qui\u2581et</w>": 7045, "wi\u2581re": 7046, "po\u2581sting</w>": 7047, "is\u2581sa</w>": 7048, "repre\u2581senting</w>": 7049, "bac\u2581ks</w>": 7050, "alex\u2581ander</w>": 7051, "celebr\u2581ates</w>": 7052, "ta\u2581ining</w>": 7053, "|\u2581|</w>": 7054, "ch\u2581or": 7055, "esc\u2581ape</w>": 7056, "pe\u2581ek</w>": 7057, "ti\u2581ves</w>": 7058, "fiel\u2581d": 7059, "ssi\u2581e</w>": 7060, "im\u2581pac": 7061, "spons\u2581or</w>": 7062, "r\u2581c": 7063, "we\u2581dd": 7064, "cann\u2581ab": 7065, "si\u2581des</w>": 7066, "trac\u2581ks</w>": 7067, "com\u2581par": 7068, "con\u2581trac": 7069, "techn\u2581ical</w>": 7070, "bi\u2581ble</w>": 7071, "expl\u2581oring</w>": 7072, "sh\u2581are": 7073, "tra\u2581v": 7074, "n\u2581ate</w>": 7075, "ill\u2581o</w>": 7076, "sc\u2581ru": 7077, "m\u2581ingham</w>": 7078, "gun\u2581s</w>": 7079, "of\u2581the": 7080, "sh\u2581ame</w>": 7081, "se\u2581es</w>": 7082, "ca\u2581tho": 7083, "ac\u2581cess": 7084, "ce\u2581l</w>": 7085, "repor\u2581ted</w>": 7086, "\u00c2\u2581\u00bb</w>": 7087, "mari\u2581o</w>": 7088, "p\u2581ad</w>": 7089, "hope\u2581fully</w>": 7090, "ou\u2581se</w>": 7091, "y\u2581on</w>": 7092, "disapp\u2581o": 7093, "ol\u2581o</w>": 7094, "p\u2581itt": 7095, "pa\u2581c</w>": 7096, "ga\u2581p</w>": 7097, "cru\u2581sh</w>": 7098, "s\u2581g</w>": 7099, "k\u2581le": 7100, "ge\u2581m</w>": 7101, "emp\u2581ire</w>": 7102, "dir\u2581ty</w>": 7103, "a\u2581is": 7104, "avi\u2581ation</w>": 7105, "ze\u2581aland</w>": 7106, "fac\u2581ing</w>": 7107, "high\u2581way</w>": 7108, "d\u2581anny</w>": 7109, "spi\u2581der</w>": 7110, "ot\u2581ta": 7111, "\u00f0\u0141\u013a\u2581\u0126</w>": 7112, "w\u2581y</w>": 7113, "col\u2581ours</w>": 7114, "in\u2581fl": 7115, "co\u2581sts</w>": 7116, "olym\u2581pics</w>": 7117, "au\u2581s</w>": 7118, "h\u2581m</w>": 7119, "ho\u2581ward</w>": 7120, "pas\u2581ses</w>": 7121, "lau\u2581ren</w>": 7122, "mu\u2581sh": 7123, "op\u2581in": 7124, "r\u2581ho": 7125, "disc\u2581ount</w>": 7126, "oper\u2581ation</w>": 7127, "em\u2581ily</w>": 7128, "mm\u2581m</w>": 7129, "cham\u2581ber</w>": 7130, "d\u2581il": 7131, "to\u2581yo": 7132, "shi\u2581p": 7133, "sam\u2581u": 7134, "pic\u2581tured</w>": 7135, "un\u2581ic": 7136, "po\u2581l</w>": 7137, "keep\u2581er</w>": 7138, "carto\u2581on</w>": 7139, "st\u2581en": 7140, "ig\u2581nor": 7141, "n\u2581ations</w>": 7142, "n\u2581l</w>": 7143, "ta\u2581sting</w>": 7144, "deta\u2581il</w>": 7145, "offici\u2581als</w>": 7146, "mo\u2581tor</w>": 7147, "franc\u2581is</w>": 7148, "ed\u2581itor</w>": 7149, "\u00f0\u0141\u0133\u2581\u0129": 7150, "pe\u2581ts</w>": 7151, "rang\u2581ers</w>": 7152, "t\u2581g": 7153, "r\u2581n</w>": 7154, "w\u2581ri": 7155, "nic\u2581hol": 7156, "i\u2581se": 7157, "spo\u2581ts</w>": 7158, "ani\u2581e</w>": 7159, "chec\u2581k": 7160, "tri\u2581ple</w>": 7161, "ku\u2581mar</w>": 7162, "spe\u2581akers</w>": 7163, "ic\u2581ing</w>": 7164, "pre\u2581pared</w>": 7165, "ab\u2581use</w>": 7166, "friend\u2581ship</w>": 7167, "mon\u2581th": 7168, "swi\u2581m</w>": 7169, "air\u2581e</w>": 7170, "sc\u2581ent</w>": 7171, "hamil\u2581ton</w>": 7172, "indi\u2581an": 7173, "j\u2581es": 7174, "yum\u2581my</w>": 7175, "te\u2581ars</w>": 7176, "da\u2581wn</w>": 7177, "i\u2581zed</w>": 7178, "worl\u2581ds</w>": 7179, "\u00f0\u0141\u2581\u0137": 7180, "b\u2581illi": 7181, "st\u2581one": 7182, "n\u2581hs</w>": 7183, "ba\u2581sic</w>": 7184, "p\u2581or</w>": 7185, "st\u2581le</w>": 7186, "ir\u2581on": 7187, "ol\u2581der</w>": 7188, "cle\u2581vel": 7189, "e\u2581ing</w>": 7190, "\u00f0\u0141\u013a\u012f\u00f0\u0141\u013a\u012f\u2581\u00f0\u0141\u013a\u012f</w>": 7191, "prin\u2581ts</w>": 7192, "fir\u2581m</w>": 7193, "air\u2581craft</w>": 7194, "fin\u2581est</w>": 7195, "devel\u2581op</w>": 7196, "aar\u2581on</w>": 7197, "t\u2581z": 7198, "gra\u2581ham</w>": 7199, "own\u2581ers</w>": 7200, "fo\u2581li": 7201, "less\u2581on</w>": 7202, "qu\u2581es</w>": 7203, "bab\u2581e</w>": 7204, "cra\u2581ft": 7205, "ph\u2581en": 7206, "ju\u2581n</w>": 7207, "bir\u2581mingham</w>": 7208, "v\u2581ine</w>": 7209, "ll\u2581er</w>": 7210, "i\u2581an": 7211, "fineart\u2581america</w>": 7212, "evol\u2581u": 7213, "st\u2581ab": 7214, "im\u2581per": 7215, "war\u2581d": 7216, "com\u2581ic": 7217, "wi\u2581z": 7218, "inv\u2581ited</w>": 7219, "du\u2581ke</w>": 7220, "mat\u2581ch": 7221, "por\u2581ts</w>": 7222, "ro\u2581ger</w>": 7223, "diag\u2581no": 7224, "ke\u2581pt</w>": 7225, "te\u2581st": 7226, "vis\u2581u": 7227, "r\u2581hy": 7228, "so\u2581c</w>": 7229, "to\u2581x": 7230, "b\u2581aker</w>": 7231, "sur\u2581face</w>": 7232, "co\u2581vers</w>": 7233, "man\u2581s</w>": 7234, "b\u2581its</w>": 7235, "x\u2581box</w>": 7236, "ff\u2581le</w>": 7237, "n\u2581an</w>": 7238, "gar\u2581d": 7239, "h\u2581art</w>": 7240, "wat\u2581ers</w>": 7241, "v\u2581illa</w>": 7242, "re\u2581tro</w>": 7243, "light\u2581ning</w>": 7244, "catho\u2581lic</w>": 7245, "democr\u2581acy</w>": 7246, "neigh\u2581bor": 7247, "pen\u2581n": 7248, "cr\u2581an": 7249, "jona\u2581than</w>": 7250, "la\u2581ura</w>": 7251, "vi\u2581bes</w>": 7252, "su\u2581b</w>": 7253, "coach\u2581ing</w>": 7254, "clear\u2581ly</w>": 7255, "uk\u2581raine</w>": 7256, "bra\u2581ve</w>": 7257, "commit\u2581ment</w>": 7258, "t\u2581all</w>": 7259, "mar\u2581t</w>": 7260, "ra\u2581p": 7261, "mo\u2581di</w>": 7262, "sco\u2581tt": 7263, "bro\u2581s</w>": 7264, "show\u2581er</w>": 7265, "\u00f0\u0141\u0131\u2581\u00be</w>": 7266, "\u00e2\u013a\u00ba\u2581\u00ef\u00b8\u0131</w>": 7267, "cou\u2581sin</w>": 7268, "appro\u2581ach": 7269, "br\u2581e</w>": 7270, "com\u2581pos": 7271, "hil\u2581ari": 7272, "phil\u2581ly</w>": 7273, "g\u2581ad": 7274, "quick\u2581ly</w>": 7275, "ri\u2581an</w>": 7276, "t\u2581m</w>": 7277, "vir\u2581tual</w>": 7278, "hou\u2581ses</w>": 7279, "k\u2581t</w>": 7280, "phoeni\u2581x</w>": 7281, "w\u2581ire</w>": 7282, "ff\u2581y</w>": 7283, "b\u2581unch</w>": 7284, "anc\u2581ing</w>": 7285, "tal\u2581e</w>": 7286, "snap\u2581chat</w>": 7287, "star\u2581ter</w>": 7288, "h\u2581t</w>": 7289, "k\u2581icking</w>": 7290, "ap\u2581art</w>": 7291, "th\u2581y": 7292, ")\u2581!</w>": 7293, "blo\u2581gger</w>": 7294, "it\u2581z</w>": 7295, "com\u2581fort</w>": 7296, "ang\u2581els</w>": 7297, "w\u2581ash</w>": 7298, "\"\u2581:</w>": 7299, "ar\u2581gent": 7300, "re\u2581quest</w>": 7301, "hon\u2581est": 7302, "mi\u2581ghty</w>": 7303, "bo\u2581bby</w>": 7304, "k\u2581g</w>": 7305, "ro\u2581l</w>": 7306, "thou\u2581se</w>": 7307, "ex\u2581po": 7308, "h\u2581c</w>": 7309, "tab\u2581les</w>": 7310, "mag\u2581ical</w>": 7311, "po\u2581sts</w>": 7312, "de\u2581m</w>": 7313, "n\u2581w": 7314, "or\u2581lando</w>": 7315, "ab\u2581er": 7316, "*\u2581**</w>": 7317, "\u00f0\u0141\u013a\u2581\u013e</w>": 7318, "environ\u2581mental</w>": 7319, "trans\u2581formation</w>": 7320, "mi\u2581le": 7321, "w\u2581ic": 7322, "hir\u2581ing</w>": 7323, "ma\u2581ine</w>": 7324, "bo\u2581ar": 7325, "r\u2581ying</w>": 7326, "ti\u2581s": 7327, "nit\u2581ure</w>": 7328, "twee\u2581ted</w>": 7329, "anton\u2581io</w>": 7330, "opin\u2581ion</w>": 7331, "fin\u2581ale</w>": 7332, "di\u2581y</w>": 7333, "f\u2581is": 7334, "th\u2581in</w>": 7335, "trou\u2581ble</w>": 7336, "le\u2581go</w>": 7337, "fi\u2581les</w>": 7338, "qu\u2581art": 7339, "sp\u2581a": 7340, "curren\u2581cy</w>": 7341, "cli\u2581mate": 7342, "fan\u2581art</w>": 7343, "rail\u2581way</w>": 7344, "sp\u2581ace": 7345, "ban\u2581ds</w>": 7346, "dani\u2581el": 7347, "mo\u2581tion</w>": 7348, "l\u2581eng": 7349, "hol\u2581der</w>": 7350, "oc\u2581cu": 7351, "mar\u2581ie</w>": 7352, "cathe\u2581dral</w>": 7353, "bu\u2581zz": 7354, "bi\u2581es</w>": 7355, "nas\u2581car</w>": 7356, "bm\u2581w</w>": 7357, "bat\u2581tery</w>": 7358, "char\u2581lotte</w>": 7359, "doc\u2581tor": 7360, "zz\u2581le</w>": 7361, "se\u2581ven": 7362, "in\u2581san": 7363, "d\u2581dy</w>": 7364, "st\u2581en</w>": 7365, "lab\u2581or</w>": 7366, "thr\u2581illed</w>": 7367, "se\u2581ren": 7368, "docu\u2581mentary</w>": 7369, "wav\u2581es</w>": 7370, "cer\u2581tain</w>": 7371, "can\u2581did": 7372, "allow\u2581ed</w>": 7373, "ninten\u2581do</w>": 7374, "star\u2581wars</w>": 7375, "ta\u2581p</w>": 7376, "home\u2581made</w>": 7377, "d\u2581les</w>": 7378, "ther\u2581ing</w>": 7379, "bre\u2581e": 7380, "emp\u2581ty</w>": 7381, "pi\u2581ano</w>": 7382, "pos\u2581iti": 7383, "coun\u2581try": 7384, "por\u2581k</w>": 7385, "pu\u2581ts</w>": 7386, "per\u2581ry</w>": 7387, "m\u2581atic</w>": 7388, "spot\u2581light</w>": 7389, "ti\u2581st</w>": 7390, "or\u2581ities</w>": 7391, "we\u2581alth</w>": 7392, "c\u2581p": 7393, "bar\u2581bar": 7394, "commit\u2581ted</w>": 7395, "as\u2581sau": 7396, "pro\u2581fit</w>": 7397, "e\u2581ight</w>": 7398, "hu\u2581l": 7399, "fini\u2581shing</w>": 7400, "run\u2581ner</w>": 7401, "ss\u2581o</w>": 7402, "insp\u2581ec": 7403, "char\u2581ged</w>": 7404, "christ\u2581op": 7405, "lo\u2581sing</w>": 7406, "co\u2581al</w>": 7407, "ho\u2581o</w>": 7408, "ele\u2581v": 7409, "de\u2581le": 7410, "mo\u2581ham": 7411, "don\u2581ation</w>": 7412, "c\u2581able</w>": 7413, "clin\u2581ic</w>": 7414, "j\u2581in": 7415, "manag\u2581ed</w>": 7416, "ter\u2581ing</w>": 7417, "\u00e2\u2581\u00ac": 7418, "ur\u2581ban": 7419, "depu\u2581ty</w>": 7420, "bb\u2581er</w>": 7421, "bur\u2581n": 7422, "acade\u2581mic</w>": 7423, "o\u2581tt</w>": 7424, "sta\u2581ke</w>": 7425, "it\u2581er": 7426, "sto\u2581wn</w>": 7427, "ack\u2581er</w>": 7428, "advent\u2581ures</w>": 7429, "ad\u2581ams</w>": 7430, "gre\u2581g</w>": 7431, "pro\u2581m</w>": 7432, "vo\u2581l</w>": 7433, "ac\u2581qu": 7434, "con\u2581gre": 7435, "pa\u2581int": 7436, "citiz\u2581ens</w>": 7437, "c\u2581all": 7438, "af\u2581ford": 7439, "v\u2581c</w>": 7440, "as\u2581ks</w>": 7441, "the\u2581tic</w>": 7442, "independ\u2581ence</w>": 7443, "\u00e2\u2581\u013d": 7444, "h\u2581itting</w>": 7445, "bl\u2581on": 7446, "fu\u2581ture": 7447, "\u00e2\u2581\u0131": 7448, "in\u2581no": 7449, "gen\u2581e</w>": 7450, "bo\u2581ards</w>": 7451, "di\u2581stance</w>": 7452, "se\u2581t": 7453, "re\u2581mem": 7454, "th\u2581al": 7455, "pre\u2581vent</w>": 7456, "l\u2581ang": 7457, "ob\u2581jec": 7458, "su\u2581sp": 7459, "mat\u2581t": 7460, "in\u2581duc": 7461, "bor\u2581o</w>": 7462, "pi\u2581one": 7463, "re\u2581di": 7464, "vir\u2581tu": 7465, "prin\u2581ted</w>": 7466, "sco\u2581pe</w>": 7467, "shar\u2581k</w>": 7468, "suc\u2581ce": 7469, "a\u2581stron": 7470, "il\u2581legal</w>": 7471, "j\u2581ag": 7472, "c\u2581ting</w>": 7473, "ine\u2581e</w>": 7474, "at\u2581o": 7475, "rob\u2581in</w>": 7476, "nutr\u2581ition</w>": 7477, "b\u2581f</w>": 7478, "du\u2581tch</w>": 7479, "b\u2581n</w>": 7480, "fur\u2581niture</w>": 7481, "for\u2581gotten</w>": 7482, "at\u2581ar</w>": 7483, "ru\u2581p": 7484, "hy\u2581per": 7485, "bran\u2581ch</w>": 7486, "communic\u2581ation</w>": 7487, "degre\u2581es</w>": 7488, "on\u2581ia</w>": 7489, "un\u2581cle</w>": 7490, "promo\u2581te</w>": 7491, "or\u2581che": 7492, "wi\u2581i</w>": 7493, "j\u2581s</w>": 7494, "but\u2581ton</w>": 7495, "ma\u2581jor": 7496, "c\u2581bs</w>": 7497, "bri\u2581stol</w>": 7498, "premi\u2581um</w>": 7499, "ordin\u2581ary</w>": 7500, "e\u2581dit</w>": 7501, "m\u2581g</w>": 7502, "we\u2581ed</w>": 7503, "st\u2581even</w>": 7504, ":\u2581'": 7505, "gu\u2581s</w>": 7506, "te\u2581s": 7507, "cap\u2581tured</w>": 7508, "dru\u2581gs</w>": 7509, "do\u2581w": 7510, "wr\u2581ites</w>": 7511, "bi\u2581shop</w>": 7512, "whe\u2581els</w>": 7513, "ali\u2581zation</w>": 7514, "disco\u2581very</w>": 7515, "w\u2581r</w>": 7516, "rach\u2581el</w>": 7517, "ne\u2581il</w>": 7518, "hy\u2581dr": 7519, "cu\u2581test</w>": 7520, "entreprene\u2581ur</w>": 7521, "kore\u2581an</w>": 7522, "ore\u2581gon</w>": 7523, "ul\u2581ty</w>": 7524, "perfec\u2581tly</w>": 7525, "suppor\u2581ted</w>": 7526, "histor\u2581ical</w>": 7527, "t\u2581wins</w>": 7528, "ell\u2581y": 7529, "we\u2581l</w>": 7530, "de\u2581vil</w>": 7531, "in\u2581come</w>": 7532, "scienti\u2581sts</w>": 7533, "de\u2581leg": 7534, "h\u2581en</w>": 7535, "on\u2581i</w>": 7536, "ic\u2581ed</w>": 7537, "gi\u2581o</w>": 7538, "cur\u2581ry</w>": 7539, "reve\u2581al</w>": 7540, "e\u2581g": 7541, "buff\u2581alo</w>": 7542, "n\u2581ol": 7543, "op\u2581era</w>": 7544, "camer\u2581on</w>": 7545, "haha\u2581haha": 7546, "j\u2581ab": 7547, "gradu\u2581ation</w>": 7548, "cra\u2581ig</w>": 7549, "r\u2581al": 7550, "i\u2581f": 7551, "organi\u2581zation</w>": 7552, "le\u2581ge</w>": 7553, "g\u2581ang": 7554, "su\u2581d": 7555, "edin\u2581burgh</w>": 7556, "l\u2581ack</w>": 7557, "fli\u2581es</w>": 7558, "g\u2581ate": 7559, "thr\u2581ones</w>": 7560, "q\u2581b</w>": 7561, "the\u2581real": 7562, "e\u2581leg": 7563, "pp\u2581in</w>": 7564, "c\u2581les</w>": 7565, "jam\u2581ie</w>": 7566, "tn\u2581am</w>": 7567, "cryp\u2581to": 7568, "ou\u2581l</w>": 7569, "p\u2581ages</w>": 7570, "a\u2581se": 7571, "roo\u2581ts</w>": 7572, "stu\u2581pid</w>": 7573, "a\u2581did": 7574, "boo\u2581t</w>": 7575, "prote\u2581in</w>": 7576, "s\u2581ap": 7577, "si\u2581um</w>": 7578, "su\u2581s": 7579, "end\u2581or": 7580, "fun\u2581ction</w>": 7581, "don\u2581t": 7582, "en\u2581na</w>": 7583, "ch\u2581y</w>": 7584, "squ\u2581e</w>": 7585, "wor\u2581ker</w>": 7586, "m\u2581tv": 7587, "e\u2581a</w>": 7588, "k\u2581an</w>": 7589, "\u00f0\u0141\u0134\u2581\u013c": 7590, "mu\u2581s</w>": 7591, "professi\u2581on": 7592, "t\u2581to</w>": 7593, "oper\u2581ations</w>": 7594, "al\u2581lo": 7595, "c\u2581tor</w>": 7596, "inv\u2581ite</w>": 7597, "sc\u2581and": 7598, "ou\u2581th</w>": 7599, "z\u2581im": 7600, "lin\u2581ks</w>": 7601, "cli\u2581ents</w>": 7602, "sam\u2581sung</w>": 7603, "discu\u2581sses</w>": 7604, "n\u2581ell</w>": 7605, "ul\u2581tra</w>": 7606, "some\u2581where</w>": 7607, "ste\u2581wart</w>": 7608, "ine\u2581t</w>": 7609, "de\u2581z</w>": 7610, "b\u2581out</w>": 7611, "fac\u2581tor</w>": 7612, "ti\u2581an</w>": 7613, "tr\u2581ans</w>": 7614, "jere\u2581my</w>": 7615, "d\u2581b</w>": 7616, "\u00f0\u0141\u0129\u2581\u00ac": 7617, "or\u2581n</w>": 7618, "develop\u2581ing</w>": 7619, "spo\u2581l</w>": 7620, "coo\u2581per</w>": 7621, "ma\u2581u": 7622, "rememb\u2581ering</w>": 7623, "tre\u2581k</w>": 7624, "famil\u2581y": 7625, "sen\u2581iors</w>": 7626, "fo\u2581ster</w>": 7627, "att\u2581ended</w>": 7628, "w\u2581ing": 7629, "trans\u2581form": 7630, "ele\u2581mentary</w>": 7631, "hor\u2581iz": 7632, "li\u2581sting</w>": 7633, "malay\u2581sia</w>": 7634, "it\u2581ch</w>": 7635, "warri\u2581or</w>": 7636, "philipp\u2581ines</w>": 7637, "russ\u2581ell</w>": 7638, "m\u2581end": 7639, "initi\u2581ative</w>": 7640, "cre\u2581ep": 7641, "to\u2581ps</w>": 7642, "br\u2581iti": 7643, "a\u2581ur": 7644, "shar\u2581p</w>": 7645, "adverti\u2581sing</w>": 7646, "ug\u2581ly</w>": 7647, "achi\u2581ev": 7648, "materi\u2581als</w>": 7649, "bu\u2581g</w>": 7650, "dev\u2581ice</w>": 7651, "bon\u2581us</w>": 7652, "fac\u2581ility</w>": 7653, "col\u2581e</w>": 7654, "nh\u2581l</w>": 7655, "y\u2581as": 7656, "plann\u2581ed</w>": 7657, "pol\u2581e</w>": 7658, "excell\u2581ence</w>": 7659, "tr\u2581ick</w>": 7660, "con\u2581fl": 7661, "r\u2581p</w>": 7662, "achi\u2581eve</w>": 7663, "lo\u2581an</w>": 7664, "swa\u2581g</w>": 7665, "jess\u2581ica</w>": 7666, "ho\u2581we": 7667, "p\u2581our</w>": 7668, "sc\u2581u": 7669, "z\u2581oo": 7670, "r\u2581ated</w>": 7671, "dre\u2581sses</w>": 7672, "re\u2581bel": 7673, "mex\u2581ican</w>": 7674, "co\u2581ordin": 7675, "me\u2581ss</w>": 7676, "atlan\u2581tic</w>": 7677, "t\u2581l</w>": 7678, "osc\u2581ar</w>": 7679, "wal\u2581ks</w>": 7680, "phar\u2581mac": 7681, "investig\u2581ation</w>": 7682, "...\u2581#</w>": 7683, "cc\u2581i</w>": 7684, "eas\u2581ily</w>": 7685, "monday\u2581motivation</w>": 7686, "y\u2581ment</w>": 7687, "au\u2581ti": 7688, "for\u2581ced</w>": 7689, "ar\u2581med</w>": 7690, "colle\u2581agues</w>": 7691, "pap\u2581ers</w>": 7692, "pro\u2581per</w>": 7693, "sha\u2581ke": 7694, "bu\u2581c": 7695, "le\u2581an</w>": 7696, "exhi\u2581bit</w>": 7697, "e\u2581vement</w>": 7698, "co\u2581tt": 7699, "bi\u2581z": 7700, "sp\u2581er": 7701, "k\u2581ent</w>": 7702, "sw\u2581an": 7703, "/\u2581@</w>": 7704, "girl\u2581friend</w>": 7705, "haw\u2581k</w>": 7706, "\u00e2\u013a\u2581\u0122\u00ef\u00b8\u0131</w>": 7707, "mon\u2581o": 7708, "\u00f0\u0141\u0134\u2581\u013d": 7709, "stat\u2581ue</w>": 7710, "\u00f0\u0141\u013a\u2581\u00b3</w>": 7711, "ra\u2581s</w>": 7712, "te\u2581eth</w>": 7713, "preci\u2581ous</w>": 7714, "t\u2581ile</w>": 7715, "p\u2581am": 7716, "swi\u2581ft</w>": 7717, "v\u2581ali": 7718, "no\u2581se</w>": 7719, "dr\u2581unk</w>": 7720, "experi\u2581ences</w>": 7721, "come\u2581back</w>": 7722, "gen\u2581ius</w>": 7723, "wor\u2581se</w>": 7724, "sh\u2581ef": 7725, "ra\u2581d</w>": 7726, "ed\u2581it": 7727, "hon\u2581our</w>": 7728, "au\u2581spol</w>": 7729, "lar\u2581ry</w>": 7730, "h\u2581ire</w>": 7731, "gor\u2581don</w>": 7732, "achi\u2581evement</w>": 7733, "....\u2581....": 7734, "su\u2581icide</w>": 7735, "alter\u2581native</w>": 7736, "su\u2581p</w>": 7737, "sur\u2581roun": 7738, "sha\u2581ke</w>": 7739, "ke\u2581ith</w>": 7740, "pe\u2581pper</w>": 7741, "tur\u2581k": 7742, "crimin\u2581al</w>": 7743, "be\u2581ck": 7744, "su\u2581m</w>": 7745, "w\u2581alls</w>": 7746, "cn\u2581n</w>": 7747, "an\u2581tic": 7748, "of\u2581fe": 7749, "col\u2581li": 7750, "win\u2581es</w>": 7751, "high\u2581light</w>": 7752, "hawa\u2581ii</w>": 7753, "emb\u2581ar": 7754, "l\u2581fc</w>": 7755, "\u00f0\u0141\u0129\u2581\u00ae": 7756, "m\u2581v</w>": 7757, ">\u2581>": 7758, "at\u2581mo": 7759, "wor\u2581d": 7760, "car\u2581l": 7761, "shout\u2581out</w>": 7762, "bre\u2581wing</w>": 7763, "\u00ec\u2581\u013f": 7764, "do\u2581f": 7765, "s\u2581ic": 7766, "hot\u2581test</w>": 7767, "col\u2581on": 7768, "hh\u2581h</w>": 7769, "shu\u2581t</w>": 7770, "low\u2581ing</w>": 7771, "volu\u2581me</w>": 7772, "apart\u2581ment</w>": 7773, "agre\u2581ement</w>": 7774, "de\u2581stro": 7775, "we\u2581e</w>": 7776, "religi\u2581ous</w>": 7777, "iow\u2581a</w>": 7778, "ro\u2581d</w>": 7779, "land\u2581ing</w>": 7780, "re\u2581present": 7781, "\u00f0\u0141\u0135\u00b7\u2581:</w>": 7782, "la\u2581s": 7783, "usu\u2581ally</w>": 7784, "h\u2581l": 7785, "c\u2581ac": 7786, "sal\u2581v": 7787, "al\u2581ong": 7788, "laugh\u2581ing</w>": 7789, "be\u2581ans</w>": 7790, "remin\u2581ds</w>": 7791, "pha\u2581se</w>": 7792, "some\u2581body</w>": 7793, "ma\u2581sk</w>": 7794, "ran\u2581ked</w>": 7795, "dest\u2581roy": 7796, "sc\u2581i</w>": 7797, "\u00e2\u0122\u00bc\u2581\u00ef\u00b8\u0131</w>": 7798, "gab\u2581ri": 7799, "le\u2581o</w>": 7800, "ro\u2581a": 7801, "fa\u2581iled</w>": 7802, "si\u2581l</w>": 7803, "refuge\u2581es</w>": 7804, "re\u2581vi": 7805, "r\u2581ing": 7806, "ber\u2581ries</w>": 7807, "coo\u2581kies</w>": 7808, "y\u2581y</w>": 7809, "conserv\u2581ation</w>": 7810, "sh\u2581ab": 7811, "human\u2581s</w>": 7812, "de\u2581termin": 7813, "a\u2581in": 7814, "ni\u2581all</w>": 7815, "as\u2581su": 7816, "mb\u2581a</w>": 7817, "fro\u2581m": 7818, "extre\u2581me</w>": 7819, "vic\u2581es</w>": 7820, "commer\u2581ce</w>": 7821, "ght\u2581ful</w>": 7822, "or\u2581dered</w>": 7823, "suppor\u2581ts</w>": 7824, "re\u2581cap</w>": 7825, "v\u2581or": 7826, "dro\u2581pping</w>": 7827, "correc\u2581t</w>": 7828, "pay\u2581ing</w>": 7829, "mean\u2581ing</w>": 7830, "n\u2581j": 7831, "qui\u2581z</w>": 7832, "\"\u2581#</w>": 7833, "busine\u2581ss": 7834, "\u00f0\u0141\u0129\u00ae\u2581\u00f0\u0141\u0129": 7835, "indi\u2581gen": 7836, "du\u2581st</w>": 7837, "box\u2581es</w>": 7838, "bl\u2581ind</w>": 7839, "x\u2581xx</w>": 7840, "zz\u2581y</w>": 7841, "\u00f0\u0141\u0129\u00ac\u2581\u00f0\u0141\u0129": 7842, "ss\u2581els</w>": 7843, "s\u2581ant": 7844, "dd\u2581le</w>": 7845, "hilari\u2581ous</w>": 7846, "desig\u2581n": 7847, "wonder\u2581ing</w>": 7848, "vehic\u2581les</w>": 7849, "k\u2581re": 7850, "ju\u2581d": 7851, "rece\u2581ption</w>": 7852, "par\u2581ker</w>": 7853, "\u00c3\u2581\u0143": 7854, "pri\u2581vi": 7855, "hy\u2581dro": 7856, "sof\u2581tball</w>": 7857, "pol\u2581lu": 7858, "lo\u2581cked</w>": 7859, "ba\u2581h": 7860, "e\u2581ar</w>": 7861, "scri\u2581pt</w>": 7862, "di\u2581vi": 7863, "br\u2581ace": 7864, "geor\u2581ge": 7865, "the\u2581ast</w>": 7866, "bel\u2581o": 7867, "j\u2581al": 7868, "tion\u2581ary</w>": 7869, "dent\u2581al</w>": 7870, "roc\u2581ket</w>": 7871, "pur\u2581ch": 7872, "sh\u2581ak": 7873, "manufac\u2581turing</w>": 7874, "e\u2581z</w>": 7875, "it\u2581is</w>": 7876, "con\u2581cep": 7877, "tb\u2581all": 7878, "ch\u2581s</w>": 7879, "direc\u2581ted</w>": 7880, "pra\u2581yers</w>": 7881, "oo\u2581k</w>": 7882, "phil\u2581os": 7883, "vari\u2581ety</w>": 7884, "che\u2581ss</w>": 7885, "ser\u2581ver</w>": 7886, "g\u2581and": 7887, "bal\u2581ti": 7888, "\u00f0\u0141\u0135\u2581\u00b8": 7889, "sel\u2581y</w>": 7890, "cru\u2581z</w>": 7891, "spectac\u2581ular</w>": 7892, "bur\u2581ning</w>": 7893, "re\u2581present</w>": 7894, "i\u2581z</w>": 7895, "t\u2581one</w>": 7896, "mer\u2581ce": 7897, "h\u2581ell": 7898, "bed\u2581room</w>": 7899, "estab\u2581li": 7900, "bo\u2581l</w>": 7901, "com\u2581mon": 7902, "\u00e3\u0125\u2581\u00bb": 7903, "ab\u2581or": 7904, "kit\u2581ty</w>": 7905, "hei\u2581ghts</w>": 7906, "re\u2581pair</w>": 7907, "willi\u2581am": 7908, "qu\u2581ake</w>": 7909, "alab\u2581ama</w>": 7910, "popul\u2581ation</w>": 7911, "re\u2581v": 7912, "re\u2581tt</w>": 7913, "i\u2581sts</w>": 7914, "n\u2581ite</w>": 7915, "le\u2581m</w>": 7916, "a\u2581ha</w>": 7917, "clevel\u2581and</w>": 7918, "r\u2581m</w>": 7919, "po\u2581ver": 7920, "ob\u2581se": 7921, "mon\u2581tre": 7922, "man\u2581ia</w>": 7923, "\u00c2\u2581\u00ae</w>": 7924, "con\u2581ne": 7925, "car\u2581ni": 7926, "sh\u2581ah</w>": 7927, "f\u2581y": 7928, "u\u2581a</w>": 7929, "sc\u2581or": 7930, "strugg\u2581le</w>": 7931, "bo\u2581b": 7932, "'\u2581'</w>": 7933, "appro\u2581pri": 7934, "deci\u2581de</w>": 7935, "ff\u2581ed</w>": 7936, "ca\u2581ster</w>": 7937, "s\u2581ort</w>": 7938, "hun\u2581gry</w>": 7939, "dra\u2581g": 7940, "\u00d8\u00a7\u2581\u00d9": 7941, "gr\u2581ounds</w>": 7942, "d\u2581w": 7943, "sli\u2581ghtly</w>": 7944, "car\u2581din": 7945, "dead\u2581line</w>": 7946, "bron\u2581ze</w>": 7947, "web\u2581in": 7948, "bar\u2581ry</w>": 7949, "sil\u2581ence</w>": 7950, "e\u2581uro</w>": 7951, "op\u2581tion</w>": 7952, "ear\u2581n</w>": 7953, "\u00f0\u0141\u0134\u2581\u0138": 7954, "howe\u2581ver</w>": 7955, "na\u2581ren": 7956, "na\u2581ils</w>": 7957, "bath\u2581room</w>": 7958, "v\u2581ine": 7959, "ph\u2581d</w>": 7960, "min\u2581ing</w>": 7961, "gar\u2581age</w>": 7962, "(\u2581)</w>": 7963, "shou\u2581lder</w>": 7964, "defe\u2581at</w>": 7965, "di\u2581r</w>": 7966, "o\u2581v</w>": 7967, "liber\u2581ty</w>": 7968, "ple\u2581as": 7969, "x\u2581on</w>": 7970, "com\u2581pre": 7971, "a\u2581v</w>": 7972, "j\u2581in</w>": 7973, "ab\u2581les</w>": 7974, "sil\u2581ent</w>": 7975, "fam\u2581ili": 7976, "vis\u2581its</w>": 7977, "di\u2581pl": 7978, "ha\u2581bit": 7979, "milli\u2581ons</w>": 7980, "regar\u2581ding</w>": 7981, "innov\u2581ative</w>": 7982, "sen\u2581ator</w>": 7983, "r\u2581ts</w>": 7984, "v\u2581on</w>": 7985, "k\u2581l": 7986, "wh\u2581il": 7987, "requi\u2581red</w>": 7988, "\u00e2\u013f\u2581\u0126": 7989, "lu\u2581v</w>": 7990, "presi\u2581dential</w>": 7991, "po\u2581cket</w>": 7992, "hun\u2581dre": 7993, "sho\u2581wn</w>": 7994, "fro\u2581zen</w>": 7995, "to\u2581ward</w>": 7996, "fa\u2581st": 7997, "confi\u2581dence</w>": 7998, "r\u2581ough</w>": 7999, "indivi\u2581dual</w>": 8000, "qu\u2581et</w>": 8001, "\u00f0\u0141\u0131\u2581\u00bd": 8002, "dom\u2581e": 8003, "fi\u2581fa</w>": 8004, "engine\u2581er</w>": 8005, "z\u2581en": 8006, "re\u2581mix</w>": 8007, "\u00f0\u0141\u013a\u2581\u0125</w>": 8008, "pl\u2581ant": 8009, "min\u2581or</w>": 8010, "robin\u2581son</w>": 8011, "as\u2581y": 8012, "pul\u2581led</w>": 8013, "cer\u2581tain": 8014, "potat\u2581o</w>": 8015, "(\u2581:</w>": 8016, "pre\u2581s</w>": 8017, "oc\u2581ca": 8018, "w\u2581it</w>": 8019, "it\u2581em</w>": 8020, "si\u2581e": 8021, "d\u2581ating</w>": 8022, "thom\u2581pson</w>": 8023, "own\u2581ed</w>": 8024, "an\u2581u": 8025, "vi\u2581e</w>": 8026, "te\u2581dly</w>": 8027, "good\u2581night</w>": 8028, "ex\u2581cept</w>": 8029, "\u00f0\u0141\u012e\u2581\u0141</w>": 8030, "ira\u2581q</w>": 8031, "ki\u2581e": 8032, "ren\u2581ces</w>": 8033, "li\u2581p</w>": 8034, "simil\u2581ar</w>": 8035, "sau\u2581di</w>": 8036, "vi\u2581g": 8037, "arth\u2581ur</w>": 8038, "pic\u2581ks</w>": 8039, "mil\u2581an</w>": 8040, "hon\u2581da</w>": 8041, "ma\u2581xi": 8042, "o\u2581g</w>": 8043, "ste\u2581st</w>": 8044, "ar\u2581ch</w>": 8045, "analy\u2581tics</w>": 8046, "ba\u2581sti": 8047, "pear\u2581l</w>": 8048, "ter\u2581ry</w>": 8049, "hor\u2581se": 8050, "ast\u2581ro": 8051, "ac\u2581ce": 8052, "laun\u2581ching</w>": 8053, "inter\u2581national": 8054, "s\u2581no": 8055, "ta\u2581sty</w>": 8056, "den\u2581ver</w>": 8057, "ir\u2581l</w>": 8058, "pe\u2581te</w>": 8059, "tor\u2581n": 8060, "advant\u2581age</w>": 8061, "var\u2581sity</w>": 8062, "\"\u2581\"</w>": 8063, "sol\u2581e</w>": 8064, "g\u2581c": 8065, "lan\u2581g</w>": 8066, "demon\u2581str": 8067, "ol\u2581ds</w>": 8068, "un\u2581ity</w>": 8069, "ne\u2581ts</w>": 8070, "insp\u2581ire</w>": 8071, "cre\u2581te</w>": 8072, "nash\u2581ville</w>": 8073, "nel\u2581son</w>": 8074, "e\u2581ter": 8075, "wal\u2581k": 8076, "hy\u2581un</w>": 8077, "m\u2581ack": 8078, "tre\u2581as": 8079, "see\u2581king</w>": 8080, "ra\u2581ge</w>": 8081, "bru\u2581sh</w>": 8082, "ab\u2581and": 8083, "whil\u2581st</w>": 8084, "co\u2581con": 8085, "h\u2581ong</w>": 8086, "shel\u2581ter</w>": 8087, "i\u2581p</w>": 8088, "possi\u2581bly</w>": 8089, "so\u2581o</w>": 8090, "it\u2581ed": 8091, "\u00e2\u2581\u0126": 8092, "rac\u2581es</w>": 8093, "war\u2581ming</w>": 8094, "qu\u2581in": 8095, "tele\u2581vision</w>": 8096, "mat\u2581ches</w>": 8097, "ra\u2581pi": 8098, "ment\u2581al": 8099, "pal\u2581m</w>": 8100, "jenni\u2581fer</w>": 8101, "rol\u2581ls</w>": 8102, "indi\u2581ana</w>": 8103, "b\u2581ars</w>": 8104, "cat\u2581ching</w>": 8105, "resc\u2581u": 8106, "candid\u2581ates</w>": 8107, "fa\u2581re": 8108, "\u00e2\u0142\u2581\u0122</w>": 8109, "se\u2581o</w>": 8110, "vie\u2581tnam</w>": 8111, "alph\u2581a</w>": 8112, "michel\u2581le</w>": 8113, "visi\u2581ble</w>": 8114, "re\u2581gre": 8115, "wn\u2581ed</w>": 8116, "app\u2581le": 8117, "li\u2581p": 8118, "f\u2581fe</w>": 8119, "li\u2581z": 8120, "york\u2581shire</w>": 8121, "ha\u2581il</w>": 8122, "se\u2581asons</w>": 8123, "be\u2581gan</w>": 8124, "m\u2581d": 8125, "k\u2581c</w>": 8126, "la\u2581p</w>": 8127, "fascin\u2581ating</w>": 8128, "hel\u2581p": 8129, "ur\u2581y": 8130, "u\u2581ms</w>": 8131, "nu\u2581ts</w>": 8132, "se\u2581m": 8133, "along\u2581side</w>": 8134, "bri\u2581dge": 8135, "ori\u2581al</w>": 8136, "o\u2581ve": 8137, "world\u2581cup</w>": 8138, "briti\u2581sh": 8139, "comfor\u2581table</w>": 8140, "i\u2581ve</w>": 8141, "hot\u2581els</w>": 8142, "fair\u2581s</w>": 8143, "hor\u2581ri": 8144, "so\u2581x</w>": 8145, "d\u2581ining</w>": 8146, "stre\u2581am": 8147, "bar\u2581ri": 8148, "ss\u2581y</w>": 8149, "w\u2581im": 8150, "ter\u2581ms</w>": 8151, "v\u2581u": 8152, "pe\u2581re": 8153, "l\u2581ens</w>": 8154, "wal\u2581ked</w>": 8155, "r\u2581or": 8156, "l\u2581ars</w>": 8157, "shi\u2581eld</w>": 8158, "dou\u2581bt</w>": 8159, "pro\u2581to": 8160, "cro\u2581ssing</w>": 8161, "me\u2581ant</w>": 8162, "medi\u2581um</w>": 8163, "ad\u2581ding</w>": 8164, "e\u2581b</w>": 8165, "che\u2581ap</w>": 8166, "fun\u2581c": 8167, "pap\u2581er": 8168, "bran\u2581ds</w>": 8169, "ry\u2581an": 8170, "feed\u2581back</w>": 8171, "col\u2581lins</w>": 8172, "un\u2581known</w>": 8173, "tro\u2581pical</w>": 8174, "sand\u2581wich</w>": 8175, "fal\u2581len</w>": 8176, "for\u2581mu": 8177, "selec\u2581t</w>": 8178, "lo\u2581ads</w>": 8179, "answ\u2581ers</w>": 8180, "or\u2581i</w>": 8181, "mag\u2581a</w>": 8182, "d\u2581or</w>": 8183, "du\u2581o</w>": 8184, "ali\u2581e</w>": 8185, "dru\u2581m</w>": 8186, "ur\u2581i</w>": 8187, "de\u2581er</w>": 8188, "sou\u2581l": 8189, "sh\u2581ut": 8190, "\u00e2\u013a\u2581\u00ba</w>": 8191, "sto\u2581len</w>": 8192, "don\u2581ated</w>": 8193, "bu\u2581zz</w>": 8194, "patri\u2581ots</w>": 8195, "ha\u2581l</w>": 8196, "na\u2581sty</w>": 8197, "nomin\u2581ated</w>": 8198, "mon\u2581te": 8199, "ki\u2581a</w>": 8200, "th\u2581ri": 8201, "ing\u2581u": 8202, "te\u2581sts</w>": 8203, "pe\u2581tro": 8204, "\u00f0\u0141\u0133\u2581\u0133</w>": 8205, "ho\u2581sts</w>": 8206, "ne\u2581st</w>": 8207, "to\u2581pic</w>": 8208, "pat\u2581ch</w>": 8209, "m\u2581my</w>": 8210, "hu\u2581gh": 8211, "ab\u2581ilities</w>": 8212, "ma\u2581the": 8213, "s\u2581miles</w>": 8214, "g\u2581b": 8215, "ag\u2581enda</w>": 8216, "insi\u2581ghts</w>": 8217, "chi\u2581p</w>": 8218, "ph\u2581an": 8219, "fail\u2581ure</w>": 8220, "dg\u2581ers</w>": 8221, "ha\u2581i": 8222, "signific\u2581ant</w>": 8223, "sho\u2581ck</w>": 8224, "ru\u2581ral</w>": 8225, "gl\u2581am": 8226, "figu\u2581res</w>": 8227, "pot\u2581us</w>": 8228, "o\u2581ta</w>": 8229, "mini\u2581stry</w>": 8230, "appe\u2581ars</w>": 8231, "fe\u2581ar": 8232, "r\u2581h": 8233, "americ\u2581an": 8234, "h\u2581att": 8235, "son\u2581y</w>": 8236, "fi\u2581res</w>": 8237, "e\u2581di": 8238, "n\u2581ou": 8239, "e\u2581qui": 8240, "wh\u2581en": 8241, "univers\u2581al</w>": 8242, "mad\u2581ness</w>": 8243, "i\u2581x</w>": 8244, "sculp\u2581ture</w>": 8245, "b\u2581ach</w>": 8246, "t\u2581to": 8247, "swe\u2581den</w>": 8248, "et\u2581a</w>": 8249, "en\u2581to</w>": 8250, "develop\u2581ed</w>": 8251, "month\u2581ly</w>": 8252, "ma\u2581ps</w>": 8253, "ra\u2581h</w>": 8254, "le\u2581d": 8255, "del\u2581ta</w>": 8256, "sa\u2581ints</w>": 8257, "is\u2581lam</w>": 8258, "ben\u2581ch</w>": 8259, "fif\u2581th</w>": 8260, "v\u2581ard</w>": 8261, "so\u2581cks</w>": 8262, "wel\u2581coming</w>": 8263, "j\u2581e</w>": 8264, "tur\u2581ner</w>": 8265, "v\u2581b</w>": 8266, "ad\u2581i</w>": 8267, "nor\u2581way</w>": 8268, "ad\u2581y</w>": 8269, "hurric\u2581ane</w>": 8270, "por\u2581sche</w>": 8271, "tra\u2581dition</w>": 8272, "ex\u2581am</w>": 8273, "newsp\u2581aper</w>": 8274, "lu\u2581ci": 8275, "a\u2581ver": 8276, "ide\u2581al</w>": 8277, "d\u2581na</w>": 8278, "madi\u2581son</w>": 8279, "\u00f0\u0141\u2581\u00a7": 8280, "wit\u2581ness</w>": 8281, "ac\u2581ou": 8282, "insi\u2581ght</w>": 8283, "si\u2581mon": 8284, "robo\u2581t</w>": 8285, "sna\u2581ke</w>": 8286, "n\u2581bc</w>": 8287, "ac\u2581o</w>": 8288, "ro\u2581ss": 8289, "sh\u2581ment</w>": 8290, "religi\u2581on</w>": 8291, "ch\u2581ann": 8292, "in\u2581su": 8293, "camp\u2581bell</w>": 8294, "inst\u2581alled</w>": 8295, "we\u2581ather": 8296, "hor\u2581ses</w>": 8297, "ol\u2581i</w>": 8298, "rober\u2581t": 8299, "k\u2581az": 8300, "\u00f0\u0141\u0131\u2581\u0122</w>": 8301, "veter\u2581an</w>": 8302, "th\u2581read</w>": 8303, "quar\u2581ter": 8304, "ea\u2581sier</w>": 8305, "cap\u2581ture</w>": 8306, "hi\u2581pho": 8307, "law\u2581rence</w>": 8308, "roman\u2581tic</w>": 8309, "pas\u2581sion": 8310, "cl\u2581ay</w>": 8311, "ox\u2581ford</w>": 8312, "th\u2581ai</w>": 8313, "stu\u2581dying</w>": 8314, "fi\u2581a</w>": 8315, "elec\u2581ted</w>": 8316, "most\u2581ly</w>": 8317, "c\u2581b</w>": 8318, "tu\u2581mb": 8319, "\u00e2\u0122\u012f\u00e2\u013b\u2581\u0124": 8320, "x\u2581l</w>": 8321, "sh\u2581an</w>": 8322, "fa\u2581ster</w>": 8323, "ev\u2581ans</w>": 8324, "sli\u2581de</w>": 8325, "sh\u2581ri": 8326, "see\u2581k</w>": 8327, "mi\u2581es</w>": 8328, "chemi\u2581stry</w>": 8329, "pump\u2581kin</w>": 8330, "tu\u2581m</w>": 8331, ",\u2581,</w>": 8332, "ro\u2581om": 8333, "fi\u2581red</w>": 8334, "li\u2581ps</w>": 8335, "pres\u2581ence</w>": 8336, "af\u2581f": 8337, "brew\u2581ery</w>": 8338, "arri\u2581ve</w>": 8339, "sw\u2581ag": 8340, "photo\u2581graph</w>": 8341, "pen\u2581gu": 8342, "chi\u2581ps</w>": 8343, "at\u2581tor": 8344, "val\u2581ues</w>": 8345, "accur\u2581ate</w>": 8346, "con\u2581temporary</w>": 8347, "princi\u2581pal</w>": 8348, "cannab\u2581is</w>": 8349, "ari\u2581o</w>": 8350, "any\u2581where</w>": 8351, "gi\u2581a</w>": 8352, "democr\u2581ats</w>": 8353, "buil\u2581dings</w>": 8354, "li\u2581ved</w>": 8355, "ap\u2581s</w>": 8356, "neg\u2581ative</w>": 8357, "m\u2581are</w>": 8358, "bal\u2581lo": 8359, "li\u2581on": 8360, "diam\u2581on": 8361, "loo\u2581k": 8362, "re\u2581form</w>": 8363, "tom\u2581my</w>": 8364, "il\u2581la": 8365, "tre\u2581ats</w>": 8366, "hundre\u2581ds</w>": 8367, "port\u2581land</w>": 8368, "wor\u2581thy</w>": 8369, "ex\u2581cep": 8370, "ar\u2581ia</w>": 8371, "ido\u2581l</w>": 8372, "be\u2581er": 8373, "cd\u2581n": 8374, "y\u2581u</w>": 8375, "aw\u2581k": 8376, "\u00f0\u0141\u0129\u2581\u00a8": 8377, "c\u2581ells</w>": 8378, "\u00c3\u2581\u00b3": 8379, "ident\u2581ity</w>": 8380, "dra\u2581wn</w>": 8381, "de\u2581vil": 8382, "f\u2581inger</w>": 8383, "th\u2581am</w>": 8384, "\u00f0\u0141\u0133\u2581\u012c": 8385, "ear\u2581ned</w>": 8386, "fin\u2581tech</w>": 8387, "dol\u2581ph": 8388, "twee\u2581ting</w>": 8389, "evolu\u2581tion</w>": 8390, "\u00f0\u0141\u0135\u2581\u012f</w>": 8391, "est\u2581im": 8392, "m\u2581vp</w>": 8393, "n\u2581one</w>": 8394, "\u00f0\u0141\u0129\u00ba\u00f0\u0141\u0129\u2581\u00b8": 8395, "toyo\u2581ta</w>": 8396, "au\u2581x</w>": 8397, "mar\u2581in": 8398, "b\u2581old</w>": 8399, "l\u2581bs</w>": 8400, "ste\u2581ak</w>": 8401, "mur\u2581phy</w>": 8402, "it\u2581able</w>": 8403, "lou\u2581is": 8404, "sol\u2581ve</w>": 8405, "pi\u2581a</w>": 8406, "sk\u2581ir": 8407, "ill\u2581ino": 8408, "webin\u2581ar</w>": 8409, "ban\u2581ana</w>": 8410, "lo\u2581v": 8411, "th\u2581on</w>": 8412, "vo\u2581ters</w>": 8413, "afford\u2581able</w>": 8414, "defe\u2581ated</w>": 8415, "lm\u2581fa": 8416, "air\u2581lines</w>": 8417, "super\u2581b</w>": 8418, "any\u2581way</w>": 8419, "deb\u2581t</w>": 8420, "bo\u2581red</w>": 8421, "ver\u2581si": 8422, "me\u2581tal": 8423, "responsi\u2581ble</w>": 8424, "m\u2581k</w>": 8425, "s\u2581se</w>": 8426, "f\u2581ay": 8427, "cau\u2581sed</w>": 8428, "f\u2581p</w>": 8429, "recomm\u2581end</w>": 8430, "pla\u2581za</w>": 8431, "spor\u2581ting</w>": 8432, "alli\u2581ance</w>": 8433, "au\u2581stri": 8434, "n\u2581n": 8435, "t\u2581ours</w>": 8436, "surpri\u2581sed</w>": 8437, "arti\u2581f": 8438, "th\u2581under</w>": 8439, "sur\u2581ve": 8440, "wor\u2581e</w>": 8441, "bri\u2581ef</w>": 8442, "necess\u2581ary</w>": 8443, "z\u2581ie</w>": 8444, "ash\u2581ley</w>": 8445, "dra\u2581ke</w>": 8446, "r\u2581t": 8447, "kni\u2581fe</w>": 8448, "im\u2581mun": 8449, "char\u2581ges</w>": 8450, "a\u2581the": 8451, "bri\u2581de</w>": 8452, "rep\u2581ly</w>": 8453, "g\u2581av": 8454, "broad\u2581cast</w>": 8455, "pu\u2581er": 8456, "brace\u2581let</w>": 8457, "cap\u2581acity</w>": 8458, "harve\u2581st</w>": 8459, "id\u2581k</w>": 8460, "perfor\u2581man": 8461, "d\u2581ding</w>": 8462, "il\u2581ers</w>": 8463, "par\u2581a</w>": 8464, "jam\u2581a": 8465, "pro\u2581vince</w>": 8466, "ch\u2581in</w>": 8467, "id\u2581ers</w>": 8468, "har\u2581i</w>": 8469, "te\u2581aser</w>": 8470, "ch\u2581en</w>": 8471, "re\u2581stor": 8472, "r\u2581at</w>": 8473, "fl\u2581at": 8474, "col\u2581om": 8475, "\u00f0\u0141\u0134\u2581\u0140</w>": 8476, "\u00f0\u0141\u0129\u00a8\u2581\u00f0\u0141\u0129": 8477, "smoo\u2581th</w>": 8478, "r\u2581t</w>": 8479, "p\u2581itch": 8480, "stay\u2581ing</w>": 8481, "isra\u2581eli</w>": 8482, "t\u2581cot</w>": 8483, "per\u2581spective</w>": 8484, "do\u2581ck</w>": 8485, "open\u2581er</w>": 8486, "lo\u2581vel": 8487, "x\u2581o</w>": 8488, "class\u2581room</w>": 8489, "l\u2581ington</w>": 8490, "go\u2581al": 8491, "kenne\u2581dy</w>": 8492, "sh\u2581am</w>": 8493, "sp\u2581aces</w>": 8494, "mitch\u2581ell</w>": 8495, "home\u2581coming</w>": 8496, "uk\u2581i</w>": 8497, "claim\u2581ed</w>": 8498, "recru\u2581it": 8499, "ing\u2581o</w>": 8500, "mu\u2581fc</w>": 8501,
[...]
