{"\"bpe_simple_vocab_16e6.txt#version: 0.2": 0, "i n": 1, "t h": 2, "a n": 3, "r e": 4, "a r": 5, "e r": 6, "th e</w>": 7, "in g</w>": 8, "o u": 9, "o n": 10, "s t": 11, "o r": 12, "e n": 13, "o n</w>": 14, "a l": 15, "a t": 16, "e r</w>": 17, "i t": 18, "i n</w>": 19, "t o</w>": 20, "r o": 21, "i s</w>": 22, "l e": 23, "i c": 24, "a t</w>": 25, "an d</w>": 26, "e d</w>": 27, "o f</w>": 28, "c h": 29, "o r</w>": 30, "e s</w>": 31, "i l": 32, "e l": 33, "s t</w>": 34, "a c": 35, "o m": 36, "a m": 37, "l o": 38, "a n</w>": 39, "a y</w>": 40, "s h": 41, "r i": 42, "l i": 43, "t i": 44, "f or</w>": 45, "n e": 46, "\u00f0 \u0141": 47, "r a": 48, "h a": 49, "d e": 50, "o l": 51, "v e</w>": 52, "s i": 53, "u r": 54, "a l</w>": 55, "s e": 56, "' s</w>": 57, "u n": 58, "d i": 59, "b e": 60, "l a": 61, "w h": 62, "o o": 63, "d ay</w>": 64, "e n</w>": 65, "m a": 66, "n o": 67, "l e</w>": 68, "t o": 69, "ou r</w>": 70, "i r": 71, "g h": 72, "w it": 73, "i t</w>": 74, "y o": 75, "a s": 76, "s p": 77, "th is</w>": 78, "t s</w>": 79, "at i": 80, "yo u</w>": 81, "wit h</w>": 82, "a d": 83, "i s": 84, "a b": 85, "l y</w>": 86, "w e": 87, "th e": 88, "t e": 89, "a s</w>": 90, "a g": 91, "v i": 92, "p p": 93, "s u": 94, "h o": 95, "m y</w>": 96, ". .": 97, "b u": 98, "c om": 99, "s e</w>": 100, "er s</w>": 101, "m e": 102, "m e</w>": 103, "al l</w>": 104, "c on": 105, "m o": 106, "k e</w>": 107, "g e": 108, "ou t</w>": 109, "en t</w>": 110, "c o": 111, "f e": 112, "v er": 113, "a r</w>": 114, "f ro": 115, "a u": 116, "p o": 117, "c e</w>": 118, "gh t</w>": 119, "ar e</w>": 120, "s s</w>": 121, "fro m</w>": 122, "c h</w>": 123, "t r": 124, "ou n": 125, "on e</w>": 126, "b y</w>": 127, "d o": 128, "t h</w>": 129, "w or": 130, "er e</w>": 131, "k e": 132, "p ro": 133, "f or": 134, "d s</w>": 135, "b o": 136, "t a": 137, "w e</w>": 138, "g o": 139, "h e": 140, "t er</w>": 141, "in g": 142, "d e</w>": 143, "b e</w>": 144, "ati on</w>": 145, "m or": 146, "a y": 147, "e x": 148, "il l</w>": 149, "p e": 150, "k s</w>": 151, "s c": 152, "l u": 153, "f u": 154, "q u": 155, "v er</w>": 156, "\u00f0\u0141 \u013a": 157, "j u": 158, "m u": 159, "at e</w>": 160, "an d": 161, "v e": 162, "k ing</w>": 163, "m ar": 164, "o p": 165, "h i": 166, ".. .</w>": 167, "p re": 168, "a d</w>": 169, "r u": 170, "th at</w>": 171, "j o": 172, "o f": 173, "c e": 174, "ne w</w>": 175, "a m</w>": 176, "a p": 177, "g re": 178, "s s": 179, "d u": 180, "no w</w>": 181, "y e": 182, "t ing</w>": 183, "y our</w>": 184, "it y</w>": 185, "n i": 186, "c i": 187, "p ar": 188, "g u": 189, "f i": 190, "a f": 191, "p er": 192, "t er": 193, "u p</w>": 194, "s o</w>": 195, "g i": 196, "on s</w>": 197, "g r": 198, "g e</w>": 199, "b r": 200, "p l": 201, "' t</w>": 202, "m i": 203, "in e</w>": 204, "we e": 205, "b i": 206, "u s</w>": 207, "sh o": 208, "ha ve</w>": 209, "to day</w>": 210, "a v": 211, "m an": 212, "en t": 213, "ac k</w>": 214, "ur e</w>": 215, "ou r": 216, "\u00e2 \u0122": 217, "c u": 218, "l d</w>": 219, "lo o": 220, "i m": 221, "ic e</w>": 222, "s om": 223, "f in": 224, "re d</w>": 225, "re n": 226, "oo d</w>": 227, "w as</w>": 228, "ti on</w>": 229, "p i": 230, "i r</w>": 231, "th er</w>": 232, "t y</w>": 233, "p h": 234, "ar d</w>": 235, "e c": 236, "! !</w>": 237, "m on": 238, "mor e</w>": 239, "w ill</w>": 240, "t ra": 241, "c an</w>": 242, "c ol": 243, "p u": 244, "t e</w>": 245, "w n</w>": 246, "m b": 247, "s o": 248, "it i": 249, "ju st</w>": 250, "n ing</w>": 251, "h ere</w>": 252, "t u": 253, "p a": 254, "p r": 255, "bu t</w>": 256, "wh at</w>": 257, "al ly</w>": 258, "f ir": 259, "m in": 260, "c a": 261, "an t</w>": 262, "s a": 263, "t ed</w>": 264, "e v": 265, "m ent</w>": 266, "f a": 267, "ge t</w>": 268, "am e</w>": 269, "ab out</w>": 270, "g ra": 271, "no t</w>": 272, "ha pp": 273, "ay s</w>": 274, "m an</w>": 275, "h is</w>": 276, "ti me</w>": 277, "li ke</w>": 278, "g h</w>": 279, "ha s</w>": 280, "th an": 281, "lo ve</w>": 282, "ar t</w>": 283, "st e": 284, "d ing</w>": 285, "h e</w>": 286, "c re": 287, "w s</w>": 288, "w at": 289, "d er</w>": 290, "it e</w>": 291, "s er": 292, "ac e</w>": 293, "ag e</w>": 294, "en d</w>": 295, "st r": 296, "a w": 297, "st or": 298, "r e</w>": 299, "c ar": 300, "el l</w>": 301, "al l": 302, "p s</w>": 303, "f ri": 304, "p ho": 305, "p or": 306, "d o</w>": 307, "a k": 308, "w i": 309, "f re": 310, "wh o</w>": 311, "sh i": 312, "b oo": 313, "s on</w>": 314, "el l": 315, "wh en</w>": 316, "il l": 317, "ho w</w>": 318, "gre at</w>": 319, "w in": 320, "e l</w>": 321, "b l": 322, "s si": 323, "al i": 324, "som e</w>": 325, "\u00f0\u0141 \u0134": 326, "t on": 327, "d er": 328, "le s</w>": 329, "p la": 330, "\u00ef \u00b8": 331, "e d": 332, "s ch": 333, "h u": 334, "on g</w>": 335, "d on</w>": 336, "k i": 337, "s h</w>": 338, "an n": 339, "c or": 340, ". .</w>": 341, "oun d</w>": 342, "a z": 343, "in e": 344, "ar y</w>": 345, "fu l</w>": 346, "st u": 347, "ou ld</w>": 348, "st i": 349, "g o</w>": 350, "se e</w>": 351, "ab le</w>": 352, "ar s</w>": 353, "l l</w>": 354, "m is": 355, "b er": 356, "c k</w>": 357, "w a": 358, "en ts</w>": 359, "n o</w>": 360, "si g": 361, "f e</w>": 362, "fir st</w>": 363, "e t</w>": 364, "sp e": 365, "ac k": 366, "i f</w>": 367, "ou s</w>": 368, "' m</w>": 369, "st er</w>": 370, "a pp": 371, "an g": 372, "an ce</w>": 373, "an s</w>": 374, "g ood</w>": 375, "b re": 376, "e ver": 377, "the y</w>": 378, "t ic": 379, "com e</w>": 380, "of f": 381, "b ack</w>": 382, "as e</w>": 383, "ing s</w>": 384, "ol d</w>": 385, "i ght</w>": 386, "f o": 387, "h er</w>": 388, "happ y</w>": 389, "p ic": 390, "it s</w>": 391, "v ing</w>": 392, "u s": 393, "m at": 394, "h om": 395, "d y</w>": 396, "e m": 397, "s k": 398, "y ing</w>": 399, "the ir</w>": 400, "le d</w>": 401, "r y</w>": 402, "u l": 403, "h ar": 404, "c k": 405, "t on</w>": 406, "on al</w>": 407, "h el": 408, "r ic": 409, "b ir": 410, "vi e": 411, "w ay</w>": 412, "t ri": 413, "d a": 414, "p le": 415, "b ro": 416, "st o": 417, "oo l</w>": 418, "ni ght</w>": 419, "tr u": 420, "b a": 421, "re ad": 422, "re s</w>": 423, "ye ar</w>": 424, "f r": 425, "t or": 426, "al s</w>": 427, "c oun": 428, "c la": 429, "t ure</w>": 430, "v el": 431, "at ed</w>": 432, "le c": 433, "en d": 434, "th ing</w>": 435, "v o": 436, "ic i": 437, "be st</w>": 438, "c an": 439, "wor k</w>": 440, "la st</w>": 441, "af ter</w>": 442, "en ce</w>": 443, "p ri": 444, "p e</w>": 445, "e s": 446, "i l</w>": 447, "\u00e2\u0122 \u00a6</w>": 448, "d re": 449, "y s</w>": 450, "o ver</w>": 451, "i es</w>": 452, "\u00f0\u0141 \u0133": 453, "com m": 454, "t w": 455, "in k</w>": 456, "s un": 457, "c l": 458, "li fe</w>": 459, "t t": 460, "a ch": 461, "l and</w>": 462, "s y": 463, "t re": 464, "t al": 465, "p ol": 466, "s m": 467, "du c": 468, "s al": 469, "f t</w>": 470, "' re</w>": 471, "ch e": 472, "w ar": 473, "t ur": 474, "ati ons</w>": 475, "ac h</w>": 476, "m s</w>": 477, "il e</w>": 478, "p m</w>": 479, "ou gh</w>": 480, "at e": 481, "st ar": 482, "wee k</w>": 483, "! !!</w>": 484, "c lu": 485, "th ere</w>": 486, "n er</w>": 487, "t om": 488, "s el": 489, "\u00ef\u00b8 \u0131</w>": 490, "wor ld</w>": 491, "v es</w>": 492, "c am": 493, "go t</w>": 494, "in ter": 495, "of f</w>": 496, "u m</w>": 497, "ton ight</w>": 498, "o ther</w>": 499, "h ou": 500, "loo k</w>": 501, "j e": 502, "i d</w>": 503, "si on</w>": 504, "be au": 505, "at t": 506, "el i": 507, "or t</w>": 508, "re c": 509, "f f": 510, "st er": 511, "su pp": 512, "g en": 513, "be en</w>": 514, "il y</w>": 515, "te am</w>": 516, "m m": 517, "i c</w>": 518, "pe op": 519, "it t": 520, "at s</w>": 521, "on ly</w>": 522, "mb er</w>": 523, "en g": 524, "b ri": 525, "m p": 526, "k now</w>": 527, "b ur": 528, "b ar": 529, "in s</w>": 530, "lo w</w>": 531, "sh e</w>": 532, "ro w</w>": 533, "\u00e2 \u013f": 534, "t ro": 535, "peop le</w>": 536, "vi a</w>": 537, "lo w": 538, "ag a": 539, "be t": 540, "x t</w>": 541, "f ac": 542, "ch ar": 543, "e ar": 544, "w al": 545, "s en": 546, "f am": 547, "b le</w>": 548, "n ati": 549, "is h</w>": 550, "n or": 551, "g ame</w>": 552, "li ve</w>": 553, "s co": 554, "le y</w>": 555, "d on": 556, "ic k</w>": 557, "b all</w>": 558, "ver y</w>": 559, "the se</w>": 560, "p an": 561, "i a</w>": 562, "at ing</w>": 563, "c r": 564, "a re": 565, "g ir": 566, "ma ke</w>": 567, "st re": 568, "sho w</w>": 569, ". \"</w>": 570, "f l": 571, "u p": 572, "d r": 573, "than ks</w>": 574, "il li": 575, "w om": 576, "st s</w>": 577, "i g": 578, "s ur": 579, "ever y": 580, "c ur": 581, "vie w</w>": 582, "le t</w>": 583, "in to</w>": 584, "mo st</w>": 585, "n a": 586, "in di": 587, "g ar": 588, "ha d</w>": 589, "s ou": 590, "v ed</w>": 591, "an t": 592, "iti on</w>": 593, "ma de</w>": 594, "f ol": 595, "un i": 596, "it ed</w>": 597, "\u00f0\u0141 \u0131": 598, "ic al</w>": 599, "th r": 600, "read y</w>": 601, "ch ec": 602, "d ra": 603, "k es</w>": 604, "boo k</w>": 605, "e p</w>": 606, "si c</w>": 607, "mor ning</w>": 608, "ne ws</w>": 609, "c au": 610, "c t</w>": 611, "w ell</w>": 612, "an c": 613, "pho to</w>": 614, "th an</w>": 615, "or s</w>": 616, "bir th": 617, "g g": 618, "ou t": 619, "ne xt</w>": 620, "som e": 621, "en ing</w>": 622, "stor y</w>": 623, "ch ri": 624, "do wn</w>": 625, "hom e</w>": 626, "f fe": 627, "fre e</w>": 628, "d a</w>": 629, "b or": 630, "f il": 631, "ci al</w>": 632, "than k</w>": 633, "si de</w>": 634, "le ar": 635, "qu e": 636, "l ine</w>": 637, "t en": 638, "at es</w>": 639, "ye ars</w>": 640, "m y": 641, "pho to": 642, "beau ti": 643, "ri ght</w>": 644, "n u": 645, "for m": 646, "shi p</w>": 647, "b an": 648, "th er": 649, "d ays</w>": 650, "g am": 651, "as on</w>": 652, "g y</w>": 653, "\u00f0\u0141 \u0130": 654, "birth day</w>": 655, "se t</w>": 656, "ic k": 657, "e t": 658, "st ill</w>": 659, "com ing</w>": 660, "ta ke</w>": 661, "\u00f0\u0141 \u0129": 662, "b b": 663, "s ol": 664, "s on": 665, "d en": 666, "e p": 667, "mu sic</w>": 668, "the m</w>": 669, "de n</w>": 670, "wh y</w>": 671, "f oo": 672, "c ra": 673, "am az": 674, "w n": 675, "h ol": 676, "t ting</w>": 677, "w r": 678, "u e</w>": 679, "ma g": 680, "c ro": 681, "l an": 682, "c lo": 683, "b ra": 684, "a k</w>": 685, "s ing</w>": 686, "c al": 687, "re ad</w>": 688, "' ve</w>": 689, "jo h": 690, "b ab": 691, "d ri": 692, "b lo": 693, "bi g</w>": 694, "er ic": 695, "in t</w>": 696, "t or</w>": 697, "tr y</w>": 698, "l a</w>": 699, "le g": 700, "hou se</w>": 701, "m ic": 702, "v al": 703, "beauti ful</w>": 704, "l itt": 705, "chec k</w>": 706, "ne w": 707, "ver s": 708, "s w": 709, "ar i": 710, "pla y": 711, "h er": 712, "\u00e2\u0122 \u0135</w>": 713, "w in</w>": 714, "m a</w>": 715, "con gr": 716, "sch ool</w>": 717, "f un": 718, ". @</w>": 719, "he al": 720, "ic h</w>": 721, "d el": 722, "wh ere</w>": 723, "l on": 724, "ke t</w>": 725, "tw o</w>": 726, "mu ch</w>": 727, "wat ch</w>": 728, "v en": 729, "d ed</w>": 730, "a st</w>": 731, "k ed</w>": 732, "b as": 733, "go ing</w>": 734, "m p</w>": 735, "e ver</w>": 736, "w ays</w>": 737, "ro o": 738, "de sig": 739, "l y": 740, "s ed</w>": 741, "to p</w>": 742, "l in": 743, "ch an": 744, "to o</w>": 745, "it ing</w>": 746, "d ent</w>": 747, "gh ts</w>": 748, "t y": 749, "sp o": 750, "ne ed</w>": 751, "b lu": 752, "in st": 753, "be ing</w>": 754, "\u00e2\u013f \u00a4": 755, "w el": 756, "l s</w>": 757, "hi m</w>": 758, "m ay</w>": 759, "st ing</w>": 760, "n a</w>": 761, "el y</w>": 762, "litt le</w>": 763, "g a": 764, "n at": 765, "tom or": 766, "m c": 767, "h on": 768, "w ant</w>": 769, "a ir": 770, "pi c</w>": 771, "am eric": 772, "p er</w>": 773, "le ss</w>": 774, "wee k": 775, "ve l</w>": 776, "a h</w>": 777, "c ap": 778, "ch am": 779, "g er": 780, "ti m": 781, "tomor row</w>": 782, "ne ss</w>": 783, "st ate</w>": 784, "h al": 785, "ser v": 786, "z e</w>": 787, "o s</w>": 788, "p at": 789, "v is": 790, "ex c": 791, "s in": 792, "f f</w>": 793, "c ity</w>": 794, "c en": 795, "an y": 796, "b el": 797, "su mm": 798, "t in": 799, "w ould</w>": 800, "loo king</w>": 801, "k o": 802, "ce le": 803, "fam ily</w>": 804, "m er": 805, "po w": 806, "hel p</w>": 807, "bu s": 808, "c o</w>": 809, "c le": 810, "sel f</w>": 811, "en s</w>": 812, "ic s</w>": 813, "th o": 814, "an i": 815, "ch o": 816, "le ad": 817, "b s</w>": 818, "t wee": 819, "th ink</w>": 820, "for e</w>": 821, "ch il": 822, "vi de": 823, "di d</w>": 824, "al e</w>": 825, "ch i": 826, "v il": 827, "en ds</w>": 828, "w ing</w>": 829, "p as": 830, "' ll</w>": 831, "v ol": 832, "s a</w>": 833, "g s</w>": 834, "man y</w>": 835, "j ec": 836, "be fore</w>": 837, "gra ph": 838, "n y</w>": 839, "ur ing</w>": 840, "w il": 841, "d d": 842, "bu il": 843, "f av": 844, "st ed</w>": 845, "tr an": 846, "l ing</w>": 847, "ou d</w>": 848, "d ge</w>": 849, "fi el": 850, "nati onal</w>": 851, "st a": 852, "c er": 853, "w ere</w>": 854, "in a</w>": 855, "se ason</w>": 856, "c ou": 857, "n ed</w>": 858, "amaz ing</w>": 859, "ti ons</w>": 860, "cele br": 861, "n s</w>": 862, "a th": 863, "he ad</w>": 864, "s day</w>": 865, "d ar": 866, "lo c": 867, "v in": 868, "an other</w>": 869, "g oo": 870, "s at": 871, "n y": 872, "jo in</w>": 873, "pre s": 874, "s es</w>": 875, "s ing": 876, "an a</w>": 877, "in ing</w>": 878, ".. ..</w>": 879, "c our": 880, "\u00ef\u00b8 \u0131": 881, "ac t</w>": 882, "cau se</w>": 883, "li ght</w>": 884, "am s</w>": 885, "t a</w>": 886, "b al": 887, "f c</w>": 888, "hi gh</w>": 889, "off ici": 890, "t t</w>": 891, "chri st": 892, "d ic": 893, "d ay": 894, "ra l</w>": 895, "h or": 896, ": )</w>": 897, "vi si": 898, "n am": 899, "o b": 900, "ma s</w>": 901, "gh t": 902, "re ally</w>": 903, "t un": 904, "fin d</w>": 905, "thr ough</w>": 906, "por t</w>": 907, "u t": 908, "ti ve</w>": 909, "st y": 910, "n e</w>": 911, "or e</w>": 912, "\u00f0\u0141\u013a \u0124": 913, "supp ort</w>": 914, "ne ver</w>": 915, "ev en</w>": 916, "\u00f0\u0141 \u0136": 917, "h a</w>": 918, "y a</w>": 919, "l d": 920, "u k</w>": 921, "r an": 922, "j am": 923, "wi th": 924, "me di": 925, "d es</w>": 926, "ne y</w>": 927, "ch ing</w>": 928, "al e": 929, "h y": 930, "k in": 931, "! !": 932, "d y": 933, "pl ace</w>": 934, "al so</w>": 935, "b le": 936, "wh ich</w>": 937, "bl ack</w>": 938, "b li": 939, "s ay</w>": 940, "par k</w>": 941, "pl ay</w>": 942, "ir e</w>": 943, "vide o</w>": 944, "week end</w>": 945, "a il": 946, "ke y</w>": 947, "p t</w>": 948, "w ard</w>": 949, "fri day</w>": 950, "d in": 951, "ine ss</w>": 952, "g ro": 953, "b en": 954, "al ways</w>": 955, "t ball</w>": 956, "ag o</w>": 957, "m il": 958, "c y": 959, "pro duc": 960, "di sc": 961, "un der": 962, "ple ase</w>": 963, "sp or": 964, "fu ll</w>": 965, "e y</w>": 966, "\u00f0\u0141 \u013b": 967, "is e</w>": 968, "iti es</w>": 969, "c at": 970, "k no": 971, "u se</w>": 972, "fo re": 973, "k er</w>": 974, "ar t": 975, "hi gh": 976, "op en</w>": 977, "s an": 978, "e f": 979, "our s</w>": 980, "sh ed</w>": 981, "st ri": 982, "d ro": 983, "aga in</w>": 984, "i m</w>": 985, "\u00f0\u0141 \u0135": 986, "en jo": 987, "fu n</w>": 988, "ge tting</w>": 989, "p en": 990, "g er</w>": 991, "c li": 992, "an y</w>": 993, "ever y</w>": 994, "e u": 995, "wom en</w>": 996, "\u00e2 \u013e": 997, "e st</w>": 998, "c ould</w>": 999, "r y": 1000, "\" @</w>": 1001, "th ou": 1002, "sh a": 1003, "comm un": 1004, "b er</w>": 1005, "d ents</w>": 1006, "di s": 1007, "wh ile</w>": 1008, "aw ay</w>": 1009, "di o</w>": 1010, "h am": 1011, "g la": 1012, "d ate</w>": 1013, "k a</w>": 1014, "mis s</w>": 1015, "un ch</w>": 1016, "w on": 1017, "in f": 1018, "roo m</w>": 1019, "g a</w>": 1020, "re al</w>": 1021, "ex per": 1022, "di rec": 1023, "sh ould</w>": 1024, "sp r": 1025, "g ol": 1026, "l ong</w>": 1027, "bet ter</w>": 1028, "or i": 1029, "e y": 1030, "i ence</w>": 1031, "il s</w>": 1032, "z z": 1033, "h an": 1034, "f ound</w>": 1035, "v s</w>": 1036, "\u00e2 \u013b": 1037, "po st</w>": 1038, "ti c</w>": 1039, "par t</w>": 1040, "m en": 1041, "ren ce</w>": 1042, "ce ss</w>": 1043, "v ic": 1044, "s il": 1045, "sho p</w>": 1046, "\u00f0\u0141\u013a \u0124</w>": 1047, "f ood</w>": 1048, "v al</w>": 1049, "sti c</w>": 1050, "y ou": 1051, "s ays</w>": 1052, "e lec": 1053, "st ar</w>": 1054, "o c": 1055, "l and": 1056, "i d": 1057, "c tion</w>": 1058, "fiel d</w>": 1059, "s of": 1060, "st art</w>": 1061, "wat er</w>": 1062, "fri ends</w>": 1063, "on es</w>": 1064, "\u00f0\u0141 \u012e": 1065, "f la": 1066, "f ar": 1067, "wh ite</w>": 1068, "par ty</w>": 1069, "in st</w>": 1070, "gr ou": 1071, "t v</w>": 1072, "every one</w>": 1073, "m ent": 1074, "j a": 1075, "ch a": 1076, "pr in": 1077, "an ts</w>": 1078, "d uring</w>": 1079, "l at": 1080, "l ar": 1081, "we st</w>": 1082, "th en</w>": 1083, "k a": 1084, "y oun": 1085, "in sp": 1086, "in te": 1087, "we en</w>": 1088, "visi t</w>": 1089, "aga inst</w>": 1090, "re le": 1091, "he ad": 1092, "c es</w>": 1093, "to wn</w>": 1094, "loo ks</w>": 1095, "th re": 1096, "re gi": 1097, "ren t</w>": 1098, "pro jec": 1099, "gir l</w>": 1100, "se ar": 1101, "w o": 1102, "m om": 1103, "c ar</w>": 1104, "h un": 1105, "pu bli": 1106, "d i</w>": 1107, "p le</w>": 1108, "c all</w>": 1109, "c ri": 1110, "u m": 1111, "for d</w>": 1112, "per fe": 1113, "fri end</w>": 1114, "h ard</w>": 1115, "ssi on</w>": 1116, "te st</w>": 1117, "pla ying</w>": 1118, "ar ound</w>": 1119, "be cause</w>": 1120, "ke ts</w>": 1121, "me et</w>": 1122, "sat ur": 1123, "ar ti": 1124, "wor k": 1125, "j un": 1126, "v en</w>": 1127, "r un": 1128, "me mber</w>": 1129, "por t": 1130, "su per": 1131, "t wit": 1132, "s am": 1133, "el s</w>": 1134, "t ly</w>": 1135, "ad v": 1136, "ati ve</w>": 1137, "at h</w>": 1138, "s ure</w>": 1139, "av ail": 1140, "la r</w>": 1141, "s qu": 1142, "ar ds</w>": 1143, "ev ent</w>": 1144, "m en</w>": 1145, "l l": 1146, "o ver": 1147, "lo gy</w>": 1148, "it al</w>": 1149, "tim es</w>": 1150, "m al": 1151, "b ack": 1152, "c oo": 1153, "ma king</w>": 1154, "st ru": 1155, "\u00e2 \u0123": 1156, "it u": 1157, "sh ar": 1158, "g an</w>": 1159, "c as": 1160, "s n": 1161, "summ er</w>": 1162, "pic ture</w>": 1163, "f an": 1164, "h in": 1165, "christ mas</w>": 1166, "c y</w>": 1167, "pr oud</w>": 1168, "cham pi": 1169, "desig n</w>": 1170, "pp ing</w>": 1171, "ho pe</w>": 1172, "c a</w>": 1173, "avail able</w>": 1174, "ma y": 1175, "we d": 1176, "photo graph": 1177, "spe cial</w>": 1178, "sal e</w>": 1179, "sto p</w>": 1180, "er y</w>": 1181, "a we": 1182, "al ity</w>": 1183, "hi story</w>": 1184, "am a</w>": 1185, "pre si": 1186, "b ru": 1187, "wor king</w>": 1188, "d one</w>": 1189, "d r</w>": 1190, "k en</w>": 1191, "fe at": 1192, "w ood</w>": 1193, "ate st</w>": 1194, "sun day</w>": 1195, "mo vi": 1196, "vel y</w>": 1197, "s le": 1198, "f ace</w>": 1199, "sp ec": 1200, "stu dents</w>": 1201, "b y": 1202, "ha m</w>": 1203, "sp on": 1204, "bus iness</w>": 1205, "d at": 1206, "i e</w>": 1207, "i p": 1208, "so ci": 1209, "g lo": 1210, "h and": 1211, "re cor": 1212, "r s</w>": 1213, "me e": 1214, "ke ep</w>": 1215, "p ur": 1216, "heal th</w>": 1217, "sh e": 1218, "com ple": 1219, "go d</w>": 1220, "da vi": 1221, "col lec": 1222, "li st": 1223, "r a</w>": 1224, "clu b</w>": 1225, "t ers</w>": 1226, "in clu": 1227, "th ings</w>": 1228, "pl an": 1229, "\u00e2 \u013a": 1230, "joh n</w>": 1231, "sh ing</w>": 1232, "at ul": 1233, "so on</w>": 1234, "blu e</w>": 1235, "g or": 1236, "satur day</w>": 1237, "w on</w>": 1238, "congr atul": 1239, "se e": 1240, "\u00e2\u013f\u00a4 \u00ef\u00b8\u0131</w>": 1241, "tho se</w>": 1242, "\u00f0\u0141\u013a \u012f</w>": 1243, "fin al</w>": 1244, "d ou": 1245, "it h</w>": 1246, "o wn</w>": 1247, "ro ad</w>": 1248, "t our</w>": 1249, "a st": 1250, "indi a</w>": 1251, "ti l</w>": 1252, "n d</w>": 1253, "f er": 1254, "fav or": 1255, "su l": 1256, "lear n</w>": 1257, "fir e</w>": 1258, "ju st": 1259, "grou p</w>": 1260, "a h": 1261, "r ac": 1262, "bo dy</w>": 1263, "u r</w>": 1264, "c are</w>": 1265, "\u00e0 \u00b8": 1266, "p lo": 1267, "o h</w>": 1268, "po s": 1269, "gi ve</w>": 1270, "te ch": 1271, "su b": 1272, "c ent": 1273, "er ing</w>": 1274, "y m": 1275, "il ity</w>": 1276, "f ic": 1277, "lon don</w>": 1278, "v ir": 1279, "gu ys</w>": 1280, "b a</w>": 1281, "\u00f0\u0141 \u00a4": 1282, "bab y</w>": 1283, "sc re": 1284, "\u00f0\u0141\u013a \u012f": 1285, "tru mp</w>": 1286, "un der</w>": 1287, "chan ge</w>": 1288, "i an</w>": 1289, "col le": 1290, "ss es</w>": 1291, "l er</w>": 1292, "ss ed</w>": 1293, "n ice</w>": 1294, "ann oun": 1295, "pow er</w>": 1296, "s ar": 1297, "a king</w>": 1298, "min i": 1299, "s li": 1300, "s wee": 1301, "k ar": 1302, "fu l": 1303, "c ru": 1304, "ac tion</w>": 1305, "a ther</w>": 1306, ") .</w>": 1307, "st and": 1308, "de vel": 1309, "a a": 1310, "g an": 1311, "le ft</w>": 1312, "lo l</w>": 1313, "re l": 1314, "tran s": 1315, "m ents</w>": 1316, "in t": 1317, "e f</w>": 1318, "man ag": 1319, "di g": 1320, "gen er": 1321, "do wn": 1322, "p au": 1323, "ti v": 1324, "k u": 1325, "th ur": 1326, "k en": 1327, "st on</w>": 1328, "f ans</w>": 1329, "tal k</w>": 1330, "twee t</w>": 1331, "t oo": 1332, "sty le</w>": 1333, "pro te": 1334, "se con": 1335, "fr on": 1336, "awe some</w>": 1337, "g l": 1338, "p al": 1339, "ne t": 1340, "s or": 1341, "la u": 1342, "g on": 1343, "sin ce</w>": 1344, "t ty</w>": 1345, "ser ies</w>": 1346, "me mor": 1347, "b eli": 1348, "fil m</w>": 1349, "di d": 1350, "di es</w>": 1351, "o t": 1352, "congratul ations</w>": 1353, "p ra": 1354, "e ve</w>": 1355, "w oo": 1356, "offici al</w>": 1357, "su c": 1358, "in cre": 1359, "b on": 1360, "par t": 1361, "pp ed</w>": 1362, "cla ss</w>": 1363, "si ve</w>": 1364, "bo y</w>": 1365, "cu l": 1366, "perfe ct</w>": 1367, "t ou": 1368, "d am": 1369, "wel come</w>": 1370, "foo tball</w>": 1371, "h i</w>": 1372, "p ap": 1373, "wa it</w>": 1374, "ad a</w>": 1375, "congr ats</w>": 1376, "youn g</w>": 1377, "exc ited</w>": 1378, "re ce": 1379, "j an": 1380, "v a</w>": 1381, "re d": 1382, "st ra": 1383, "medi a</w>": 1384, "' d</w>": 1385, "do es</w>": 1386, "le t": 1387, "mu l": 1388, "ill s</w>": 1389, "gre en</w>": 1390, "m el": 1391, "to ge": 1392, "fu ture</w>": 1393, "ye ster": 1394, "vers ity</w>": 1395, "for m</w>": 1396, "ta in</w>": 1397, "i de": 1398, "ch es</w>": 1399, "ki ds</w>": 1400, "qu i": 1401, "ha ha": 1402, "de ta": 1403, "bi g": 1404, "favor ite</w>": 1405, "gir ls</w>": 1406, "con tin": 1407, "do m</w>": 1408, "sear ch</w>": 1409, "u al</w>": 1410, "a ir</w>": 1411, "d ers</w>": 1412, "mon th</w>": 1413, "c er</w>": 1414, "yester day</w>": 1415, "commun ity</w>": 1416, "ad e</w>": 1417, "do g</w>": 1418, "vil le</w>": 1419, "ic es</w>": 1420, "d eli": 1421, "sy ste": 1422, "ru n</w>": 1423, "is m</w>": 1424, "he art</w>": 1425, "c up</w>": 1426, "en ti": 1427, "fe w</w>": 1428, "presi dent</w>": 1429, "e ds</w>": 1430, "un til</w>": 1431, "fe sti": 1432, "o k": 1433, "f lo": 1434, "sa id</w>": 1435, "ol e</w>": 1436, "me d": 1437, "tra vel</w>": 1438, "\u00c2 \u00a3</w>": 1439, "ph one</w>": 1440, "toge ther</w>": 1441, "fa st</w>": 1442, "lo t</w>": 1443, "gam es</w>": 1444, "sh ir": 1445, "bet ween</w>": 1446, "y es</w>": 1447, "th ers</w>": 1448, "do ing</w>": 1449, "m ac": 1450, "at or</w>": 1451, "b and</w>": 1452, "fol low": 1453, "projec t</w>": 1454, "devel op": 1455, "di ffe": 1456, "con fe": 1457, "spe ci": 1458, "ca st</w>": 1459, "y s": 1460, "bo ard</w>": 1461, "r d</w>": 1462, "i al</w>": 1463, "sh oo": 1464, "r am": 1465, "ha ving</w>": 1466, "sh are</w>": 1467, "fol low</w>": 1468, "on e": 1469, "n ame</w>": 1470, "m r</w>": 1471, "pu t</w>": 1472, "disc u": 1473, "or y</w>": 1474, "c ame</w>": 1475, "ou s": 1476, "s ite</w>": 1477, "twit ter</w>": 1478, "t b": 1479, "t it": 1480, "fin ally</w>": 1481, "z ed</w>": 1482, "su per</w>": 1483, "com pan": 1484, "us ing</w>": 1485, "all s</w>": 1486, "li st</w>": 1487, "r is</w>": 1488, "sho t</w>": 1489, "g al": 1490, "t ar": 1491, "de l</w>": 1492, "joh n": 1493, "\u00e2\u0122 \u0136</w>": 1494, "some thing</w>": 1495, "ra m</w>": 1496, "inte re": 1497, "wh e": 1498, "b it</w>": 1499, "\u00f0\u0141 \u012f": 1500, "stre et</w>": 1501, "oun d": 1502, "a i": 1503, "tic kets</w>": 1504, "movi e</w>": 1505, "re al": 1506, "k y": 1507, "ta king</w>": 1508, "o pp": 1509, "c c</w>": 1510, "l am": 1511, "m oun": 1512, "in ve": 1513, "bl ack": 1514, "us ed</w>": 1515, "on line</w>": 1516, "y or": 1517, "loc al</w>": 1518, "gu e": 1519, "c ks</w>": 1520, "o w": 1521, "ge st</w>": 1522, "bo ys</w>": 1523, "illi on</w>": 1524, "con t": 1525, "re ci": 1526, "in ed</w>": 1527, "eu ro": 1528, "no w": 1529, "se en</w>": 1530, "p h</w>": 1531, "te ach": 1532, "de f": 1533, "sou th</w>": 1534, "su ch</w>": 1535, "aw ard</w>": 1536, "mu st</w>": 1537, "is su": 1538, "ca re": 1539, "fe el</w>": 1540, "p lu": 1541, "l atest</w>": 1542, "spor ts</w>": 1543, "we b": 1544, "te x": 1545, "e ment</w>": 1546, "s k</w>": 1547, "fi c</w>": 1548, "w an": 1549, "te ch</w>": 1550, "o t</w>": 1551, "bo x</w>": 1552, "n er": 1553, "fre e": 1554, "t al</w>": 1555, "a sh": 1556, "c ase</w>": 1557, "ho t</w>": 1558, "won der": 1559, "mee ting</w>": 1560, "er a</w>": 1561, "ch all": 1562, "\u00f0\u0141 \u0132": 1563, "jo b</w>": 1564, "il i": 1565, "c ool</w>": 1566, "j our": 1567, "th s</w>": 1568, "m o</w>": 1569, "f el": 1570, "di e</w>": 1571, "mic ha": 1572, "e le": 1573, "te am": 1574, "serv ice</w>": 1575, "st and</w>": 1576, "ma kes</w>": 1577, "p ing</w>": 1578, "ear ly</w>": 1579, "com es</w>": 1580, "e k</w>": 1581, "ho li": 1582, "v ers</w>": 1583, "ag ue</w>": 1584, "s au": 1585, "thre e</w>": 1586, "mon day</w>": 1587, "fa shi": 1588, "some one</w>": 1589, "th ro": 1590, "se a</w>": 1591, "b ad</w>": 1592, "supp or": 1593, "tur n</w>": 1594, "ur y</w>": 1595, "m ing</w>": 1596, "photograph y</w>": 1597, "n ic": 1598, "mar k</w>": 1599, "pre tty</w>": 1600, "ss ing</w>": 1601, "wat ching</w>": 1602, "me mb": 1603, "ar ri": 1604, "coun ty</w>": 1605, "be ach</w>": 1606, "fr an": 1607, "cen ter</w>": 1608, "pol ice</w>": 1609, "b at": 1610, "publi c</w>": 1611, "t an": 1612, "pre ss</w>": 1613, "s af": 1614, "s y</w>": 1615, "ge ts</w>": 1616, "ro y": 1617, "n ers</w>": 1618, "y our": 1619, "bu y</w>": 1620, "st ers</w>": 1621, "sho w": 1622, "as ed</w>": 1623, "chil dre": 1624, "af ric": 1625, "in es</w>": 1626, "sp ace</w>": 1627, "sc ri": 1628, "h all</w>": 1629, "pa in": 1630, "ar ing</w>": 1631, "hom e": 1632, "m ur": 1633, "heal th": 1634, "ch ed</w>": 1635, "s and": 1636, "rece i": 1637, "gu y</w>": 1638, "e a": 1639, "americ an</w>": 1640, "re si": 1641, "childre n</w>": 1642, "- -": 1643, "i ri": 1644, "ing ton</w>": 1645, "coun try</w>": 1646, "ro ss</w>": 1647, "le n</w>": 1648, "ann a</w>": 1649, "boo ks</w>": 1650, "b c</w>": 1651, "e ce</w>": 1652, "d om": 1653, "lo vely</w>": 1654, "k h": 1655, "pe t": 1656, "g y": 1657, "g ri": 1658, "st age</w>": 1659, "off ice</w>": 1660, "ro ck</w>": 1661, "m on</w>": 1662, "b ay</w>": 1663, "t able</w>": 1664, "su n</w>": 1665, "m ed</w>": 1666, "th in": 1667, "l or": 1668, "f low": 1669, "( @</w>": 1670, "uni versity</w>": 1671, "stor e</w>": 1672, "fron t</w>": 1673, "goo d": 1674, "z a</w>": 1675, "vo te</w>": 1676, "nor th</w>": 1677, "he y</w>": 1678, "an im": 1679, "or der</w>": 1680, "mi d": 1681, "with out</w>": 1682, "a de": 1683, "re member</w>": 1684, "mar ket</w>": 1685, "? ?</w>": 1686, "mu s": 1687, "tra ining</w>": 1688, "e duc": 1689, "bu t": 1690, "co ver</w>": 1691, "st an": 1692, "sc en": 1693, "b la": 1694, "bre ak": 1695, "l ou": 1696, "s ame</w>": 1697, "g old</w>": 1698, "a in</w>": 1699, "o s": 1700, "bo th</w>": 1701, "l it": 1702, "ver n": 1703, "a i</w>": 1704, "al bu": 1705, "p a</w>": 1706, "enjo y</w>": 1707, "be g": 1708, "ell ing</w>": 1709, "thur sday</w>": 1710, "inf o</w>": 1711, "s an</w>": 1712, "americ a</w>": 1713, "ha ir</w>": 1714, "te l</w>": 1715, "mar ch</w>": 1716, "con cer": 1717, "colle ge</w>": 1718, "confe rence</w>": 1719, "ap p</w>": 1720, "h our</w>": 1721, "ch ang": 1722, "\u00e2 \u013c": 1723, "s our": 1724, "ol s</w>": 1725, "we ather</w>": 1726, "w ar</w>": 1727, "p hi": 1728, "festi val</w>": 1729, "secon d</w>": 1730, "cu te</w>": 1731, "pr ac": 1732, "en er": 1733, "str y</w>": 1734, "le a": 1735, "pol it": 1736, "s av": 1737, "se n</w>": 1738, "o w</w>": 1739, "m i</w>": 1740, "ne ar</w>": 1741, "ou ght</w>": 1742, "z e": 1743, "co ffe": 1744, "w illi": 1745, "d an": 1746, "se y</w>": 1747, "davi d</w>": 1748, "e se</w>": 1749, "f an</w>": 1750, "de ci": 1751, "the at": 1752, "no v": 1753, "ati on": 1754, "tr ac": 1755, "sc i": 1756, "re view</w>": 1757, "c el": 1758, "e m</w>": 1759, "u n</w>": 1760, "ju ly</w>": 1761, "or ig": 1762, "ti on": 1763, "d ru": 1764, "form er</w>": 1765, "st ay</w>": 1766, "af ter": 1767, "in v": 1768, "too k</w>": 1769, "dat a</w>": 1770, "b al</w>": 1771, "tu es": 1772, "d an</w>": 1773, "ev ening</w>": 1774, "\u00f0\u0141\u013a\u0124 \u00f0\u0141\u013a\u0124": 1775, "d ol": 1776, "u res</w>": 1777, "pro vi": 1778, "t s": 1779, "e st": 1780, "sig n</w>": 1781, "j ac": 1782, "u k": 1783, "s ong</w>": 1784, "ye t</w>": 1785, "bo w": 1786, "in du": 1787, "j ap": 1788, "h oo": 1789, "po int</w>": 1790, "any one</w>": 1791, "z y</w>": 1792, "i st</w>": 1793, "h ur": 1794, "it al": 1795, "buil ding</w>": 1796, "wom an</w>": 1797, "ch ur": 1798, "j er": 1799, "per for": 1800, "co ach</w>": 1801, "le ague</w>": 1802, "ce ss": 1803, "ne t</w>": 1804, "i mag": 1805, "nati on": 1806, "br it": 1807, "qu e</w>": 1808, "aw ards</w>": 1809, "ag es</w>": 1810, "wor ks</w>": 1811, "c ed</w>": 1812, "man ce</w>": 1813, "l ate</w>": 1814, "ig n</w>": 1815, "mon ey</w>": 1816, "tru e</w>": 1817, "i i</w>": 1818, "t ell</w>": 1819, "pl ac": 1820, "p ac": 1821, "as y</w>": 1822, "wor ld": 1823, "be hin": 1824, "im port": 1825, "read ing</w>": 1826, "gra m</w>": 1827, "gi ving</w>": 1828, "me t</w>": 1829, "h it</w>": 1830, "for ward</w>": 1831, "st om": 1832, "pres ent": 1833, "jun e</w>": 1834, "so cial</w>": 1835, "no on</w>": 1836, "mar t": 1837, "hal f</w>": 1838, "s we": 1839, "go vern": 1840, "k er": 1841, "deta ils</w>": 1842, "li sh</w>": 1843, "_ _": 1844, "ac y</w>": 1845, "si a</w>": 1846, "ber t</w>": 1847, "f all</w>": 1848, "! !!!</w>": 1849, ") ,</w>": 1850, "th i": 1851, "d iti": 1852, "sp ort</w>": 1853, "k ing": 1854, "f it": 1855, "st af": 1856, "c at</w>": 1857, "mu se": 1858, "cen tr": 1859, "y er</w>": 1860, "con tro": 1861, "b loo": 1862, "wal k</w>": 1863, "ac tu": 1864, "did n</w>": 1865, "li m": 1866, "lear ning</w>": 1867, "re search</w>": 1868, "wed ne": 1869, "au th": 1870, "h ours</w>": 1871, "k y</w>": 1872, "f ar</w>": 1873, "h en": 1874, ".. ..": 1875, "it ch": 1876, "ri l</w>": 1877, "str ong</w>": 1878, "sk y</w>": 1879, "que sti": 1880, "jam es</w>": 1881, "r on": 1882, "d g": 1883, "f ur": 1884, "c in": 1885, "do es": 1886, "app ro": 1887, "mar ke": 1888, "tu res</w>": 1889, "ful ly</w>": 1890, "ch at</w>": 1891, "behin d</w>": 1892, "te m": 1893, "fin i": 1894, "mis sion</w>": 1895, "b att": 1896, "fe el": 1897, "he av": 1898, "every thing</w>": 1899, "b ar</w>": 1900, "w ish</w>": 1901, "pre mi": 1902, "i ma": 1903, "exper ience</w>": 1904, "e ach</w>": 1905, "re port</w>": 1906, "swee t</w>": 1907, "tic s</w>": 1908, "spr ing</w>": 1909, "re spon": 1910, "syste m</w>": 1911, "vic tor": 1912, "l in</w>": 1913, "sa w</w>": 1914, "al ready</w>": 1915, "gh ter</w>": 1916, "f le": 1917, "\u00e3 \u0125": 1918, "br ing</w>": 1919, "albu m</w>": 1920, "- -</w>": 1921, "ell s</w>": 1922, "st an</w>": 1923, "to m</w>": 1924, "inter national</w>": 1925, "w ent</w>": 1926, "an ni": 1927, "mat ch</w>": 1928, "pp er</w>": 1929, "st one</w>": 1930, "sm all</w>": 1931, "ra in</w>": 1932, "fashi on</w>": 1933, "are a</w>": 1934, "v an": 1935, "ag ram</w>": 1936, "k o</w>": 1937, "thou ght</w>": 1938, "wor th</w>": 1939, "v an</w>": 1940, "m er</w>": 1941, "coffe e</w>": 1942, "it es</w>": 1943, "g n": 1944, "arti st</w>": 1945, "c on</w>": 1946, "ar ch": 1947, "c ir": 1948, "se cre": 1949, "gr ound</w>": 1950, "is o": 1951, "h and</w>": 1952, "co m</w>": 1953, "bri dge</w>": 1954, "h s</w>": 1955, "x i": 1956, "l ink</w>": 1957, "pu l": 1958, "sp l": 1959, "r ace</w>": 1960, "f li": 1961, "ri ver</w>": 1962, "g as</w>": 1963, "di sco": 1964, "d al": 1965, "play er</w>": 1966, "f it</w>": 1967, "photo s</w>": 1968, "it y": 1969, "o k</w>": 1970, "j or": 1971, "tr a</w>": 1972, "ap ril</w>": 1973, "ad s</w>": 1974, "a di": 1975, "sol u": 1976, "beau ty</w>": 1977, "do or</w>": 1978, "me ss": 1979, "up date</w>": 1980, "ali a</w>": 1981, "sch o": 1982, "en ed</w>": 1983, "mom ent</w>": 1984, "sco t": 1985, "sc ience</w>": 1986, "i or</w>": 1987, "ti es</w>": 1988, "ac ross</w>": 1989, "ous ly</w>": 1990, "sh es</w>": 1991, "does n</w>": 1992, "p age</w>": 1993, "wat er": 1994, "m illion</w>": 1995, "cla ssi": 1996, "l ic": 1997, "ca st": 1998, "form ation</w>": 1999, "micha el</w>": 2000, "ell o</w>": 2001, "s mo": 2002, "in ts</w>": 2003, "vi sion</w>": 2004, "op ening</w>": 2005, "ld n</w>": 2006, "au str": 2007, "tues day</w>": 2008, "win ner</w>": 2009, "po ssi": 2010, "r ound</w>": 2011, "shir t</w>": 2012, "di t</w>": 2013, "b o</w>": 2014, "u es</w>": 2015, "il led</w>": 2016, "al ong</w>": 2017, "tri p</w>": 2018, "star ting</w>": 2019, "im pro": 2020, "k an": 2021, "per son</w>": 2022, "no t": 2023, "re co": 2024, "ne eds</w>": 2025, "c le</w>": 2026, "li e</w>": 2027, "re st</w>": 2028, "r ing</w>": 2029, "win ter</w>": 2030, "si mp": 2031, "mo m</w>": 2032, "be er</w>": 2033, "fac e": 2034, "tor s</w>": 2035, "us a</w>": 2036, "collec tion</w>": 2037, "ge or": 2038, "se ssion</w>": 2039, "tr ying</w>": 2040, "la s</w>": 2041, "la ke</w>": 2042, "j en": 2043, "orig in": 2044, "stu dent</w>": 2045, "se cur": 2046, "v in</w>": 2047, "pic s</w>": 2048, "ex pe": 2049, "com p": 2050, "gon na</w>": 2051, "e qu": 2052, "b ad": 2053, "le y": 2054, "a u</w>": 2055, "memb ers</w>": 2056, "bre ak</w>": 2057, "w all</w>": 2058, "gi c</w>": 2059, "din ner</w>": 2060, "bu l": 2061, "insp ir": 2062, "r i</w>": 2063, "min d</w>": 2064, "ic a</w>": 2065, "win ning</w>": 2066, "tal king</w>": 2067, "t ren": 2068, "s is</w>": 2069, "t en</w>": 2070, "wonder ful</w>": 2071, "s now</w>": 2072, "he ar</w>": 2073, "th om": 2074, "no thing</w>": 2075, "gu i": 2076, "st in": 2077, "blo g</w>": 2078, "fe st</w>": 2079, "b un": 2080, "le e</w>": 2081, "war ds</w>": 2082, "ch ance</w>": 2083, "dre ss</w>": 2084, "re n</w>": 2085, "pau l</w>": 2086, "p es</w>": 2087, "tech no": 2088, "ru ssi": 2089, "c ard</w>": 2090, "e ast</w>": 2091, "mar i": 2092, "w ine</w>": 2093, "t i</w>": 2094, "la w</w>": 2095, "str ic": 2096, "k i</w>": 2097, "ap e</w>": 2098, "au gu": 2099, "pro fe": 2100, "as h</w>": 2101, "cour se</w>": 2102, "ma il</w>": 2103, "ren tly</w>": 2104, "d un": 2105, "m un": 2106, "lo ve": 2107, "is land</w>": 2108, "dri ve</w>": 2109, "s l": 2110, "end ed</w>": 2111, "ma in</w>": 2112, "lo st</w>": 2113, "nat ure</w>": 2114, "\u00e2\u013f\u00a4 \u00ef\u00b8\u0131": 2115, "ch ic": 2116, "re por": 2117, "p in": 2118, "pr o</w>": 2119, "st ation</w>": 2120, "ce p": 2121, "ta kes</w>": 2122, "compan y</w>": 2123, "go es</w>": 2124, "on d</w>": 2125, "ma ch": 2126, "ra dio</w>": 2127, "d ad</w>": 2128, "ro ck": 2129, "j a</w>": 2130, "p ay": 2131, "champi on": 2132, "e e": 2133, "in de": 2134, "tt a</w>": 2135, "ati c</w>": 2136, "t ab": 2137, "beli eve</w>": 2138, "ener gy</w>": 2139, "z i": 2140, "t at": 2141, "wor d</w>": 2142, "on ce</w>": 2143, "re sul": 2144, "y l": 2145, "and re": 2146, "an o</w>": 2147, "inst agram</w>": 2148, "clo se</w>": 2149, "t am": 2150, "cu stom": 2151, "w a</w>": 2152, "con om": 2153, "sho ws</w>": 2154, "li fe": 2155, "k in</w>": 2156, "ro b": 2157, "t age</w>": 2158, "n ation</w>": 2159, "al most</w>": 2160, "list en</w>": 2161, "sa ve</w>": 2162, "re li": 2163, "ac e": 2164, "mar y</w>": 2165, "tre e</w>": 2166, "for get</w>": 2167, "j ack": 2168, "wa iting</w>": 2169, "direc tor</w>": 2170, "h ill</w>": 2171, "bor n</w>": 2172, "te mp": 2173, "f l</w>": 2174, "st e</w>": 2175, "on a</w>": 2176, "sing le</w>": 2177, "wedne sday</w>": 2178, "un ited</w>": 2179, "in o</w>": 2180, "@ _</w>": 2181, "ne l</w>": 2182, "celebr ate</w>": 2183, "en ding</w>": 2184, "de al</w>": 2185, "j i</w>": 2186, "can ada</w>": 2187, "hu ge</w>": 2188, "tr ack</w>": 2189, "\u00e2\u0122 \u00a2</w>": 2190, "f y</w>": 2191, "fan ta": 2192, "an g</w>": 2193, "yor k</w>": 2194, "rele ase</w>": 2195, "p un": 2196, "ep iso": 2197, "wor ds</w>": 2198, "t our": 2199, "p ack": 2200, "i gh": 2201, "classi c</w>": 2202, "perfor mance</w>": 2203, "ke t": 2204, "after noon</w>": 2205, "recor d</w>": 2206, "win s</w>": 2207, "pro ble": 2208, "\u00e2\u013f \u00a4</w>": 2209, "f our</w>": 2210, "b ed</w>": 2211, "ban k</w>": 2212, "d ance</w>": 2213, "s la": 2214, "cal led</w>": 2215, "mi ght</w>": 2216, "a p</w>": 2217, "pa st</w>": 2218, "\u00f0\u0141 \u013c": 2219, "diffe rent</w>": 2220, "it e": 2221, "gi ft</w>": 2222, "ssi ve</w>": 2223, "chur ch</w>": 2224, "c us</w>": 2225, "pro gram</w>": 2226, "ho tel</w>": 2227, "ic e": 2228, "ma d": 2229, "secur ity</w>": 2230, "en ge</w>": 2231, "d c</w>": 2232, "en ough</w>": 2233, "st a</w>": 2234, "e ty</w>": 2235, "de ad</w>": 2236, "g un": 2237, "he ar": 2238, "m ir": 2239, "hu man</w>": 2240, "gre ss</w>": 2241, "oun ds</w>": 2242, "pi ece</w>": 2243, "bre aking</w>": 2244, "gar den</w>": 2245, "fi ght</w>": 2246, "vie ws</w>": 2247, "f ish</w>": 2248, "star ted</w>": 2249, "run ning</w>": 2250, "gre en": 2251, "ser i": 2252, "s m</w>": 2253, "as k</w>": 2254, "d or": 2255, "de ath</w>": 2256, "e conom": 2257, "er i": 2258, "ir d</w>": 2259, "s er</w>": 2260, "l unch</w>": 2261, "\u00e2\u0123 \u00a6": 2262, "bo x": 2263, "nat u": 2264, "ba se": 2265, "b an</w>": 2266, "f al": 2267, "glo bal</w>": 2268, "wil d": 2269, "wo w</w>": 2270, "out side</w>": 2271, "mo ve</w>": 2272, "le ad</w>": 2273, "an al": 2274, "muse um</w>": 2275, "on g": 2276, "ha w": 2277, "pow er": 2278, "than k": 2279, "b ac": 2280, "char ac": 2281, "cam pa": 2282, "dig ital</w>": 2283, "r o</w>": 2284, "op er": 2285, "de v": 2286, "w ol": 2287, "p ati": 2288, "f a</w>": 2289, "m ale</w>": 2290, "pap er</w>": 2291, "ill ing</w>": 2292, "c s</w>": 2293, "\u00e2 \u0125": 2294, "educ ation</w>": 2295, "ta ken</w>": 2296, "e ffe": 2297, "m ou": 2298, "s ad": 2299, "\" .</w>": 2300, "bas ed</w>": 2301, "staf f</w>": 2302, "inclu ding</w>": 2303, "li ving</w>": 2304, "a c</w>": 2305, "ch ina</w>": 2306, "mo b": 2307, "stor m</w>": 2308, "lu ck</w>": 2309, "ph il": 2310, "o o</w>": 2311, "y n": 2312, "tra vel": 2313, "k el": 2314, "ti al</w>": 2315, "pr ice</w>": 2316, "boo k": 2317, "import ant</w>": 2318, "bi o": 2319, "p ool</w>": 2320, "ny c</w>": 2321, "f ab": 2322, "lo ad</w>": 2323, "? !</w>": 2324, "chall enge</w>": 2325, "cr y": 2326, "ser ve</w>": 2327, "we ar</w>": 2328, "bu s</w>": 2329, "ta in": 2330, "nu mber</w>": 2331, "ro r</w>": 2332, "k at": 2333, "i z": 2334, "th ough</w>": 2335, "ho sp": 2336, "m m</w>": 2337, "fa ir</w>": 2338, "ut es</w>": 2339, "ho t": 2340, "po p</w>": 2341, "fi ed</w>": 2342, "cam p": 2343, "develop ment</w>": 2344, "li br": 2345, "c ali": 2346, "em s</w>": 2347, "\u00e2\u0123\u00a6 @</w>": 2348, "b ol": 2349, "is ed</w>": 2350, "stand ing</w>": 2351, "mo del</w>": 2352, "it a</w>": 2353, "g le</w>": 2354, "bro wn</w>": 2355, "ima ge</w>": 2356, "ve red</w>": 2357, "for ce</w>": 2358, "o il</w>": 2359, "par tic": 2360, "sh u": 2361, "da ily</w>": 2362, "la w": 2363, "se c": 2364, "cla ss": 2365, "cam p</w>": 2366, "holi day</w>": 2367, "cl in": 2368, "k ers</w>": 2369, "pres ent</w>": 2370, "gam e": 2371, "incre di": 2372, "er ship</w>": 2373, "inter view</w>": 2374, "b ill</w>": 2375, "du e</w>": 2376, "and y</w>": 2377, "ab o": 2378, "in nov": 2379, "ke y": 2380, "ac ade": 2381, "p il": 2382, "mo der": 2383, "st ars</w>": 2384, "br and</w>": 2385, "f er</w>": 2386, "wee ks</w>": 2387, "con si": 2388, "pr e</w>": 2389, "sa fe": 2390, "wr it": 2391, "di um</w>": 2392, "la unch</w>": 2393, "marke ting</w>": 2394, "ann ual</w>": 2395, "as si": 2396, "cour t</w>": 2397, "la dy</w>": 2398, "c ted</w>": 2399, "and a</w>": 2400, "in side</w>": 2401, "chil d</w>": 2402, "opp or": 2403, "sm ith</w>": 2404, "centr e</w>": 2405, "gu e</w>": 2406, "\u00e2\u0123 \u00a9</w>": 2407, "f ren": 2408, "st y</w>": 2409, "for t</w>": 2410, "ent ly</w>": 2411, "is n</w>": 2412, "ke ep": 2413, "to ber</w>": 2414, "on y</w>": 2415, "bo y": 2416, "al d</w>": 2417, "col la": 2418, "de mo": 2419, "le vel</w>": 2420, "com pet": 2421, "ad o</w>": 2422, "b our": 2423, "fanta stic</w>": 2424, "m ate</w>": 2425, "s u</w>": 2426, "sou th": 2427, "oppor tun": 2428, "vers ary</w>": 2429, "lat er</w>": 2430, "bu d": 2431, "face book</w>": 2432, "la un": 2433, "ster n</w>": 2434, "p it": 2435, "! \"</w>": 2436, "ma j": 2437, "gr am": 2438, "tb t</w>": 2439, "fi re": 2440, "happ y": 2441, "a ks</w>": 2442, "wh ole</w>": 2443, "actu ally</w>": 2444, "ill er</w>": 2445, "ell a</w>": 2446, "lo ts</w>": 2447, "al ex": 2448, "an ge": 2449, "lan ds</w>": 2450, "\u00f0\u0141\u013a \u0143": 2451, "en ter": 2452, "r ou": 2453, "episo de</w>": 2454, "p ed</w>": 2455, "in ten": 2456, "sh ire</w>": 2457, "wh o": 2458, "pl an</w>": 2459, "h o</w>": 2460, "ca ke</w>": 2461, "we st": 2462, "mag az": 2463, "fre sh</w>": 2464, "c c": 2465, "n ar": 2466, "ch ris</w>": 2467, "wr iting</w>": 2468, "w er</w>": 2469, "n om": 2470, "l o</w>": 2471, "mi dd": 2472, "dre am</w>": 2473, "o l</w>": 2474, "ti onal</w>": 2475, "de b": 2476, "> ></w>": 2477, "be come</w>": 2478, "s i</w>": 2479, "gr and</w>": 2480, "all ing</w>": 2481, "hi stor": 2482, "ri de</w>": 2483, "i red</w>": 2484, "saf e</w>": 2485, "que en</w>": 2486, "ci l</w>": 2487, "in tro": 2488, "vi l</w>": 2489, "d ani": 2490, ".. .": 2491, "ar tic": 2492, "st at": 2493, "sh ort</w>": 2494, "or ing</w>": 2495, "sel fi": 2496, "mis si": 2497, "do c": 2498, "b it": 2499, "g all": 2500, "b om": 2501, "i re": 2502, "se lec": 2503, "d ition</w>": 2504, "\u00f0\u0141\u0136 \u00a5</w>": 2505, "fri end": 2506, "be at</w>": 2507, "gh ting</w>": 2508, "\u00f0\u0141\u013a \u012c</w>": 2509, "pe ace</w>": 2510, "ex hi": 2511, "ant a</w>": 2512, "ab ility</w>": 2513, "il lu": 2514, "j on": 2515, "qu ality</w>": 2516, "tri bu": 2517, "m es</w>": 2518, "play ers</w>": 2519, "fa ir": 2520, "cu t</w>": 2521, "c ab": 2522, "suc cess</w>": 2523, "b i</w>": 2524, "su s</w>": 2525, "pro mo": 2526, "sch e": 2527, "an ge</w>": 2528, "ic o</w>": 2529, "comm it": 2530, "cat ch</w>": 2531, "ill a</w>": 2532, "kin d</w>": 2533, "feel ing</w>": 2534, "qu o": 2535, "s ay": 2536, "anni versary</w>": 2537, "spo t</w>": 2538, "mo ther</w>": 2539, "an e</w>": 2540, "p end": 2541, "your self</w>": 2542, "op s</w>": 2543, "app le</w>": 2544, "min utes</w>": 2545, "p o</w>": 2546, "gr and": 2547, "ri es</w>": 2548, "ha ha</w>": 2549, "care er</w>": 2550, "ed ition</w>": 2551, "de c": 2552, "ric k</w>": 2553, "am i</w>": 2554, "concer t</w>": 2555, "iti ve</w>": 2556, "ge ous</w>": 2557, "d ly</w>": 2558, "t te</w>": 2559, "adv ent": 2560, "i g</w>": 2561, "li ghts</w>": 2562, "ak er</w>": 2563, "sk y": 2564, "\u00e2\u0125 \u00a3</w>": 2565, "r ay</w>": 2566, "fini shed</w>": 2567, "w ay": 2568, "s d": 2569, "ac coun": 2570, "\u00f0\u0141\u0134 \u0137</w>": 2571, "ck y</w>": 2572, "ch el": 2573, "lit er": 2574, "pain ting</w>": 2575, "lo s</w>": 2576, "st un": 2577, "techno logy</w>": 2578, "n as": 2579, "ma r</w>": 2580, "b il": 2581, "afric a</w>": 2582, "ki e</w>": 2583, "ey es</w>": 2584, "gol f</w>": 2585, "plu s</w>": 2586, "ni a</w>": 2587, "it ec": 2588, "serv ices</w>": 2589, "wed ding</w>": 2590, "kno wn</w>": 2591, "te le": 2592, ".. ...</w>": 2593, "star ts</w>": 2594, "pa ren": 2595, "w ants</w>": 2596, "ati onal</w>": 2597, "mon ths</w>": 2598, "win do": 2599, "fav our": 2600, "er t</w>": 2601, "magaz ine</w>": 2602, "ex clu": 2603, "re ve": 2604, "b c": 2605, "origin al</w>": 2606, "e ss": 2607, "n al</w>": 2608, "an ti": 2609, "st ro": 2610, "t ice</w>": 2611, "stu dy</w>": 2612, "\u00e0 \u00a4": 2613, "v ac": 2614, "nation al": 2615, "fi ve</w>": 2616, "ra in": 2617, "ve ment</w>": 2618, "u te</w>": 2619, "ver se</w>": 2620, "em er": 2621, "ar my</w>": 2622, "possi ble</w>": 2623, "gue ss</w>": 2624, "val ley</w>": 2625, "ther n</w>": 2626, "cro w": 2627, "m r": 2628, "col or</w>": 2629, "on to</w>": 2630, "pic k</w>": 2631, "cle ar</w>": 2632, "dar k</w>": 2633, "t ac": 2634, "wan ted</w>": 2635, "it ting</w>": 2636, "can cer</w>": 2637, "govern ment</w>": 2638, "di e": 2639, "ri se</w>": 2640, "z ing</w>": 2641, "col d</w>": 2642, "f oun": 2643, "stu dio</w>": 2644, "str ation</w>": 2645, "bro ther</w>": 2646, "a head</w>": 2647, "sh el": 2648, "mic ro": 2649, "ic ally</w>": 2650, "d au": 2651, "sig ned</w>": 2652, "vi ol": 2653, "a x": 2654, "as se": 2655, "i o": 2656, "w re": 2657, "spl ay</w>": 2658, "ch ick": 2659, "augu st</w>": 2660, "pl at": 2661, "ti ps</w>": 2662, "sp i": 2663, "hu man": 2664, "e asy</w>": 2665, "lo gi": 2666, "mi ke</w>": 2667, "gro w": 2668, "ag re": 2669, "w w": 2670, "sh ad": 2671, "mo tiv": 2672, "wi de</w>": 2673, "tur ns</w>": 2674, "om g</w>": 2675, "v ar": 2676, "de fin": 2677, "su g": 2678, "j im": 2679, "\u00f0\u0141\u0136 \u00a5": 2680, "t d</w>": 2681, "campa ign</w>": 2682, "nam ed</w>": 2683, "re tweet</w>": 2684, "co p": 2685, "t v": 2686, "le av": 2687, "k is": 2688, "dou ble</w>": 2689, "s mar": 2690, "issu e</w>": 2691, "vil la": 2692, "in formation</w>": 2693, "li es</w>": 2694, "sto ck</w>": 2695, "n t</w>": 2696, "di stric": 2697, "sh or": 2698, "mi x": 2699, "er o": 2700, "se p": 2701, "me x": 2702, "see ing</w>": 2703, "li ve": 2704, "re min": 2705, "co de</w>": 2706, "g ur": 2707, "s c</w>": 2708, "wil d</w>": 2709, "l un": 2710, "h ood</w>": 2711, "spo t": 2712, "fa ther</w>": 2713, "fore ver</w>": 2714, "up d": 2715, "tra f": 2716, "f ly</w>": 2717, "ne ed": 2718, "gra du": 2719, "tra in</w>": 2720, "ma ke": 2721, "s ab": 2722, "be y": 2723, "si ze</w>": 2724, "lead er</w>": 2725, "tal ks</w>": 2726, "e u</w>": 2727, "lo g": 2728, "fo x</w>": 2729, "gor geous</w>": 2730, "le ss": 2731, "le ts</w>": 2732, "sur pri": 2733, "my self</w>": 2734, "no te</w>": 2735, "li ves</w>": 2736, "f ru": 2737, "lo ved</w>": 2738, "se ver": 2739, "de m": 2740, "j i": 2741, "so c": 2742, "h old</w>": 2743, "do gs</w>": 2744, "n i</w>": 2745, "\u00e2 \u0140": 2746, "lea ve</w>": 2747, "air port</w>": 2748, "ben ef": 2749, "ex pl": 2750, "shi ps</w>": 2751, "comple te</w>": 2752, "ach i": 2753, "gre at": 2754, "vin tage</w>": 2755, "j ack</w>": 2756, "ro c": 2757, "woo d": 2758, "pri v": 2759, "off er</w>": 2760, "ey e</w>": 2761, "ver sion</w>": 2762, "te a</w>": 2763, "co ach": 2764, "off ic": 2765, "w ell": 2766, "g en</w>": 2767, "s at</w>": 2768, "h h": 2769, "you th</w>": 2770, "o x": 2771, "? \"</w>": 2772, "m t</w>": 2773, "mi x</w>": 2774, "g g</w>": 2775, "d le</w>": 2776, "natu ral</w>": 2777, "buil d</w>": 2778, "break fast</w>": 2779, "thin king</w>": 2780, "theat re</w>": 2781, "mo on</w>": 2782, "ber g</w>": 2783, "go als</w>": 2784, "geor ge</w>": 2785, "en e": 2786, "exc ell": 2787, "il ing</w>": 2788, "tun e</w>": 2789, "y ed</w>": 2790, "g ate</w>": 2791, "m it": 2792, "net work</w>": 2793, "jo e</w>": 2794, "h ello</w>": 2795, "f b</w>": 2796, "tu be</w>": 2797, "we aring</w>": 2798, "ath le": 2799, "stru c": 2800, "har d": 2801, "gla ss</w>": 2802, "g ers</w>": 2803, "thro w": 2804, "g es</w>": 2805, "b t": 2806, "indu stry</w>": 2807, "manag ement</w>": 2808, "ali st</w>": 2809, "go al</w>": 2810, "stre am</w>": 2811, "y el": 2812, "a vi": 2813, "ici ous</w>": 2814, "o thers</w>": 2815, "s ki": 2816, "chri sti": 2817, "bir d</w>": 2818, "e sc": 2819, "m in</w>": 2820, "tr o</w>": 2821, "l t</w>": 2822, "j an</w>": 2823, "im p": 2824, "ri ghts</w>": 2825, "sh a</w>": 2826, "or gan": 2827, "cent ral</w>": 2828, "ar a</w>": 2829, "ro ll</w>": 2830, "favour ite</w>": 2831, "che ster</w>": 2832, "el se</w>": 2833, "p ay</w>": 2834, "car s</w>": 2835, "m ine</w>": 2836, "ste p</w>": 2837, "prac tice</w>": 2838, "maj or</w>": 2839, "h ang": 2840, "\u00f0\u0141\u013a \u013a</w>": 2841, "n on</w>": 2842, "v ari": 2843, "eng ine": 2844, "vol un": 2845, "di a</w>": 2846, "i led</w>": 2847, "arch itec": 2848, "p ink</w>": 2849, "d s": 2850, "th y</w>": 2851, "wa sh": 2852, "web site</w>": 2853, "ba g</w>": 2854, "contro l</w>": 2855, "el li": 2856, "f ra": 2857, "an sw": 2858, "d ence</w>": 2859, "y u": 2860, "r on</w>": 2861, "ol a</w>": 2862, "g in": 2863, "dr in": 2864, "li c</w>": 2865, "cou ple</w>": 2866, "sp ar": 2867, "g on</w>": 2868, "cre ate</w>": 2869, "c t": 2870, "celebr ating</w>": 2871, "de ep</w>": 2872, "e at</w>": 2873, "te e</w>": 2874, "vo ice</w>": 2875, "dro p</w>": 2876, "vis it": 2877, "at ors</w>": 2878, "sta dium</w>": 2879, "f t": 2880, "w is": 2881, "ro l": 2882, "gra de</w>": 2883, "fam il": 2884, "po ints</w>": 2885, "re pre": 2886, "w as": 2887, "traf fic</w>": 2888, "jap an</w>": 2889, "or g": 2890, "hon or</w>": 2891, "tex as</w>": 2892, "man u": 2893, "\u00e2\u013b \u00a5</w>": 2894, "safe ty</w>": 2895, "re r</w>": 2896, "b ag": 2897, "em plo": 2898, "rele ased</w>": 2899, "re gu": 2900, "ak a</w>": 2901, "n av": 2902, "ro le</w>": 2903, "sen ior</w>": 2904, "spec t</w>": 2905, "cro ss</w>": 2906, "lin es</w>": 2907, "be st": 2908, "p ack</w>": 2909, "s in</w>": 2910, "ti e</w>": 2911, "mis sing</w>": 2912, "sun set</w>": 2913, "li ber": 2914, "is ing</w>": 2915, "j ay": 2916, "sk i</w>": 2917, "champion ship</w>": 2918, "ac tiv": 2919, "la dies</w>": 2920, "play ed</w>": 2921, "y y": 2922, "pu bl": 2923, "al o": 2924, "pri de</w>": 2925, "s r": 2926, "pa ki": 2927, "lu x": 2928, "sur vi": 2929, "ck ed</w>": 2930, "e ts</w>": 2931, "cho col": 2932, "austr alia</w>": 2933, "par is</w>": 2934, "mi les</w>": 2935, "h at": 2936, "ment al</w>": 2937, "al a</w>": 2938, "me an</w>": 2939, "mob ile</w>": 2940, "en a</w>": 2941, "in si": 2942, "f ound": 2943, "chi ef</w>": 2944, "t ag": 2945, "incredi ble</w>": 2946, "re turn</w>": 2947, "\u00c3 \u00a9": 2948, "goo gle</w>": 2949, "fren ch</w>": 2950, "cre w</w>": 2951, "hal lo": 2952, "ali an</w>": 2953, "j az": 2954, "ch er</w>": 2955, "sil ver</w>": 2956, "nor th": 2957, "eng lish</w>": 2958, "base ball</w>": 2959, "c af": 2960, "lim ited</w>": 2961, "follow ing</w>": 2962, "app reci": 2963, "ear th</w>": 2964, "k ir": 2965, "ve mber</w>": 2966, "w ed</w>": 2967, "p tion</w>": 2968, "g ed</w>": 2969, "oc tober</w>": 2970, "fl ori": 2971, "c r</w>": 2972, "en cy</w>": 2973, "ga ve</w>": 2974, "lor d</w>": 2975, "stu ff</w>": 2976, "ber ry</w>": 2977, "po st": 2978, "sm ile</w>": 2979, "bro ad": 2980, "st ate": 2981, "gg er</w>": 2982, "me ans</w>": 2983, "ic y</w>": 2984, "gu n</w>": 2985, "y o</w>": 2986, "ma ster</w>": 2987, "bur g</w>": 2988, "han ds</w>": 2989, "ni e</w>": 2990, "/ /</w>": 2991, "uni on</w>": 2992, "brit ish</w>": 2993, "big gest</w>": 2994, "distric t</w>": 2995, "am ing</w>": 2996, "h il": 2997, "o ce": 2998, "per son": 2999, "pas s</w>": 3000, "en vir": 3001, "scho ols</w>": 3002, "arri ved</w>": 3003, "anc es</w>": 3004, "insp ired</w>": 3005, "ex pla": 3006, "be n</w>": 3007, "libr ary</w>": 3008, "bo tt": 3009, "am p": 3010, "ste ph": 3011, "cont act</w>": 3012, "b ang": 3013, "m s": 3014, "cali for": 3015, "t old</w>": 3016, "batt le</w>": 3017, "b b</w>": 3018, "chic ago</w>": 3019, "\u00e2\u013e \u00a8</w>": 3020, "str ate": 3021, "sh i</w>": 3022, "de ce": 3023, "- )</w>": 3024, "ad d</w>": 3025, "la b": 3026, "j ones</w>": 3027, "leg end</w>": 3028, "cast le</w>": 3029, "ing er</w>": 3030, "st ance</w>": 3031, "be l</w>": 3032, "ur a</w>": 3033, "re fu": 3034, "lead ers</w>": 3035, "po t": 3036, "se x": 3037, "h ic": 3038, "artic le</w>": 3039, "ki d</w>": 3040, "fr ance</w>": 3041, "x x</w>": 3042, "ex e": 3043, "gui de</w>": 3044, "volun te": 3045, "pr int</w>": 3046, "al i</w>": 3047, "ce o</w>": 3048, "twee ts</w>": 3049, "w x</w>": 3050, "scen e</w>": 3051, "vol u": 3052, "ant i</w>": 3053, "h an</w>": 3054, "as soci": 3055, "shar ing</w>": 3056, "ro se</w>": 3057, "mini ster</w>": 3058, "sh er": 3059, "in ste": 3060, "cle an": 3061, "demo cr": 3062, "po ster</w>": 3063, "sk in</w>": 3064, "p sy": 3065, "pro per": 3066, "cra zy</w>": 3067, "i am": 3068, "o re": 3069, "in i</w>": 3070, "any thing</w>": 3071, "po d": 3072, "mo ving</w>": 3073, "cl ick</w>": 3074, "ex plo": 3075, "com b": 3076, "cra ft</w>": 3077, "f i</w>": 3078, "bloo d</w>": 3079, "is ra": 3080, "publ ic": 3081, "d ent": 3082, "ol ym": 3083, "eng land</w>": 3084, "a si": 3085, "ch er": 3086, "fac t</w>": 3087, "envir on": 3088, "har ry</w>": 3089, "g one</w>": 3090, "me dic": 3091, "enjo ying</w>": 3092, "just ice</w>": 3093, "j r</w>": 3094, "indi an</w>": 3095, "wi fe</w>": 3096, "s ound</w>": 3097, "t es</w>": 3098, "dra wing</w>": 3099, "p al</w>": 3100, "ide a</w>": 3101, "cr it": 3102, "ju li": 3103, "il er</w>": 3104, "war m</w>": 3105, "cl ar": 3106, "thou ghts</w>": 3107, "def en": 3108, "coun cil</w>": 3109, "intro duc": 3110, "di ed</w>": 3111, "jan u": 3112, "an i</w>": 3113, "s end</w>": 3114, "li er</w>": 3115, "m l": 3116, "intere sting</w>": 3117, "tra de</w>": 3118, "win d</w>": 3119, "b ay": 3120, "s ac": 3121, "anc y</w>": 3122, "sour ce</w>": 3123, "b es</w>": 3124, "org ani": 3125, "ar ly</w>": 3126, "lar ge</w>": 3127, "ff ici": 3128, "ta g</w>": 3129, "u t</w>": 3130, "de sp": 3131, "o es</w>": 3132, "tit le</w>": 3133, "sy m": 3134, "pic tures</w>": 3135, "op en": 3136, "wom en": 3137, "sho wing</w>": 3138, "ri a</w>": 3139, "le ast</w>": 3140, "lead ership</w>": 3141, "cur rent</w>": 3142, "elec tr": 3143, "val ent": 3144, "list ening</w>": 3145, "c key</w>": 3146, "gener al</w>": 3147, "de ser": 3148, "du ce</w>": 3149, "; )</w>": 3150, "c ent</w>": 3151, "\u00f0\u0141\u013a\u012f \u00f0\u0141\u013a\u012f": 3152, "sco tt</w>": 3153, "po or</w>": 3154, "selfi e</w>": 3155, "ev ents</w>": 3156, "i on</w>": 3157, "wr ong</w>": 3158, "de v</w>": 3159, "h ill": 3160, "sep te": 3161, "cul ture</w>": 3162, "l ine": 3163, "sor ry</w>": 3164, "s ent</w>": 3165, "si ster</w>": 3166, "ce pt</w>": 3167, "k ri": 3168, "no vember</w>": 3169, "ar i</w>": 3170, "announ ce</w>": 3171, "z ation</w>": 3172, "br an": 3173, "g ent": 3174, "d u</w>": 3175, "l en": 3176, "per s": 3177, "f m</w>": 3178, "mart in</w>": 3179, "o p</w>": 3180, "e mb": 3181, "om e": 3182, "midd le</w>": 3183, "suc cess": 3184, "pe ter</w>": 3185, "janu ary</w>": 3186, "f lu": 3187, "rac ing</w>": 3188, "d av": 3189, "bi ke</w>": 3190, "\u00f0\u0141\u0131 \u00bb</w>": 3191, "pe t</w>": 3192, "shoo t</w>": 3193, "profe ssi": 3194, "feat uring</w>": 3195, "septe mber</w>": 3196, "now playing</w>": 3197, "sta ur": 3198, "z a": 3199, "on ic</w>": 3200, "qu ick</w>": 3201, "bas ke": 3202, "spe aking</w>": 3203, "mil it": 3204, "z er</w>": 3205, "chick en</w>": 3206, "b ell</w>": 3207, "s ad</w>": 3208, "co ast</w>": 3209, "lo ving</w>": 3210, "y ers</w>": 3211, "d j</w>": 3212, "pan el</w>": 3213, "ver age</w>": 3214, "s wit": 3215, "ic ks</w>": 3216, "b ou": 3217, "califor nia</w>": 3218, "s am</w>": 3219, "paren ts</w>": 3220, "er o</w>": 3221, "k illed</w>": 3222, "ph ys": 3223, "jo bs</w>": 3224, "mi gr": 3225, "an th": 3226, "e mo": 3227, "hallo ween</w>": 3228, "and er": 3229, "c m</w>": 3230, "compet ition</w>": 3231, "e ag": 3232, "s ket": 3233, "sp ir": 3234, "may be</w>": 3235, "exclu sive</w>": 3236, "app e": 3237, "jour ney</w>": 3238, "scre en</w>": 3239, "for d": 3240, "i o</w>": 3241, "h ate</w>": 3242, "u g": 3243, "sou l</w>": 3244, "her o</w>": 3245, "soci ety</w>": 3246, "sy n": 3247, "gu it": 3248, "n h": 3249, "d j": 3250, "as es</w>": 3251, "im pre": 3252, "ti me": 3253, "sal es</w>": 3254, "d d</w>": 3255, "f ts</w>": 3256, "summ it</w>": 3257, "stun ning</w>": 3258, "om s</w>": 3259, "tur ned</w>": 3260, "cle an</w>": 3261, "sof t</w>": 3262, "be at": 3263, "re staur": 3264, "de red</w>": 3265, "en ces</w>": 3266, "ma gic</w>": 3267, "di o": 3268, "sh ine</w>": 3269, "gu est</w>": 3270, "health y</w>": 3271, "exhi b": 3272, "stor ies</w>": 3273, "po pu": 3274, "n is</w>": 3275, "el a</w>": 3276, "bel ow</w>": 3277, "fun ny</w>": 3278, "resul ts</w>": 3279, "s ne": 3280, "cur rently</w>": 3281, "ar d": 3282, "down load</w>": 3283, "f light</w>": 3284, "m al</w>": 3285, "f ine</w>": 3286, "p ad": 3287, "ch u": 3288, "ent ed</w>": 3289, "h at</w>": 3290, "\u00f0\u0141\u0133 \u0131": 3291, "ste ve</w>": 3292, "j o</w>": 3293, "mar k": 3294, "r at": 3295, "b all": 3296, "p c</w>": 3297, "p on": 3298, "b by</w>": 3299, "o li": 3300, "ar ts</w>": 3301, "as ure</w>": 3302, "bow l</w>": 3303, "att ack</w>": 3304, "mi c</w>": 3305, "de ar</w>": 3306, "ran ge</w>": 3307, "en ter</w>": 3308, "chocol ate</w>": 3309, "br illi": 3310, "ac cess</w>": 3311, ", \"</w>": 3312, "? ??</w>": 3313, "ch ap": 3314, "con st": 3315, "t n": 3316, "mat ter</w>": 3317, "blu e": 3318, "gall ery</w>": 3319, "em p": 3320, "work shop</w>": 3321, "lead ing</w>": 3322, "y ours</w>": 3323, "baske tball</w>": 3324, "w anna</w>": 3325, "th u": 3326, "_ _</w>": 3327, "mar ri": 3328, "sle ep</w>": 3329, "bi a</w>": 3330, "ch e</w>": 3331, "ma d</w>": 3332, "imp act</w>": 3333, "o wn": 3334, "si r</w>": 3335, "chan nel</w>": 3336, "euro pe</w>": 3337, "e sp": 3338, "k itch": 3339, "hosp ital</w>": 3340, "w ra": 3341, "roy al</w>": 3342, "f s</w>": 3343, "ne u": 3344, "qu ar": 3345, "ne y": 3346, "ac ks</w>": 3347, "ch ase</w>": 3348, "pp y</w>": 3349, "st al": 3350, "at ely</w>": 3351, "ti m</w>": 3352, "dece mber</w>": 3353, "r are</w>": 3354, "per form": 3355, "cre am</w>": 3356, "we ight</w>": 3357, "ch oo": 3358, "ni ght": 3359, "ha ven</w>": 3360, "fr anc": 3361, "kh an</w>": 3362, "buil t</w>": 3363, "hel ping</w>": 3364, "tru st</w>": 3365, "ty pe</w>": 3366, "gol den</w>": 3367, "ta x</w>": 3368, "s now": 3369, "s wi": 3370, "di sa": 3371, "questi ons</w>": 3372, "ve y</w>": 3373, "li ght": 3374, "c n": 3375, "cl oud</w>": 3376, "thom as</w>": 3377, "ag ed</w>": 3378, "sh ou": 3379, "te ams</w>": 3380, "gr an": 3381, "re ason</w>": 3382, "a a</w>": 3383, "you tube</w>": 3384, "v p</w>": 3385, "pi zz": 3386, "manag er</w>": 3387, "bur y</w>": 3388, "cre dit</w>": 3389, "tre at</w>": 3390, "ma x</w>": 3391, "i k": 3392, "ma in": 3393, "g ing</w>": 3394, "de ad": 3395, "pro bab": 3396, "ye ah</w>": 3397, "\u00e3 \u0124": 3398, "br and": 3399, "so li": 3400, "pl ant</w>": 3401, "ta yl": 3402, "gir l": 3403, "\u00f0\u0141\u013a \u0143</w>": 3404, "nam ent</w>": 3405, "au to": 3406, "mess age</w>": 3407, "ko re": 3408, "n ur": 3409, "ter r": 3410, "ag u": 3411, "ma p</w>": 3412, "sen ting</w>": 3413, "lo ves</w>": 3414, "gi ves</w>": 3415, "g ab": 3416, "z en</w>": 3417, "ro bert</w>": 3418, "con fir": 3419, "w ars</w>": 3420, "o m</w>": 3421, "sta in": 3422, "cam era</w>": 3423, "and er</w>": 3424, "won der</w>": 3425, "a b</w>": 3426, "ca p</w>": 3427, "s old</w>": 3428, "su it</w>": 3429, "wal king</w>": 3430, "contin ue</w>": 3431, "effe c": 3432, "dau ghter</w>": 3433, "d anc": 3434, "cha in</w>": 3435, "mul ti": 3436, "ki d": 3437, "y an": 3438, "champi on</w>": 3439, "v o</w>": 3440, "ta ins</w>": 3441, "ho st</w>": 3442, "min i</w>": 3443, "mis sed</w>": 3444, "re sc": 3445, "ly n": 3446, "fin ish</w>": 3447, "del icious</w>": 3448, "s as": 3449, "tayl or</w>": 3450, "i b": 3451, "pro mis": 3452, "produc ts</w>": 3453, "moun tain</w>": 3454, "flori da</w>": 3455, "regi ster</w>": 3456, "tre at": 3457, "rec ent</w>": 3458, "fe male</w>": 3459, "boo th</w>": 3460, "mat t</w>": 3461, "ve hic": 3462, "s op": 3463, "mo tor": 3464, "suppor ting</w>": 3465, "phi c</w>": 3466, "ex tre": 3467, "dr ink</w>": 3468, "lan e</w>": 3469, "th ird</w>": 3470, "p s": 3471, "con stru": 3472, "ce re": 3473, "far m</w>": 3474, "\u00f0\u0141\u0130 \u012b</w>": 3475, "tu red</w>": 3476, "\u00f0\u0141\u0133 \u012b</w>": 3477, "c ats</w>": 3478, "a j": 3479, "gi e</w>": 3480, "shoo ting</w>": 3481, "as ked</w>": 3482, "paki stan</w>": 3483, "am e": 3484, "m b</w>": 3485, "g il": 3486, "leg al</w>": 3487, "squ are</w>": 3488, "in vol": 3489, "dra w</w>": 3490, "oo oo": 3491, "!! !!": 3492, "opportun ity</w>": 3493, "p y": 3494, "e i": 3495, "b ts</w>": 3496, "teach er</w>": 3497, "charac ter</w>": 3498, "john son</w>": 3499, "br on": 3500, "ly wood</w>": 3501, "ch ine": 3502, "c ing</w>": 3503, "c ine": 3504, "d ge": 3505, "gam ing</w>": 3506, "russi a</w>": 3507, "ci a</w>": 3508, "quo te</w>": 3509, "ric h</w>": 3510, "go v": 3511, "flow ers</w>": 3512, "sp iri": 3513, "st in</w>": 3514, "grow th</w>": 3515, "\u00f0\u0141\u0131 \u00bc</w>": 3516, "comm er": 3517, "j uni": 3518, "mu m</w>": 3519, "r an</w>": 3520, "s na": 3521, "a ren": 3522, "c b": 3523, "ac tor</w>": 3524, "col or": 3525, "si t</w>": 3526, "pa ir</w>": 3527, "ch i</w>": 3528, "bo w</w>": 3529, "acade my</w>": 3530, "hel d</w>": 3531, "r ang": 3532, "me tal</w>": 3533, "y l</w>": 3534, "ac tive</w>": 3535, "probab ly</w>": 3536, "t ch</w>": 3537, "need ed</w>": 3538, "spe e": 3539, "cho ice</w>": 3540, "ital y</w>": 3541, "ry an</w>": 3542, "\u00f0\u0141\u0129 \u00ba": 3543, "flow er</w>": 3544, "v it": 3545, "m n</w>": 3546, "found ation</w>": 3547, "b ak": 3548, "si ons</w>": 3549, "ne igh": 3550, "f loo": 3551, "he ard</w>": 3552, "re mo": 3553, "fre sh": 3554, "ing ing</w>": 3555, "re f": 3556, "to wn": 3557, "cl ou": 3558, "je sus</w>": 3559, "spiri t</w>": 3560, "cou ldn</w>": 3561, "z es</w>": 3562, "\u00f0\u0141\u0134 \u013b</w>": 3563, "willi ams</w>": 3564, "pro ce": 3565, "moder n</w>": 3566, "pro cess</w>": 3567, "sho es</w>": 3568, "cre ated</w>": 3569, "tri c</w>": 3570, "issu es</w>": 3571, "ann e</w>": 3572, "att en": 3573, "de but</w>": 3574, "h r</w>": 3575, "n it": 3576, "sti g": 3577, "a po": 3578, "e ps</w>": 3579, "z u": 3580, "\u00e3 \u0122": 3581, "si x</w>": 3582, "car ds</w>": 3583, "lan gu": 3584, "fam ous</w>": 3585, "tour nament</w>": 3586, "se l</w>": 3587, "e bay</w>": 3588, "y n</w>": 3589, "st on": 3590, "k ick": 3591, "announ ced</w>": 3592, "k am": 3593, "vo c": 3594, "brilli ant</w>": 3595, "hou se": 3596, "che ese</w>": 3597, "war ri": 3598, "mus ic": 3599, "ho ckey</w>": 3600, "\u00f0\u0141\u013a\u0124 \u00f0\u0141\u013a\u0124</w>": 3601, "sk ills</w>": 3602, "au tom": 3603, "smar t</w>": 3604, "med ical</w>": 3605, "mon y</w>": 3606, "e x</w>": 3607, "gu ar": 3608, "gi ve": 3609, "pers onal</w>": 3610, "ven tion</w>": 3611, "al li": 3612, "pre ss": 3613, "flo or</w>": 3614, "m c</w>": 3615, "victor y</w>": 3616, "hi m": 3617, "simp le</w>": 3618, "th or": 3619, "\u00f0\u0141\u0129\u00ba \u00f0\u0141\u0129": 3620, "ta il</w>": 3621, "lu cky</w>": 3622, "ale x</w>": 3623, "qu ite</w>": 3624, "bo t": 3625, "ssi ons</w>": 3626, "chall eng": 3627, "c ann": 3628, "amaz on</w>": 3629, "h ell</w>": 3630, "b ought</w>": 3631, ") :</w>": 3632, "ed y</w>": 3633, "secre t</w>": 3634, "produc tion</w>": 3635, "inde pend": 3636, "de fe": 3637, "ad ded</w>": 3638, "p r</w>": 3639, "p ag": 3640, "be d": 3641, "gre atest</w>": 3642, "with in</w>": 3643, "j ay</w>": 3644, "\u00f0\u0141 \u00a5": 3645, "ire land</w>": 3646, "re ly</w>": 3647, "s d</w>": 3648, "te xt</w>": 3649, "dri ving</w>": 3650, "pro gram": 3651, "spe ed</w>": 3652, "col um": 3653, "str on": 3654, "\u00c3 \u00a9</w>": 3655, "fore st</w>": 3656, "\u00e2 \u0138": 3657, "mach ine</w>": 3658, "co in</w>": 3659, "sc ar": 3660, "oun t</w>": 3661, "bi e</w>": 3662, "\u00a1 \u00ef\u00b8\u0131</w>": 3663, "por tra": 3664, "comm on</w>": 3665, "wre st": 3666, "recei ved</w>": 3667, "kno w": 3668, "inve st": 3669, "pl ans</w>": 3670, "ac cor": 3671, "ad op": 3672, "ter y</w>": 3673, "re ali": 3674, "p p</w>": 3675, "k al": 3676, "art work</w>": 3677, "me an": 3678, "go d": 3679, "inste ad</w>": 3680, "an ci": 3681, "motiv ation</w>": 3682, "as ing</w>": 3683, "inspir ation</w>": 3684, "up coming</w>": 3685, "polit ical</w>": 3686, "euro pe": 3687, "m ers</w>": 3688, "heav y</w>": 3689, "\u00f0\u0141\u0133 \u012f</w>": 3690, "fe bru": 3691, "scot land</w>": 3692, "ou gh": 3693, "b t</w>": 3694, "bo ss</w>": 3695, "sche du": 3696, "spe ak</w>": 3697, "n ick": 3698, "u red</w>": 3699, "in o": 3700, "e k": 3701, "ri sk</w>": 3702, "tor y</w>": 3703, "pres ents</w>": 3704, "b on</w>": 3705, "ru g": 3706, "st ates</w>": 3707, "exhib ition</w>": 3708, "il o": 3709, "m ill": 3710, "br ought</w>": 3711, ": -)</w>": 3712, "tou ri": 3713, "com e": 3714, "offici ally</w>": 3715, "champi ons</w>": 3716, "do ors</w>": 3717, "re p": 3718, "po se</w>": 3719, "ex tra</w>": 3720, "k ings</w>": 3721, "soc cer</w>": 3722, "squ ad</w>": 3723, "app lic": 3724, "at a</w>": 3725, "some times</w>": 3726, "t ari": 3727, "excell ent</w>": 3728, "\u00f0\u0141\u013a \u013a": 3729, "stra ight</w>": 3730, "car ol": 3731, "ri p</w>": 3732, "\u00e2\u0122 \u012f": 3733, "gra phic</w>": 3734, "m ol": 3735, "elec tion</w>": 3736, "febru ary</w>": 3737, "as ons</w>": 3738, "l i</w>": 3739, "di r": 3740, "m t": 3741, "n ick</w>": 3742, "u su": 3743, "m rs</w>": 3744, "com ics</w>": 3745, "inst itu": 3746, "cor por": 3747, "v i</w>": 3748, "\u00f0\u0141\u013b \u0131": 3749, "tu ral</w>": 3750, "di se": 3751, "ac ci": 3752, "we are": 3753, "am ong</w>": 3754, "sho pping</w>": 3755, "t ill</w>": 3756, "wh at": 3757, "cha ir</w>": 3758, "sp an": 3759, "chine se</w>": 3760, "innov ation</w>": 3761, "jo y</w>": 3762, "k it</w>": 3763, "cent ury</w>": 3764, "ob ama</w>": 3765, "ph ili": 3766, "f c": 3767, "re ach</w>": 3768, "c iti": 3769, "ul ous</w>": 3770, "n on": 3771, "d ang": 3772, "happ ening</w>": 3773, "bur n</w>": 3774, "p el": 3775, "or ange</w>": 3776, "d v": 3777, "k ick</w>": 3778, "cla im": 3779, "ing ham</w>": 3780, "ph y</w>": 3781, "no v</w>": 3782, "pod cast</w>": 3783, "wh i": 3784, "ni ghts</w>": 3785, "ear lier</w>": 3786, "be ar</w>": 3787, "la h</w>": 3788, "exc iting</w>": 3789, "or a</w>": 3790, "gi ven</w>": 3791, "s lo": 3792, "memor ies</w>": 3793, "contin ues</w>": 3794, "produc t</w>": 3795, "gh o": 3796, "c d": 3797, "kno ws</w>": 3798, "\u00f0\u0141\u0130 \u012b": 3799, "publi shed</w>": 3800, "discu ss</w>": 3801, "y ard</w>": 3802, "i phone</w>": 3803, "tri es</w>": 3804, "w all": 3805, "fe b</w>": 3806, "are n</w>": 3807, "tru th</w>": 3808, "win ners</w>": 3809, "tu re": 3810, "diti onal</w>": 3811, "milit ary</w>": 3812, "proble m</w>": 3813, "m and": 3814, "do g": 3815, "lo ss</w>": 3816, "c ric": 3817, "can adi": 3818, "ve ter": 3819, "villa ge</w>": 3820, "\" ,</w>": 3821, "y r</w>": 3822, "un g</w>": 3823, "don ald</w>": 3824, "ag ing</w>": 3825, "bir ds</w>": 3826, "sci enti": 3827, "le s": 3828, "th is": 3829, "regi on</w>": 3830, "tic al</w>": 3831, "itt en</w>": 3832, "il a</w>": 3833, "\u00f0\u0141\u013a \u0130</w>": 3834, "d ad": 3835, "di am": 3836, "abo ve</w>": 3837, "st ren": 3838, "li t</w>": 3839, "p ir": 3840, "la b</w>": 3841, "fo cus</w>": 3842, "bus y</w>": 3843, "d ur": 3844, "app ly</w>": 3845, "s ma": 3846, "auth or</w>": 3847, "ac i": 3848, "exe cu": 3849, "dom in": 3850, "re la": 3851, "jack son</w>": 3852, "at o</w>": 3853, "wash ington</w>": 3854, "\u00f0\u0141\u013b \u012e": 3855, "k ill</w>": 3856, "popu lar</w>": 3857, "ce ment</w>": 3858, "ro ad": 3859, "e ating</w>": 3860, "loc ation</w>": 3861, "v ent": 3862, "ar re": 3863, "n an": 3864, "cu sto": 3865, "advent ure</w>": 3866, "or din": 3867, "spor t": 3868, "ul t</w>": 3869, "lo ck</w>": 3870, "questi on</w>": 3871, "dri ver</w>": 3872, "land sc": 3873, "on i": 3874, "k ins</w>": 3875, "p d": 3876, "jor dan</w>": 3877, "te red</w>": 3878, "k k": 3879, "a f</w>": 3880, "chil d": 3881, "s p</w>": 3882, "just in</w>": 3883, "en i": 3884, "s elling</w>": 3885, "z o": 3886, "wh it": 3887, "bo ston</w>": 3888, "partic ip": 3889, "sig ning</w>": 3890, "happ ened</w>": 3891, "he at</w>": 3892, "m am": 3893, "dre ams</w>": 3894, "lo ws</w>": 3895, "gra ph</w>": 3896, "the day</w>": 3897, "head ing</w>": 3898, "br o</w>": 3899, "ble ssed</w>": 3900, "vi c</w>": 3901, "ve gas</w>": 3902, "h d</w>": 3903, "in ning</w>": 3904, "ro man": 3905, "and ro": 3906, "den ti": 3907, "u se": 3908, "c it": 3909, "pro gress</w>": 3910, "writ er</w>": 3911, "bo b</w>": 3912, "ff s</w>": 3913, "gro wing</w>": 3914, "b ly</w>": 3915, "aw are": 3916, "ex am": 3917, "sp ent</w>": 3918, "be t</w>": 3919, "sc ore</w>": 3920, "bey ond</w>": 3921, "do cu": 3922, "ad el": 3923, "s f": 3924, "cou ra": 3925, "colla bor": 3926, "in c</w>": 3927, "priv ate</w>": 3928, "bo at</w>": 3929, "* *</w>": 3930, "z one</w>": 3931, "p ha": 3932, "b ill": 3933, "to tal</w>": 3934, "plan ning</w>": 3935, "to wards</w>": 3936, "plac es</w>": 3937, "pre view</w>": 3938, "cre ative</w>": 3939, "dam n</w>": 3940, "ide as</w>": 3941, "se ems</w>": 3942, "po ten": 3943, "say ing</w>": 3944, "di splay</w>": 3945, "s w</w>": 3946, "a qu": 3947, "lou is</w>": 3948, "by e</w>": 3949, "li l</w>": 3950, "e mail</w>": 3951, "we stern</w>": 3952, "ger many</w>": 3953, "ell er</w>": 3954, "re s": 3955, "f ant": 3956, "ment ary</w>": 3957, "de als</w>": 3958, "ric hard</w>": 3959, "jer sey</w>": 3960, "stren g": 3961, "ra d": 3962, "pizz a</w>": 3963, "mon d</w>": 3964, "w are</w>": 3965, "l ac": 3966, "g i</w>": 3967, "ar chi": 3968, "c d</w>": 3969, "yel low</w>": 3970, "rec ently</w>": 3971, "re ach": 3972, "\u00e0 \u00b9": 3973, "kitch en</w>": 3974, "desig ned</w>": 3975, "tr y": 3976, "g al</w>": 3977, "restaur ant</w>": 3978, "at ure</w>": 3979, "w w</w>": 3980, "j as": 3981, "l ma": 3982, "\u00f0\u0141\u0133 \u012e</w>": 3983, "pa in</w>": 3984, "av o": 3985, "min ute</w>": 3986, "sch ol": 3987, "ther ap": 3988, "tic ket</w>": 3989, "d ry</w>": 3990, "jap an": 3991, "diti ons</w>": 3992, "ter ri": 3993, "sel ves</w>": 3994, "happ en</w>": 3995, "t up</w>": 3996, "ma g</w>": 3997, "cop y</w>": 3998, "sh er</w>": 3999, "free dom</w>": 4000, "f ile</w>": 4001, "speci ally</w>": 4002, "tor onto</w>": 4003, "lo ad": 4004, "g ary</w>": 4005, "re y</w>": 4006, "answ er</w>": 4007, "lo y": 4008, "cau ght</w>": 4009, "pri ze</w>": 4010, "u ne": 4011, "fic ation</w>": 4012, "ni ger": 4013, "sy d": 4014, "tou ch</w>": 4015, "feat ure</w>": 4016, "jaz z</w>": 4017, "recor ds</w>": 4018, "him self</w>": 4019, "di sh</w>": 4020, "ro ber": 4021, "spot ted</w>": 4022, "ma ster": 4023, "wa ve</w>": 4024, "fin als</w>": 4025, "bu ll": 4026, "for um</w>": 4027, "al d": 4028, "re comm": 4029, "ch a</w>": 4030, "a e</w>": 4031, "d oo": 4032, "inst ru": 4033, "tru ly</w>": 4034, "l g": 4035, "in k": 4036, "bro thers</w>": 4037, "de st</w>": 4038, "j im</w>": 4039, "m it</w>": 4040, "clo sed</w>": 4041, "is on</w>": 4042, "tri ed</w>": 4043, "s anta</w>": 4044, "af fe": 4045, "w an</w>": 4046, "hor se</w>": 4047, "g row</w>": 4048, "camp us</w>": 4049, "rel ation": 4050, "nati ve</w>": 4051, "jour n": 4052, "go v</w>": 4053, "o ct</w>": 4054, "k it": 4055, "b ound</w>": 4056, "part ner</w>": 4057, "re ma": 4058, "crow d</w>": 4059, "! )</w>": 4060, "c alls</w>": 4061, "ra il": 4062, "qu ali": 4063, "solu tion</w>": 4064, "con test</w>": 4065, "con vers": 4066, "sn ap": 4067, "b ase</w>": 4068, "in iti": 4069, "ta x": 4070, "y e</w>": 4071, "ent repre": 4072, "it or</w>": 4073, "constru ction</w>": 4074, "foo d": 4075, "present ed</w>": 4076, "n ings</w>": 4077, "cli mate</w>": 4078, "k m</w>": 4079, "mo del": 4080, "b j": 4081, "blo ck</w>": 4082, "present ation</w>": 4083, "dre am": 4084, "fi x": 4085, "c alling</w>": 4086, "bus ine": 4087, "con gress</w>": 4088, "under stand</w>": 4089, "we b</w>": 4090, "val ue</w>": 4091, "\u00ef\u00b8\u0131 \u00e2\u0125\u00a3</w>": 4092, "mex ico</w>": 4093, "it ely</w>": 4094, "ki m</w>": 4095, "char ity</w>": 4096, "ref lec": 4097, "bl an": 4098, "fl ying</w>": 4099, "anal y": 4100, "famil ies</w>": 4101, "b and": 4102, "reci pe</w>": 4103, "celebr ation</w>": 4104, "ac cep": 4105, "ar y": 4106, "to t": 4107, "g b</w>": 4108, "intere sted</w>": 4109, "cap tain</w>": 4110, "\u00e2\u013b \u00a5": 4111, "ti p</w>": 4112, "ab sol": 4113, "bra z": 4114, "inve stig": 4115, "o logy</w>": 4116, "de c</w>": 4117, "tru ck</w>": 4118, "ver ing</w>": 4119, "c lear": 4120, "don t</w>": 4121, "go tta</w>": 4122, "ad vis": 4123, "beg ins</w>": 4124, "ma ss": 4125, "de scri": 4126, "blo ck": 4127, "k im": 4128, "davi d": 4129, "son gs</w>": 4130, "memor ial</w>": 4131, "feat ures</w>": 4132, "su stain": 4133, "' .</w>": 4134, "gra b</w>": 4135, "jo se": 4136, "v a": 4137, "con serv": 4138, "se ts</w>": 4139, "man chester</w>": 4140, "fi ghting</w>": 4141, "de gre": 4142, "ag a</w>": 4143, "in d</w>": 4144, "sle ep": 4145, "pos ition</w>": 4146, "ha ir": 4147, "sig ns</w>": 4148, "pol icy</w>": 4149, "it o</w>": 4150, "al ert</w>": 4151, "st am": 4152, "sp end</w>": 4153, "w y": 4154, "absol ut": 4155, "d m</w>": 4156, "anim al</w>": 4157, "my ster": 4158, "success ful</w>": 4159, "proble ms</w>": 4160, "ro bo": 4161, "k ay": 4162, "gar den": 4163, "p d</w>": 4164, "may or</w>": 4165, "d ale</w>": 4166, "t ol": 4167, "off ers</w>": 4168, "vis iting</w>": 4169, "friend ly</w>": 4170, "tre es</w>": 4171, "offic er</w>": 4172, "accoun t</w>": 4173, "ke vin</w>": 4174, "\u00f0\u0141\u0133 \u012f": 4175, "gi ant</w>": 4176, "contin u": 4177, "con su": 4178, "tr act</w>": 4179, "n fl</w>": 4180, "\u00f0\u0141\u013a \u012c": 4181, "h q</w>": 4182, "b ility</w>": 4183, "a ar": 4184, "dis ney</w>": 4185, "te en</w>": 4186, "on ed</w>": 4187, "wh ite": 4188, "tra iler</w>": 4189, "de dic": 4190, "al one</w>": 4191, "absolut ely</w>": 4192, "dig ital": 4193, "willi am</w>": 4194, "in ation</w>": 4195, "s wa": 4196, "e e</w>": 4197, "enti re</w>": 4198, "ger man</w>": 4199, "ro ll": 4200, "h its</w>": 4201, "co st</w>": 4202, "st ay": 4203, "th a</w>": 4204, "ali ve</w>": 4205, "accor ding</w>": 4206, "co t": 4207, "liter ally</w>": 4208, "her it": 4209, "re ti": 4210, "haha ha</w>": 4211, "exper i": 4212, "li kes</w>": 4213, "g t</w>": 4214, "ste el</w>": 4215, "__ __": 4216, "ch air": 4217, "christi an</w>": 4218, "to wer</w>": 4219, "diffe rence</w>": 4220, "m d</w>": 4221, "tre ss</w>": 4222, "mi d</w>": 4223, "prin ce</w>": 4224, "afric an</w>": 4225, "fe der": 4226, "foo t</w>": 4227, "car ri": 4228, "ser ved</w>": 4229, "r ice</w>": 4230, "sh all</w>": 4231, "feat ured</w>": 4232, "ck er</w>": 4233, "rec ru": 4234, "po e": 4235, "sen se</w>": 4236, "ni fic": 4237, "com edy</w>": 4238, "cont ent</w>": 4239, "f at": 4240, "po sted</w>": 4241, "con tribu": 4242, "tim ate</w>": 4243, "li ver": 4244, "mb le</w>": 4245, "inter net</w>": 4246, "ag e": 4247, "europe an</w>": 4248, "cl ing</w>": 4249, "gla d</w>": 4250, "ff ic": 4251, "sc o</w>": 4252, "ak es</w>": 4253, "el le</w>": 4254, "ter min": 4255, "ton y</w>": 4256, "p ale": 4257, "col our</w>": 4258, "seri ous</w>": 4259, "pat ri": 4260, "movi es</w>": 4261, "b m": 4262, "professi onal</w>": 4263, "ad o": 4264, "al u": 4265, "br inging</w>": 4266, "f alls</w>": 4267, "isra el</w>": 4268, "ter m</w>": 4269, "langu age</w>": 4270, "bro ok": 4271, "man n</w>": 4272, "commun ic": 4273, "can not</w>": 4274, "ac ti": 4275, "p he": 4276, "y an</w>": 4277, "entrepre ne": 4278, "tur key</w>": 4279, "log ical</w>": 4280, "lon g": 4281, "ar m</w>": 4282, "ur s</w>": 4283, "work ers</w>": 4284, "ing ly</w>": 4285, "gg s</w>": 4286, "ri c</w>": 4287, "tu al</w>": 4288, "recei ve</w>": 4289, "op ens</w>": 4290, "ge ar</w>": 4291, "soci al": 4292, "fe et</w>": 4293, "c king</w>": 4294, "ad ver": 4295, "fin an": 4296, "fe els</w>": 4297, "sp la": 4298, "h r": 4299, "ea ster</w>": 4300, "bra in</w>": 4301, "\u00e3 \u0123": 4302, "fi g": 4303, "le dge</w>": 4304, "ne arly</w>": 4305, "prote ct</w>": 4306, "ma ssive</w>": 4307, "e th": 4308, "aw a": 4309, "\u00f0\u0141\u013a \u0123</w>": 4310, "y rs</w>": 4311, "aware ness</w>": 4312, "defin itely</w>": 4313, "k n": 4314, "imag ine</w>": 4315, "k u</w>": 4316, "syste ms</w>": 4317, "\u00f0\u0141\u0133 \u0131</w>": 4318, "f as": 4319, "li k": 4320, "provi de</w>": 4321, "am o": 4322, "disco ver</w>": 4323, "inf lu": 4324, "ma ker</w>": 4325, "g az": 4326, "fit ness</w>": 4327, "stre et": 4328, "er s": 4329, "te d": 4330, "w c": 4331, "ys is</w>": 4332, "pos itive</w>": 4333, "hel ped</w>": 4334, "que st</w>": 4335, "andre w</w>": 4336, "bra d": 4337, "b in": 4338, "hang ing</w>": 4339, "l ing": 4340, "bri ght</w>": 4341, "se ction</w>": 4342, "ma ss</w>": 4343, "\u00f0\u0141\u013b \u012e</w>": 4344, "follow ers</w>": 4345, "ho sting</w>": 4346, "tem por": 4347, "fla g</w>": 4348, "a ve</w>": 4349, "let ter</w>": 4350, "k ur": 4351, "re qui": 4352, "of ten</w>": 4353, "cry p": 4354, "su ff": 4355, "\u00e2\u013c \u00bd": 4356, "russi an</w>": 4357, "treat ment</w>": 4358, "al le": 4359, "ha y": 4360, "l an</w>": 4361, "keep ing</w>": 4362, "hol y</w>": 4363, "power ful</w>": 4364, "pre dic": 4365, "fun d</w>": 4366, "e specially</w>": 4367, "windo w</w>": 4368, "je wel": 4369, "il y": 4370, "\u00f0\u0141\u0134 \u013e</w>": 4371, "gener ation</w>": 4372, "app a": 4373, "seri ously</w>": 4374, "o d": 4375, "\u00f0\u0141\u013a\u0124\u00f0\u0141\u013a\u0124 \u00f0\u0141\u013a\u0124</w>": 4376, "cer ti": 4377, "iri sh</w>": 4378, "\u00f0\u0141\u0133 \u012e": 4379, "mi ami</w>": 4380, "be th</w>": 4381, "v ity</w>": 4382, "se cu": 4383, "che f</w>": 4384, "cri me</w>": 4385, "graph y</w>": 4386, "ma x": 4387, "arti sts</w>": 4388, "re volu": 4389, "gu ard</w>": 4390, "spee ch</w>": 4391, "u c": 4392, "upd ates</w>": 4393, "fac es</w>": 4394, "st ant</w>": 4395, "chang ed</w>": 4396, "repor ts</w>": 4397, "low er</w>": 4398, "pe ar": 4399, "n c</w>": 4400, "k il": 4401, "loo ked</w>": 4402, "spe aker</w>": 4403, "s f</w>": 4404, "re spect</w>": 4405, "ok ay</w>": 4406, "oce an</w>": 4407, "s itting</w>": 4408, "architec ture</w>": 4409, "tra il</w>": 4410, "se at</w>": 4411, "i ra": 4412, "le g</w>": 4413, "japan ese</w>": 4414, "d am</w>": 4415, "u lar</w>": 4416, "sw im": 4417, "polit ics</w>": 4418, "finan cial</w>": 4419, "ol d": 4420, "mou th</w>": 4421, "at temp": 4422, "de stin": 4423, "fi shing</w>": 4424, "atten tion</w>": 4425, "me m": 4426, "chang es</w>": 4427, "deci ded</w>": 4428, "reli gi": 4429, "g in</w>": 4430, "c av": 4431, "z z</w>": 4432, "ad am</w>": 4433, "ma c</w>": 4434, "wr ite</w>": 4435, "beg in</w>": 4436, "sc ul": 4437, "al ter": 4438, "is s</w>": 4439, "ath on</w>": 4440, "imag es</w>": 4441, "m oo": 4442, "jo ined</w>": 4443, "\u00f0\u0141\u013a \u012b</w>": 4444, "\u00e2\u0140 \u00a1\u00ef\u00b8\u0131</w>": 4445, "pas sed</w>": 4446, "mu sli": 4447, "h ir": 4448, "lar gest</w>": 4449, "cam er": 4450, "com ic</w>": 4451, "gh ted</w>": 4452, "rug by</w>": 4453, "bur gh</w>": 4454, "gg ing</w>": 4455, "te sting</w>": 4456, "pre par": 4457, "lau gh": 4458, "al ed</w>": 4459, "impro ve</w>": 4460, "beli ev": 4461, "adv ice</w>": 4462, "sha res</w>": 4463, "he art": 4464, "tur ning</w>": 4465, "s b</w>": 4466, "t el": 4467, "caf e</w>": 4468, "n es</w>": 4469, "dani el</w>": 4470, "pat ter": 4471, "t z</w>": 4472, "se tt": 4473, "par k": 4474, "c and": 4475, "st ick</w>": 4476, "happ ens</w>": 4477, "bri an</w>": 4478, "ne west</w>": 4479, "e pic</w>": 4480, "ad or": 4481, "ki es</w>": 4482, "war ning</w>": 4483, "anim als</w>": 4484, "custo m</w>": 4485, "ar c": 4486, "di an</w>": 4487, "gol d": 4488, "cor e</w>": 4489, "t f</w>": 4490, "c ity": 4491, "pan ts</w>": 4492, "re ality</w>": 4493, "con fi": 4494, "in ju": 4495, "fo x": 4496, "gu il": 4497, "k new</w>": 4498, "\u00e2\u013a \u00ba": 4499, "cor rec": 4500, "itu de</w>": 4501, "d den</w>": 4502, ". #</w>": 4503, "re duc": 4504, "pas s": 4505, "f on": 4506, "y a": 4507, "ow ner</w>": 4508, "re turns</w>": 4509, "n c": 4510, "e ast": 4511, "ap ol": 4512, "in sur": 4513, "th o</w>": 4514, "si m": 4515, "juni or</w>": 4516, "be e</w>": 4517, "ang el": 4518, "att le</w>": 4519, "elec tric</w>": 4520, "hor ror</w>": 4521, "cra sh</w>": 4522, "e ye": 4523, "pat h</w>": 4524, "sou thern</w>": 4525, "emplo ye": 4526, "ge o": 4527, "t an</w>": 4528, "ha z": 4529, "r ally</w>": 4530, "\u00f0\u0141\u0131 \u00bb": 4531, "proper ty</w>": 4532, "was n</w>": 4533, "enjo yed</w>": 4534, "gre y</w>": 4535, "g as": 4536, "bre w": 4537, "nor thern</w>": 4538, "hol ding</w>": 4539, "g p</w>": 4540, "ta ke": 4541, "ch art</w>": 4542, "ly n</w>": 4543, "dr ama</w>": 4544, "z o</w>": 4545, "pa id</w>": 4546, "throw back</w>": 4547, "cu p": 4548, "discu ssion</w>": 4549, "down town</w>": 4550, "w ill": 4551, "le w": 4552, "b is": 4553, "t ary</w>": 4554, "bre ad</w>": 4555, "up on</w>": 4556, "r ate</w>": 4557, "teach ers</w>": 4558, "it ation</w>": 4559, "anc ed</w>": 4560, "cy cle</w>": 4561, "choo se</w>": 4562, "d c": 4563, "ir an</w>": 4564, "co w": 4565, "da ve</w>": 4566, "ra ise</w>": 4567, "prin cess</w>": 4568, "fa ith</w>": 4569, "- ></w>": 4570, "indu stri": 4571, "sp ain</w>": 4572, "guit ar</w>": 4573, "fac ts</w>": 4574, "m n": 4575, "sp en": 4576, "cour te": 4577, "go tt": 4578, "projec ts</w>": 4579, "au di": 4580, "o sc": 4581, "pe ter": 4582, "s and</w>": 4583, "intere st</w>": 4584, "happ iness</w>": 4585, "ven ue</w>": 4586, "sol di": 4587, "surpri se</w>": 4588, "poten tial</w>": 4589, "per io": 4590, "custom er</w>": 4591, "i i": 4592, "g ni": 4593, "manu fac": 4594, "e co": 4595, "bro ken</w>": 4596, "sing er</w>": 4597, "vel s</w>": 4598, "wal es</w>": 4599, "hu s": 4600, "in j": 4601, "f our": 4602, "tal ent</w>": 4603, "d ying</w>": 4604, "mat the": 4605, "fil m": 4606, "jo ining</w>": 4607, "s ell</w>": 4608, "j ar": 4609, "lma o</w>": 4610, "sur ger": 4611, "bb c": 4612, "sour ces</w>": 4613, "au stin</w>": 4614, "ni k": 4615, "char les</w>": 4616, "f am</w>": 4617, "prin ci": 4618, "ange l</w>": 4619, "cas h</w>": 4620, "lo t": 4621, "o red</w>": 4622, "pla ys</w>": 4623, "pl ate</w>": 4624, "don e": 4625, "memor y</w>": 4626, "br ings</w>": 4627, "n ba</w>": 4628, "solu tions</w>": 4629, "teach ing</w>": 4630, "gr ace</w>": 4631, "cir cu": 4632, "hel ps</w>": 4633, "foun der</w>": 4634, "mar y": 4635, "expl ore</w>": 4636, "de cor": 4637, "par ts</w>": 4638, "ch o</w>": 4639, "inte gr": 4640, "ha u": 4641, "is es</w>": 4642, "pu tting</w>": 4643, "in er</w>": 4644, "r it": 4645, "v y</w>": 4646, "mic hel": 4647, "blu es</w>": 4648, "every day</w>": 4649, "for ms</w>": 4650, "bi o</w>": 4651, "ye ar": 4652, "p in</w>": 4653, "t ter</w>": 4654, "spr ing": 4655, ") )</w>": 4656, "po t</w>": 4657, "al ing</w>": 4658, "perform ing</w>": 4659, "sh an": 4660, "plan et</w>": 4661, "mus ical</w>": 4662, "head s</w>": 4663, "it alian</w>": 4664, "stru gg": 4665, "\u00e2\u0122\u012f \u00e2\u013b": 4666, "w ings</w>": 4667, "pu mp": 4668, "h h</w>": 4669, "tr ou": 4670, "a id</w>": 4671, "pri me</w>": 4672, "ear th": 4673, "pa int</w>": 4674, "mon t": 4675, "am y</w>": 4676, "bb c</w>": 4677, "fab ulous</w>": 4678, "fru it</w>": 4679, "andro id</w>": 4680, "bour ne</w>": 4681, "cere mony</w>": 4682, "enti al</w>": 4683, "? ?": 4684, "deb ate</w>": 4685, "on ing</w>": 4686, "dra ft</w>": 4687, "sol ar</w>": 4688, "t x</w>": 4689, "j am</w>": 4690, "cor n": 4691, "!! !!!</w>": 4692, "bro o": 4693, "mil k</w>": 4694, "po sed</w>": 4695, "o hi": 4696, "mo vement</w>": 4697, "b ren": 4698, "part ner": 4699, "p g</w>": 4700, "et te</w>": 4701, "ar ies</w>": 4702, "sh out</w>": 4703, "n g</w>": 4704, "leav ing</w>": 4705, "t ells</w>": 4706, "sen s": 4707, "ta ste</w>": 4708, "kel ly</w>": 4709, "wor l": 4710, "gy m</w>": 4711, "ric h": 4712, "e gy": 4713, "pi d</w>": 4714, "ma s": 4715, "\u00e2 \u0124": 4716, "courte sy</w>": 4717, "fran k</w>": 4718, "incre ase</w>": 4719, "wr itten</w>": 4720, "pp ers</w>": 4721, "re l</w>": 4722, "ha i</w>": 4723, "s as</w>": 4724, "s ound": 4725, "tt i</w>": 4726, "w ich</w>": 4727, "ri ver": 4728, ".. .\"</w>": 4729, "a g</w>": 4730, "fel low</w>": 4731, "ro me</w>": 4732, "sm all": 4733, "gen cy</w>": 4734, "ic an</w>": 4735, "lux ury</w>": 4736, "pro of</w>": 4737, "me t": 4738, "wild life</w>": 4739, "mom ents</w>": 4740, "ra ther</w>": 4741, "cor ner</w>": 4742, "com pe": 4743, "canadi an</w>": 4744, "lik ely</w>": 4745, "therap y</w>": 4746, "li am": 4747, "econom ic</w>": 4748, "indi e": 4749, "rou te</w>": 4750, "fi ght": 4751, "ho pe": 4752, "se tting</w>": 4753, "ant ly</w>": 4754, "cro ss": 4755, "fant asy</w>": 4756, "de e": 4757, "sket ch</w>": 4758, "comp li": 4759, "ym i</w>": 4760, "ru les</w>": 4761, "engine ering</w>": 4762, "fig ure</w>": 4763, "ro w": 4764, ". ,</w>": 4765, "f w</w>": 4766, "syd ney</w>": 4767, "w ou": 4768, "t ation</w>": 4769, "dre w</w>": 4770, "us es</w>": 4771, "the re": 4772, "sp read</w>": 4773, "struc ture</w>": 4774, "pat rick</w>": 4775, "appa rently</w>": 4776, "ro s": 4777, "h ills</w>": 4778, "w we</w>": 4779, "ann y</w>": 4780, "com mission</w>": 4781, "di v": 4782, "f ying</w>": 4783, "con sul": 4784, "anal ysis</w>": 4785, "ex i": 4786, "ten nis</w>": 4787, "vehic le</w>": 4788, "\u00f0\u0141\u013a\u0143 \u00f0\u0141\u013a\u0143": 4789, "as s</w>": 4790, "high ly</w>": 4791, "op ened</w>": 4792, "b ann": 4793, "\u00f0\u0141\u0134 \u013b": 4794, "mp h</w>": 4795, "wi shing</w>": 4796, "v or</w>": 4797, "fi f": 4798, "give away</w>": 4799, "r r": 4800, "ra y": 4801, "je ss": 4802, "g at": 4803, "ic ymi</w>": 4804, "x it</w>": 4805, "high est</w>": 4806, "yor k": 4807, "pi e</w>": 4808, "invol ved</w>": 4809, "high er</w>": 4810, "ri e</w>": 4811, "mal ay": 4812, "int elli": 4813, "desp ite</w>": 4814, "che e": 4815, "sar ah</w>": 4816, "be an</w>": 4817, "reco gni": 4818, "ar sen": 4819, "tal ented</w>": 4820, "pas sion</w>": 4821, "ic h": 4822, "ab c</w>": 4823, "lead s</w>": 4824, "dise ase</w>": 4825, "v is</w>": 4826, "se c</w>": 4827, "pre senting</w>": 4828, "m illi": 4829, "hol e</w>": 4830, "sho ts</w>": 4831, "de part": 4832, "surger y</w>": 4833, "gov t</w>": 4834, "b in</w>": 4835, "du al</w>": 4836, "e vi": 4837, "lon ger</w>": 4838, "ev ol": 4839, "scre en": 4840, "portra it</w>": 4841, "et c</w>": 4842, "lo se</w>": 4843, "ch at": 4844, "p en</w>": 4845, "p i</w>": 4846, "om a</w>": 4847, "s ick</w>": 4848, "er c": 4849, "compan ies</w>": 4850, "en try</w>": 4851, "plan e</w>": 4852, "gr y</w>": 4853, "ven e": 4854, "liver pool</w>": 4855, "premi ere</w>": 4856, "sha red</w>": 4857, "a red</w>": 4858, "fil ms</w>": 4859, "ir a</w>": 4860, "holi days</w>": 4861, "cric ket</w>": 4862, "ici an</w>": 4863, "v ing": 4864, ". )</w>": 4865, "ul timate</w>": 4866, "di vision</w>": 4867, "con duc": 4868, "se pt</w>": 4869, "for ces</w>": 4870, "mon t</w>": 4871, "s mart": 4872, "disa pp": 4873, "sun shine</w>": 4874, "in d": 4875, "b less</w>": 4876, "ma de": 4877, "col ors</w>": 4878, "fran k": 4879, "ir on</w>": 4880, "bott le</w>": 4881, "s go": 4882, "m ood</w>": 4883, "j ason</w>": 4884, "er ic</w>": 4885, "bir th</w>": 4886, "te en": 4887, "respon se</w>": 4888, "tar get</w>": 4889, "state ment</w>": 4890, "fe ar</w>": 4891, "th el": 4892, "al um": 4893, "ar ab": 4894, "bl in</w>": 4895, "direc tion</w>": 4896, "ste ps</w>": 4897, "er ial</w>": 4898, "wor ked</w>": 4899, "at l": 4900, "\u00f0\u0141\u0134 \u0137": 4901, "fel t</w>": 4902, "pol i</w>": 4903, "scen es</w>": 4904, "hom es</w>": 4905, "b ell": 4906, "e at": 4907, "ate ful</w>": 4908, "t in</w>": 4909, "l ace</w>": 4910, "fol ks</w>": 4911, "p se</w>": 4912, "an n</w>": 4913, "wis dom</w>": 4914, "fa v</w>": 4915, "but ter": 4916, "s r</w>": 4917, "are as</w>": 4918, "sm oo": 4919, "bi z</w>": 4920, "dg es</w>": 4921, "app o": 4922, "mo re": 4923, "the m": 4924, "effe ct</w>": 4925, "windo ws</w>": 4926, "sun ny</w>": 4927, "cap ital</w>": 4928, "tot ally</w>": 4929, "c ities</w>": 4930, "gr ant</w>": 4931, "mb ers</w>": 4932, "s low</w>": 4933, "au tu": 4934, "il ities</w>": 4935, "w ro": 4936, "ri sing</w>": 4937, "st ics</w>": 4938, "viol ence</w>": 4939, "i gh</w>": 4940, "qu ot": 4941, "h it": 4942, "t c</w>": 4943, "herit age</w>": 4944, "bu ff": 4945, "ne s": 4946, "z ar": 4947, "den tial</w>": 4948, "ex ac": 4949, "ed ge</w>": 4950, "de ep": 4951, "aren a</w>": 4952, "be came</w>": 4953, "benef its</w>": 4954, "mar ks</w>": 4955, "mb er": 4956, "a z</w>": 4957, "am es</w>": 4958, "pre ci": 4959, "dra gon</w>": 4960, "re g": 4961, "d ings</w>": 4962, "do s</w>": 4963, "\u00f0\u0141\u0134 \u00aa": 4964, "n el": 4965, "s ity</w>": 4966, "me al</w>": 4967, "di st": 4968, "leg end": 4969, "pur chase</w>": 4970, "pic al</w>": 4971, "st ick": 4972, "f at</w>": 4973, "du ba": 4974, "profe ss": 4975, "car to": 4976, "pro f</w>": 4977, "coun tries</w>": 4978, "respon si": 4979, "se qu": 4980, "fa b</w>": 4981, "tribu te</w>": 4982, "hon ored</w>": 4983, "prac tic": 4984, "pur ple</w>": 4985, "an ton": 4986, "pa red</w>": 4987, "t ough</w>": 4988, "summ er": 4989, "environ ment</w>": 4990, "s ons</w>": 4991, "\u00f0\u0141\u013b \u0131</w>": 4992, "m ps</w>": 4993, "gi es</w>": 4994, "her oes</w>": 4995, "t elling</w>": 4996, "hen ry</w>": 4997, "f en": 4998, "know ledge</w>": 4999, "\u0122 \u00ef\u00b8\u0131</w>": 5000, "f r</w>": 5001, "ne g": 5002, "u re": 5003, "ac king</w>": 5004, "hear ts</w>": 5005, "s oo": 5006, "hol lywood</w>": 5007, "ju mp": 5008, "sau ce</w>": 5009, "schedu le</w>": 5010, "tur n": 5011, "yo ga</w>": 5012, "cre ating</w>": 5013, "c ket</w>": 5014, "cre ek</w>": 5015, "\u00e2 \u0143": 5016, "custom ers</w>": 5017, "ma dri": 5018, "gu l": 5019, "asse mb": 5020, "moun t</w>": 5021, "c ell</w>": 5022, "to p": 5023, "st al</w>": 5024, "dav is</w>": 5025, "t wi": 5026, "sig n": 5027, "premi er</w>": 5028, "iti ons</w>": 5029, "he aring</w>": 5030, "un k</w>": 5031, "pati ents</w>": 5032, "app ear": 5033, "heav en</w>": 5034, "al ty</w>": 5035, "doc tor</w>": 5036, "a e": 5037, "plat form</w>": 5038, "je ff</w>": 5039, "\u00f0\u0141\u0135 \u00b7</w>": 5040, "regi onal</w>": 5041, "bi d</w>": 5042, "box ing</w>": 5043, "ex ten": 5044, "or ity</w>": 5045, "a w</w>": 5046, "w ise</w>": 5047, "il le</w>": 5048, "sever al</w>": 5049, "bi e": 5050, "s itu": 5051, "sy ria</w>": 5052, "\u00e2\u013e \u0127</w>": 5053, "remin der</w>": 5054, "enter tain": 5055, "li on</w>": 5056, "part ners</w>": 5057, "in n</w>": 5058, "ph ar": 5059, "f au": 5060, "pl s</w>": 5061, "expe cted</w>": 5062, "sug ar</w>": 5063, "deci sion</w>": 5064, "s b": 5065, "ch ron": 5066, "associ ation</w>": 5067, "leav es</w>": 5068, "vis ited</w>": 5069, "sh ap": 5070, "\u00f0\u0141\u0134 \u0138</w>": 5071, "fur ther</w>": 5072, "h ann": 5073, "w i</w>": 5074, "run s</w>": 5075, "l er": 5076, "fun ding</w>": 5077, "fil led</w>": 5078, ".. ....</w>": 5079, "tin y</w>": 5080, "han g</w>": 5081, "or g</w>": 5082, "co ol": 5083, "se min": 5084, "\u00f0\u0141\u0131 \u0128</w>": 5085, "spon s": 5086, "nav y</w>": 5087, "sa int</w>": 5088, "dru g</w>": 5089, "d al</w>": 5090, "r oun": 5091, "co vered</w>": 5092, "tra ditional</w>": 5093, "invest ment</w>": 5094, "de te": 5095, "al ism</w>": 5096, "f low</w>": 5097, "n is": 5098, "sun rise</w>": 5099, "fe at</w>": 5100, "f ted</w>": 5101, "we ird</w>": 5102, "je re": 5103, "ve gan</w>": 5104, "medic ine</w>": 5105, "an o": 5106, "ac cu": 5107, "deli very</w>": 5108, "temp le</w>": 5109, "chang ing</w>": 5110, "wil son</w>": 5111, "phili pp": 5112, "re fe": 5113, "n d": 5114, "is er</w>": 5115, "g ay</w>": 5116, "r and": 5117, "ati ves</w>": 5118, "t ely</w>": 5119, "p and": 5120, "intelli g": 5121, "g are": 5122, "am bas": 5123, "de mon": 5124, "commit tee</w>": 5125, "strate gy</w>": 5126, "refu ge": 5127, "bud get</w>": 5128, "prote c": 5129, "pi er": 5130, "ex press</w>": 5131, "nom in": 5132, "econom y</w>": 5133, "al low": 5134, "ic on</w>": 5135, "gal ax": 5136, "o h": 5137, "indi vi": 5138, "dem and</w>": 5139, "vir gin": 5140, "lu ke</w>": 5141, "ali sts</w>": 5142, "man i": 5143, "s mi": 5144, "ju dge</w>": 5145, "ent y</w>": 5146, "mic hi": 5147, "resul t</w>": 5148, "am ed</w>": 5149, "spe aks</w>": 5150, "' ,</w>": 5151, "hou ston</w>": 5152, "sh in": 5153, "b ing</w>": 5154, "fl y": 5155, "ch em": 5156, "au to</w>": 5157, "v as": 5158, "ge t": 5159, "ar m": 5160, "thank s": 5161, "d in</w>": 5162, "gan g</w>": 5163, "x x": 5164, "si on": 5165, "loc ated</w>": 5166, "p l</w>": 5167, "jo sh</w>": 5168, "in fo": 5169, "jo ins</w>": 5170, "adver ti": 5171, "ot d</w>": 5172, "el d</w>": 5173, "si e</w>": 5174, "re asons</w>": 5175, "v ent</w>": 5176, "\u00f0\u0141\u0129\u00ba\u00f0\u0141\u0129 \u00b8</w>": 5177, "\u00e2 \u0142": 5178, "convers ation</w>": 5179, "stu di": 5180, "\u00f0\u0141\u0136\u00a5 \u00f0\u0141\u0136\u00a5": 5181, "go s</w>": 5182, "s ounds</w>": 5183, "un it</w>": 5184, "mu sc": 5185, "ge l</w>": 5186, "ack ed</w>": 5187, "pac i": 5188, "co s</w>": 5189, "de re": 5190, "u u": 5191, "a o</w>": 5192, "la m</w>": 5193, "inspir ing</w>": 5194, "ar ms</w>": 5195, "tw are</w>": 5196, "mat ters</w>": 5197, "ad dic": 5198, "du de</w>": 5199, "ex t": 5200, "cri sis</w>": 5201, "b ath</w>": 5202, "me et": 5203, "sing h</w>": 5204, "expe ct</w>": 5205, "del hi</w>": 5206, "resc ue</w>": 5207, "wor st</w>": 5208, "au g</w>": 5209, "shi pping</w>": 5210, "ser ving</w>": 5211, "st o</w>": 5212, "dar k": 5213, "ac es</w>": 5214, "histor ic</w>": 5215, "landsc ape</w>": 5216, "desig ner</w>": 5217, "b illion</w>": 5218, "gr ateful</w>": 5219, "wa ke</w>": 5220, "e ve": 5221, "m iller</w>": 5222, "hou sing</w>": 5223, "dy nam": 5224, "is co</w>": 5225, "be ha": 5226, "sh op": 5227, "pr ou": 5228, "e as": 5229, "a sia</w>": 5230, "e ding</w>": 5231, "k on": 5232, "depart ment</w>": 5233, "aw ar": 5234, "mar ine</w>": 5235, "in ci": 5236, "photograph er</w>": 5237, "ta pe</w>": 5238, "lo go</w>": 5239, "r ings</w>": 5240, "d it": 5241, "-- --": 5242, "vin yl</w>": 5243, "w c</w>": 5244, "vo ting</w>": 5245, "se ven</w>": 5246, "ambas sad": 5247, "dal las</w>": 5248, "t u</w>": 5249, "com ment</w>": 5250, "k ra": 5251, "b les</w>": 5252, "w ag": 5253, "u d</w>": 5254, "au dio</w>": 5255, "stri ke</w>": 5256, "offici al": 5257, "o ts</w>": 5258, "me tho": 5259, "to ols</w>": 5260, "ra di": 5261, "al an</w>": 5262, "hun t</w>": 5263, "wat ched</w>": 5264, "a ke</w>": 5265, "fa ke</w>": 5266, "drin king</w>": 5267, "mer ry</w>": 5268, "m l</w>": 5269, "b day</w>": 5270, "ri o</w>": 5271, "ni ke</w>": 5272, "c ant</w>": 5273, "re pe": 5274, "co stu": 5275, "mur der</w>": 5276, "ak ers</w>": 5277, "ch ers</w>": 5278, "ou ts</w>": 5279, "beg inning</w>": 5280, "so s</w>": 5281, "ad es</w>": 5282, "n in": 5283, "not es</w>": 5284, "wro te</w>": 5285, "sol o</w>": 5286, "c i</w>": 5287, "li ghting</w>": 5288, "ur ban</w>": 5289, "bre xit</w>": 5290, "att end</w>": 5291, "shir ts</w>": 5292, "pla yo": 5293, "ac tress</w>": 5294, "pl ic": 5295, "stand ard</w>": 5296, "quot es</w>": 5297, "par ade</w>": 5298, "anci ent</w>": 5299, "\u00c2 \u00a9</w>": 5300, "tur ing</w>": 5301, "re e</w>": 5302, "pri mary</w>": 5303, "fla sh</w>": 5304, "citi z": 5305, "mat es</w>": 5306, "ste in</w>": 5307, "z i</w>": 5308, "clin ton</w>": 5309, "sk in": 5310, "gen e": 5311, "hu m": 5312, "g ar</w>": 5313, "t le</w>": 5314, "y i": 5315, "fo cu": 5316, "de an</w>": 5317, "pl ants</w>": 5318, "cy ber": 5319, "b u</w>": 5320, "om e</w>": 5321, "ho p</w>": 5322, "ad dress</w>": 5323, "ti x</w>": 5324, "gi fts</w>": 5325, "relation ship</w>": 5326, "sub scri": 5327, "fe ed</w>": 5328, "exac tly</w>": 5329, "haw ks</w>": 5330, "ex o</w>": 5331, "stre ss</w>": 5332, "s n</w>": 5333, "arre sted</w>": 5334, "an e": 5335, "sof tware</w>": 5336, "z ero</w>": 5337, "the me</w>": 5338, "mu mb": 5339, "im migr": 5340, "mi a</w>": 5341, "make up</w>": 5342, "ple asure</w>": 5343, "uni vers": 5344, "har b": 5345, "eng ine</w>": 5346, "ap er</w>": 5347, "r in": 5348, "br a</w>": 5349, "institu te</w>": 5350, "le ather</w>": 5351, "al th</w>": 5352, "sing ing</w>": 5353, "co s": 5354, "gh ty</w>": 5355, "me as": 5356, "st ic": 5357, "si de": 5358, "insur ance</w>": 5359, "co t</w>": 5360, "pit ch</w>": 5361, "moun tains</w>": 5362, "cri min": 5363, "su pre": 5364, "valent ine</w>": 5365, "at er</w>": 5366, "wou ldn</w>": 5367, "sc ale</w>": 5368, "rel ated</w>": 5369, "re gar": 5370, "star tup</w>": 5371, "pack ed</w>": 5372, "mi ke": 5373, "week ly</w>": 5374, "p ts</w>": 5375, "coun t</w>": 5376, "ha r</w>": 5377, "gott en</w>": 5378, "min d": 5379, "ber lin</w>": 5380, "con ditions</w>": 5381, "swit ch</w>": 5382, "cor n</w>": 5383, "sa ve": 5384, "g li": 5385, "emer gency</w>": 5386, "tun ed</w>": 5387, "sto ck": 5388, "discu ssing</w>": 5389, "every body</w>": 5390, "s day": 5391, "whe ther</w>": 5392, "wrest ling</w>": 5393, "ec es</w>": 5394, "gen der</w>": 5395, "ch en": 5396, "\u00f0\u0141\u0133 \u0122</w>": 5397, "madri d</w>": 5398, "mar athon</w>": 5399, "e gg</w>": 5400, "i er</w>": 5401, "th x</w>": 5402, "as king</w>": 5403, "kore a</w>": 5404, "wol f</w>": 5405, "ay a</w>": 5406, "g m</w>": 5407, "g au": 5408, "at ory</w>": 5409, "v r</w>": 5410, "gra ss</w>": 5411, "k illing</w>": 5412, "b ble</w>": 5413, "ur o</w>": 5414, "un i</w>": 5415, "e th</w>": 5416, "sh ore</w>": 5417, "th en": 5418, "re ale": 5419, "bot tom</w>": 5420, "ex erc": 5421, "k ar</w>": 5422, "or ies</w>": 5423, "ad ri": 5424, "san ds</w>": 5425, "se x</w>": 5426, ". '</w>": 5427, "volunte ers</w>": 5428, "per form</w>": 5429, "par liam": 5430, "inclu de</w>": 5431, "deli ghted</w>": 5432, "execu tive</w>": 5433, "fu el</w>": 5434, "kis s</w>": 5435, "\u00e3 \u0127": 5436, "char ge</w>": 5437, "h u</w>": 5438, "ca kes</w>": 5439, "ve t</w>": 5440, "g lu": 5441, "agre e</w>": 5442, "pr ices</w>": 5443, "n au": 5444, "h l</w>": 5445, "g ru": 5446, "ra j": 5447, "streng th</w>": 5448, "b ic": 5449, "sp ending</w>": 5450, "al es</w>": 5451, "av en": 5452, "b last</w>": 5453, ": (</w>": 5454, "yo f": 5455, "nor mal</w>": 5456, "si x": 5457, "qu ick": 5458, "se a": 5459, "d aw": 5460, "mee ts</w>": 5461, "lo vers</w>": 5462, "upd ated</w>": 5463, "po tat": 5464, "comple ted</w>": 5465, "coo k</w>": 5466, "opportun ities</w>": 5467, "p ure</w>": 5468, "organ ic</w>": 5469, "tem per": 5470, "c am</w>": 5471, "avo id</w>": 5472, "par king</w>": 5473, "duba i</w>": 5474, "and o</w>": 5475, "di stri": 5476, "to y</w>": 5477, "comple tely</w>": 5478, "don ald": 5479, "tri al</w>": 5480, "bas s</w>": 5481, "b oun": 5482, "back ground</w>": 5483, "v as</w>": 5484, "mar vel</w>": 5485, "lu m</w>": 5486, "ru s</w>": 5487, "t ool</w>": 5488, "com missi": 5489, "throw back": 5490, "fin ding</w>": 5491, "is lam": 5492, "! ?</w>": 5493, "st op": 5494, "e vil</w>": 5495, "or al</w>": 5496, "resi dents</w>": 5497, "i denti": 5498, "o ak": 5499, "\u00f0\u0141\u0130 \u00b6</w>": 5500, "l il": 5501, "span ish</w>": 5502, "chap ter</w>": 5503, "sto pped</w>": 5504, "direc t</w>": 5505, "ho sted</w>": 5506, "pic ked</w>": 5507, "lab our</w>": 5508, "lew is</w>": 5509, "defen se</w>": 5510, "\u00e0 \u00ae": 5511, "health care</w>": 5512, "wh is": 5513, "mat h</w>": 5514, "pe ak</w>": 5515, "ra ised</w>": 5516, "fi x</w>": 5517, "bu ll</w>": 5518, "th ir": 5519, "chel sea</w>": 5520, "fol k</w>": 5521, "tr e</w>": 5522, "can di": 5523, "pau l": 5524, "ei ther</w>": 5525, "ad am": 5526, "poe try</w>": 5527, "jewel ry</w>": 5528, "\u00f0\u0141 \u00a6": 5529, "pr ay</w>": 5530, "\u00d8 \u00a7": 5531, "g c</w>": 5532, "o z</w>": 5533, "wi shes</w>": 5534, "fore ign</w>": 5535, "sun g</w>": 5536, "lear ned</w>": 5537, "en e</w>": 5538, "n ing": 5539, "micha el": 5540, "illu stration</w>": 5541, "legend ary</w>": 5542, "w av": 5543, "b au": 5544, "\u00f0\u0141\u013c \u00a8</w>": 5545, "cal end": 5546, "stre ets</w>": 5547, "\u00e2 \u0128": 5548, "mon ster</w>": 5549, "bu ck": 5550, "g r</w>": 5551, "scho ol": 5552, "ba th": 5553, "wa ste</w>": 5554, "ne ck": 5555, "ha wa": 5556, "be ach": 5557, "re plac": 5558, "jec t</w>": 5559, "on er</w>": 5560, "fac tory</w>": 5561, "coun t": 5562, "\u00f0\u0141\u0135 \u00b8</w>": 5563, "mor gan</w>": 5564, "der ing</w>": 5565, "se an</w>": 5566, "steph en</w>": 5567, "de p": 5568, "no vel</w>": 5569, "vide os</w>": 5570, "ic al": 5571, "press ure</w>": 5572, "arsen al</w>": 5573, "ex pre": 5574, "ir s</w>": 5575, "tren ding</w>": 5576, "ss a</w>": 5577, "fla sh": 5578, "re sear": 5579, "thr ough": 5580, "profess or</w>": 5581, "scul p": 5582, "to s</w>": 5583, "gg ed</w>": 5584, "mm a</w>": 5585, "be e": 5586, "a pe": 5587, "hun ter</w>": 5588, "am i": 5589, "he i": 5590, "pla stic</w>": 5591, "bu cks</w>": 5592, "uni verse</w>": 5593, "le gen": 5594, "niger ia</w>": 5595, "ple ased</w>": 5596, "ri s": 5597, "thin ks</w>": 5598, "autu mn</w>": 5599, "i ds</w>": 5600, "d is</w>": 5601, "anth ony</w>": 5602, "\u00f0\u0141\u0131 \u00bd</w>": 5603, "ak ed</w>": 5604, "gla sses</w>": 5605, "fin ance</w>": 5606, "z er": 5607, "k as": 5608, "con tract</w>": 5609, "nu mbers</w>": 5610, "sh aw": 5611, "partner ship</w>": 5612, "t il": 5613, "laun ched</w>": 5614, "s al</w>": 5615, "victor ia</w>": 5616, "theat er</w>": 5617, "usu al</w>": 5618, "nam es</w>": 5619, "perio d</w>": 5620, "eli za": 5621, "i th": 5622, "bar cel": 5623, "ro cks</w>": 5624, "bag s</w>": 5625, "mat e": 5626, "distri bu": 5627, "j on</w>": 5628, "di ffic": 5629, "ali zed</w>": 5630, "cur ren": 5631, "sco red</w>": 5632, "b ha": 5633, "du blin</w>": 5634, "ro se": 5635, "in ted</w>": 5636, "soli d</w>": 5637, "beha vi": 5638, "wal ker</w>": 5639, "simp ly</w>": 5640, "garden s</w>": 5641, "head ed</w>": 5642, "in i": 5643, "ohi o</w>": 5644, "we ap": 5645, "f o</w>": 5646, "gl en": 5647, "e state</w>": 5648, "ran dom</w>": 5649, "th under": 5650, "thr u</w>": 5651, "k ill": 5652, "jac ket</w>": 5653, "it i</w>": 5654, "entertain ment</w>": 5655, "thanks giving</w>": 5656, "ent al</w>": 5657, "en coura": 5658, "el o": 5659, "a ther": 5660, "tan k</w>": 5661, "high lights</w>": 5662, "f ting</w>": 5663, "ru le</w>": 5664, "model s</w>": 5665, "bor der</w>": 5666, "bj p</w>": 5667, "hus band</w>": 5668, "in done": 5669, "ken ya</w>": 5670, "be ars</w>": 5671, "al o</w>": 5672, "n inten": 5673, "pi x": 5674, "str o</w>": 5675, "or ders</w>": 5676, "sal ad</w>": 5677, "ro ads</w>": 5678, "n or</w>": 5679, "l ation</w>": 5680, "sop hi": 5681, "\u00f0\u0141\u0131 \u00bc": 5682, "pi eces</w>": 5683, "b one</w>": 5684, "min s</w>": 5685, "inclu des</w>": 5686, "nu tr": 5687, "phi l</w>": 5688, "s ent": 5689, "fun dra": 5690, "ga in</w>": 5691, "bor ough</w>": 5692, "n ad": 5693, "mon day": 5694, "activ ity</w>": 5695, "it ems</w>": 5696, "be coming</w>": 5697, "ken ne": 5698, "de tro": 5699, "car di": 5700, "gue sts</w>": 5701, "u x</w>": 5702, "world wide</w>": 5703, "sever e</w>": 5704, "new s": 5705, "thank ful</w>": 5706, "fic tion</w>": 5707, "ve ge": 5708, "m all</w>": 5709, "si an</w>": 5710, "er al</w>": 5711, "inj ury</w>": 5712, "le e": 5713, "men u</w>": 5714, "danc ing</w>": 5715, "scot ti": 5716, "exam ple</w>": 5717, "( #</w>": 5718, "na i": 5719, "studi os</w>": 5720, "ba i": 5721, "\u00f0\u0141\u0134 \u013d</w>": 5722, "j av": 5723, "diam ond</w>": 5724, "vin ce</w>": 5725, "ric k": 5726, "prote ction</w>": 5727, "lin col": 5728, "cham ps</w>": 5729, "appro ach</w>": 5730, "d ar</w>": 5731, "m ile</w>": 5732, "clou ds</w>": 5733, "je ff": 5734, "in fin": 5735, "l ers</w>": 5736, "p les</w>": 5737, "pe ace": 5738, "go p</w>": 5739, "\u00e2\u013b \u00a1</w>": 5740, "tech n": 5741, "str a</w>": 5742, "a verage</w>": 5743, "ef fort</w>": 5744, "introduc ing</w>": 5745, "di versity</w>": 5746, "austr alian</w>": 5747, "am p</w>": 5748, "boo st</w>": 5749, "s ke": 5750, "pati ent</w>": 5751, "appreci ate</w>": 5752, "ici ans</w>": 5753, "pu r</w>": 5754, "f ell</w>": 5755, "woo ds</w>": 5756, "illu str": 5757, "\u00f0\u0141 \u0138": 5758, "ag ency</w>": 5759, "ac tions</w>": 5760, "brit ain</w>": 5761, "under way</w>": 5762, "se attle</w>": 5763, "el and</w>": 5764, "ag o": 5765, "f ill</w>": 5766, "stre aming</w>": 5767, "pro test</w>": 5768, "challeng es</w>": 5769, "ky o</w>": 5770, "et sy</w>": 5771, "coo king</w>": 5772, "exper t</w>": 5773, "ru ss": 5774, "rain bow</w>": 5775, "commer cial</w>": 5776, "sp in": 5777, "be ats</w>": 5778, "c ry</w>": 5779, "val u": 5780, "el i</w>": 5781, "th row</w>": 5782, "gr ams</w>": 5783, "le vels</w>": 5784, "michi gan</w>": 5785, "c ad": 5786, "ador able</w>": 5787, "const itu": 5788, "w s": 5789, "pu b</w>": 5790, "mid night</w>": 5791, "th at": 5792, "net fli": 5793, "braz il</w>": 5794, "die go</w>": 5795, "regu lar</w>": 5796, "jo y": 5797, "\u00e2\u0124 \u00ac</w>": 5798, "li qu": 5799, "ea stern</w>": 5800, "k ni": 5801, "fl at</w>": 5802, "n p</w>": 5803, "bro wn": 5804, "w er": 5805, "se y": 5806, "tt ers</w>": 5807, "ac ting</w>": 5808, "v anc": 5809, "cy cling</w>": 5810, "program me</w>": 5811, "ra w</w>": 5812, "comple x</w>": 5813, "tat too</w>": 5814, "throwback thursday</w>": 5815, "se ssions</w>": 5816, "ro oms</w>": 5817, "si ght</w>": 5818, "speci es</w>": 5819, "bom b</w>": 5820, "lau gh</w>": 5821, "ke eps</w>": 5822, "mo on": 5823, "offic ers</w>": 5824, "con ver": 5825, "t r</w>": 5826, "ha sh": 5827, "t ack": 5828, "ri ous</w>": 5829, "ad ap": 5830, "a j</w>": 5831, "reco gn": 5832, "ex po</w>": 5833, "sug ge": 5834, "confir med</w>": 5835, "rol ling</w>": 5836, "dre ssing</w>": 5837, "ic t</w>": 5838, "fri day": 5839, "ph ones</w>": 5840, "ri dge</w>": 5841, "con cept</w>": 5842, "ro y</w>": 5843, "ke ys</w>": 5844, "ef for": 5845, "c ate": 5846, "k ne": 5847, "ev en": 5848, "l ay</w>": 5849, "commun ities</w>": 5850, "mo d": 5851, "n az": 5852, "every where</w>": 5853, "al ab": 5854, "bit coin</w>": 5855, "ban ks</w>": 5856, "out door</w>": 5857, "feder al</w>": 5858, "sto res</w>": 5859, "h p</w>": 5860, "c al</w>": 5861, "m ely</w>": 5862, "sig nific": 5863, "be ar": 5864, "re public": 5865, "clo ser</w>": 5866, "al lah</w>": 5867, "pic k": 5868, "x d</w>": 5869, "pal ace</w>": 5870, "ch ill</w>": 5871, "b am": 5872, "er ous</w>": 5873, "un a</w>": 5874, "al len</w>": 5875, "out standing</w>": 5876, "olym pic</w>": 5877, "supp ly</w>": 5878, "fi gu": 5879, "v au": 5880, "l p</w>": 5881, "char lie</w>": 5882, "un es</w>": 5883, "> >></w>": 5884, "legen ds</w>": 5885, "ici al</w>": 5886, "co ast": 5887, "benef it</w>": 5888, "mul ti</w>": 5889, "f its</w>": 5890, "far mers</w>": 5891, "am ount</w>": 5892, "si sters</w>": 5893, "har ve": 5894, "hon ey</w>": 5895, "que en": 5896, "b ers</w>": 5897, "pl ann": 5898, "\u00e2\u0143 \u0132": 5899, "m u</w>": 5900, "barcel ona</w>": 5901, "al ber": 5902, "stat us</w>": 5903, "re main</w>": 5904, "ex tra": 5905, "c andy</w>": 5906, "vi ous</w>": 5907, "\u00e2\u013e \u012e": 5908, "o v": 5909, "warri ors</w>": 5910, "-- ></w>": 5911, "ju mp</w>": 5912, "am ar": 5913, "x mas</w>": 5914, "stu dies</w>": 5915, "i ors</w>": 5916, "k or": 5917, "don ate</w>": 5918, "pre p": 5919, "fi sh": 5920, "im a</w>": 5921, "pain ted</w>": 5922, "ad mini": 5923, "co splay</w>": 5924, "spor ts": 5925, "dro ps</w>": 5926, "fi ghter</w>": 5927, "evi dence</w>": 5928, "\u00f0\u0141\u0134 \u00aa</w>": 5929, "la ke": 5930, "ro b</w>": 5931, "cine ma</w>": 5932, "pro file</w>": 5933, "\u00c3 \u00b1": 5934, "stan ds</w>": 5935, "leg acy</w>": 5936, "sh ape</w>": 5937, "ro of</w>": 5938, "ci vil</w>": 5939, "i ans</w>": 5940, "sy l": 5941, "sh am": 5942, "vo ted</w>": 5943, "re tail</w>": 5944, "ph illi": 5945, "li sted</w>": 5946, "du ty</w>": 5947, "n b": 5948, "th es</w>": 5949, "f are</w>": 5950, "au ction</w>": 5951, "ffici al</w>": 5952, "stor ms</w>": 5953, "d p</w>": 5954, "l oun": 5955, "sh ops</w>": 5956, "al y": 5957, "ani me</w>": 5958, "multi ple</w>": 5959, "\u00f0\u0141\u013a\u012f \u00f0\u0141\u013a\u012f</w>": 5960, "psy cho": 5961, "je an</w>": 5962, "ap art": 5963, "candi date</w>": 5964, "gg y</w>": 5965, "con f</w>": 5966, "jose ph</w>": 5967, "w ick</w>": 5968, "me at</w>": 5969, "fr ame</w>": 5970, "c l</w>": 5971, "for got</w>": 5972, "ph y": 5973, "f ing": 5974, "li ed</w>": 5975, "re p</w>": 5976, "se ed</w>": 5977, "f all": 5978, "u fc</w>": 5979, "nu t</w>": 5980, "lin d": 5981, "mo de</w>": 5982, "fiel ds</w>": 5983, "en ce": 5984, "s ley</w>": 5985, "\u00f0\u0141\u00a4 \u0136</w>": 5986, "ch ill": 5987, "follow ed</w>": 5988, "announ ces</w>": 5989, "cor ru": 5990, "tro phy</w>": 5991, "them selves</w>": 5992, "ac le</w>": 5993, "al du": 5994, "k ong</w>": 5995, "l on</w>": 5996, "s v": 5997, "bro ke</w>": 5998, "ander son</w>": 5999, "ta i": 6000, "stor y": 6001, "tempor ary</w>": 6002, "activ ities</w>": 6003, "k ati": 6004, "ari z": 6005, "cry stal</w>": 6006, "spo ke</w>": 6007, "extre mely</w>": 6008, "tra ding</w>": 6009, "\u00f0\u0141\u0134 \u013c</w>": 6010, "\u00c3 \u00bc": 6011, "in ch</w>": 6012, "ed in": 6013, "out fit</w>": 6014, "equ ip": 6015, "ma di": 6016, "form ed</w>": 6017, "be ef</w>": 6018, "po p": 6019, "ti ger</w>": 6020, "this day</w>": 6021, "ti red</w>": 6022, "neigh b": 6023, "re tro": 6024, "is a</w>": 6025, "un t</w>": 6026, "t as": 6027, "kan sas</w>": 6028, "de st": 6029, "secon ds</w>": 6030, "ta y": 6031, "hur ric": 6032, "o u</w>": 6033, "galax y</w>": 6034, "dad dy</w>": 6035, "bro w": 6036, "bur ger</w>": 6037, "en ced</w>": 6038, "de sk</w>": 6039, "ac cur": 6040, "secre tary</w>": 6041, "el ite</w>": 6042, "k ab": 6043, "ch in": 6044, "touri sm</w>": 6045, "bud dy</w>": 6046, "ici de</w>": 6047, "dre ssed</w>": 6048, "u d": 6049, "vac ation</w>": 6050, "che ers</w>": 6051, "com for": 6052, "charac ters</w>": 6053, "j et</w>": 6054, "bu ying</w>": 6055, "l ins</w>": 6056, "n ap": 6057, "reale state</w>": 6058, "li e": 6059, "af c</w>": 6060, "i ii</w>": 6061, "f ame</w>": 6062, "n r": 6063, "b at</w>": 6064, "ag ent</w>": 6065, "ma kers</w>": 6066, "\u00e2\u0122 \u00bc": 6067, "sec tor</w>": 6068, "op ti": 6069, "le on": 6070, "di et</w>": 6071, "pra yer</w>": 6072, "hi p</w>": 6073, "mi r</w>": 6074, "le x": 6075, "br y": 6076, "an a": 6077, "pas sing</w>": 6078, "w en": 6079, "reco very</w>": 6080, "ak i</w>": 6081, "po pul": 6082, "res ort</w>": 6083, "mar ia</w>": 6084, "stu ck</w>": 6085, "read s</w>": 6086, "ti er</w>": 6087, "perfe c": 6088, "netfli x</w>": 6089, "p oo": 6090, "cham p</w>": 6091, "o c</w>": 6092, "re duce</w>": 6093, "we red</w>": 6094, "comm ents</w>": 6095, "cla im</w>": 6096, "acci dent</w>": 6097, "s ag": 6098, "h ack": 6099, "sal t</w>": 6100, "kin da</w>": 6101, "k iller</w>": 6102, "i os</w>": 6103, "z y": 6104, "ex change</w>": 6105, "lec ture</w>": 6106, "eng er</w>": 6107, "ic king</w>": 6108, "t au": 6109, "reve als</w>": 6110, "pri son</w>": 6111, "z om": 6112, "gh an</w>": 6113, "u l</w>": 6114, "jour nal</w>": 6115, "i ot</w>": 6116, "tr in": 6117, "jon a": 6118, "govern or</w>": 6119, "cap e</w>": 6120, "quar ter</w>": 6121, "spec tive</w>": 6122, "impre ssive</w>": 6123, "bab ies</w>": 6124, "t x": 6125, "m ill</w>": 6126, "o y": 6127, "har ri": 6128, "jo int</w>": 6129, "su e</w>": 6130, "collabor ation</w>": 6131, "tren d</w>": 6132, "revolu tion</w>": 6133, "re new": 6134, "alum ni</w>": 6135, "ge tt": 6136, "sh ell</w>": 6137, "sun day": 6138, "ent u": 6139, "ni c</w>": 6140, "donald trump</w>": 6141, "block chain</w>": 6142, "paci fic</w>": 6143, "expla ins</w>": 6144, "sp y</w>": 6145, "ad voc": 6146, "par adi": 6147, "to f": 6148, "star ring</w>": 6149, "p av": 6150, "fe ed": 6151, "br ac": 6152, "smo ke</w>": 6153, "ham p": 6154, "y am": 6155, "to kyo</w>": 6156, "si mon</w>": 6157, "d h": 6158, "e ffici": 6159, "phys ical</w>": 6160, "n j</w>": 6161, "ell i</w>": 6162, "s low": 6163, "gradu ate</w>": 6164, "americ ans</w>": 6165, "ti fy</w>": 6166, "f red</w>": 6167, "ap ore</w>": 6168, "fin ds</w>": 6169, "rob in": 6170, "we t</w>": 6171, "not ice</w>": 6172, "se mi</w>": 6173, "un ve": 6174, "k om": 6175, "pil ot</w>": 6176, "scre ening</w>": 6177, "da ily": 6178, "\u00f0\u0141\u0134 \u0139</w>": 6179, "roy al": 6180, "sp a</w>": 6181, "vo tes</w>": 6182, "n ag": 6183, "wh ate": 6184, "att ending</w>": 6185, "exper im": 6186, "ad dition</w>": 6187, "k ate</w>": 6188, "sto l</w>": 6189, "m ali": 6190, "foo t": 6191, "chri st</w>": 6192, "ch an</w>": 6193, "de e</w>": 6194, "lic en": 6195, "glo bal": 6196, "mo ore</w>": 6197, "ti a</w>": 6198, "bri gh": 6199, "myster y</w>": 6200, "y ay</w>": 6201, "\u00e2\u013f\u00a4\u00ef\u00b8\u0131 \u00e2\u013f\u00a4\u00ef\u00b8\u0131": 6202, "cre ati": 6203, "me chan": 6204, "clo ck</w>": 6205, "di c</w>": 6206, "\u00e2\u0122 \u0136": 6207, "pp er": 6208, "al ph": 6209, "through out</w>": 6210, "al low</w>": 6211, "re sources</w>": 6212, "selec tion</w>": 6213, "ham il": 6214, "bb q</w>": 6215, "aa aa": 6216, "virgin ia</w>": 6217, "dis ney": 6218, "en g</w>": 6219, "so red</w>": 6220, "drin ks</w>": 6221, "f ancy</w>": 6222, "consi der</w>": 6223, "end a</w>": 6224, "jan e</w>": 6225, "hand made</w>": 6226, "du l": 6227, "on tari": 6228, "i us</w>": 6229, "s ville</w>": 6230, "color ado</w>": 6231, "whate ver</w>": 6232, "whe el</w>": 6233, "promis e</w>": 6234, "ne ver": 6235, "desig ns</w>": 6236, "ab ly</w>": 6237, "sex ual</w>": 6238, "vanc ou": 6239, "at i</w>": 6240, "con vention</w>": 6241, "cul tural</w>": 6242, "sing apore</w>": 6243, "pro mo</w>": 6244, "load ed</w>": 6245, "gla sgo": 6246, "pp l</w>": 6247, "n oo": 6248, "ke e</w>": 6249, "ste m</w>": 6250, "men tion</w>": 6251, "i do": 6252, "cru ise</w>": 6253, "ri ding</w>": 6254, "be comes</w>": 6255, "be y</w>": 6256, "\u00e2\u013c\u00bd \u00ef\u00b8\u0131</w>": 6257, "tw in</w>": 6258, "dedic ated</w>": 6259, "na sh": 6260, "de si": 6261, "work out</w>": 6262, "jen ni": 6263, "i v": 6264, "grou ps</w>": 6265, "rela x": 6266, "pho eni": 6267, "li ft</w>": 6268, "mix ed</w>": 6269, "m ck": 6270, "p c": 6271, "mu st": 6272, "me tro</w>": 6273, "ci es</w>": 6274, "y ar": 6275, "a im": 6276, "ang er</w>": 6277, "i e": 6278, "rec y": 6279, "marri ed</w>": 6280, "dro pped</w>": 6281, "eng ag": 6282, "le st</w>": 6283, "ambassad or</w>": 6284, "op h": 6285, "de s": 6286, "w ick": 6287, "assi stant</w>": 6288, "nat ur": 6289, "fa il</w>": 6290, "l td</w>": 6291, "shor t": 6292, "k ap": 6293, "sha w</w>": 6294, "bi gger</w>": 6295, "rema ins</w>": 6296, "crit ical</w>": 6297, "sur vey</w>": 6298, "co verage</w>": 6299, "er son</w>": 6300, "win d": 6301, "n b</w>": 6302, "bil ly</w>": 6303, "let es</w>": 6304, "ac ts</w>": 6305, "jim my</w>": 6306, "at lan": 6307, "al and</w>": 6308, "t c": 6309, "import ance</w>": 6310, "dam age</w>": 6311, "f g</w>": 6312, "stor age</w>": 6313, "tw t</w>": 6314, "bon d</w>": 6315, "bal ance</w>": 6316, "cr ying</w>": 6317, "pu ppy</w>": 6318, "vo te": 6319, "pu sh</w>": 6320, "\u00f0\u0141\u0134 \u013e": 6321, "pol y": 6322, "me l</w>": 6323, "lon don": 6324, "terr ori": 6325, "effec tive</w>": 6326, "corpor ate</w>": 6327, "atl anta</w>": 6328, "jac o": 6329, "nas a</w>": 6330, "gre ek</w>": 6331, "sen ate</w>": 6332, "i sh": 6333, "ev a</w>": 6334, "intellig ence</w>": 6335, "effor ts</w>": 6336, "al co": 6337, "k un": 6338, "h all": 6339, "di ag": 6340, "claim s</w>": 6341, "fir st": 6342, "h b": 6343, "ba e</w>": 6344, "v ul": 6345, "pu ll</w>": 6346, "\u00c2 \u00b0</w>": 6347, "se par": 6348, "spe ed": 6349, "vic ti": 6350, "on thisday</w>": 6351, "audi ence</w>": 6352, "r ates</w>": 6353, "te ach</w>": 6354, "fil ming</w>": 6355, "bu sh</w>": 6356, "son g": 6357, "y um": 6358, "br un": 6359, "ra ine</w>": 6360, "aw a</w>": 6361, "par ks</w>": 6362, "\u00f0 \u013f": 6363, "ra bb": 6364, "ra ch": 6365, "ra id</w>": 6366, "reach ed</w>": 6367, "ra il</w>": 6368, "mo ves</w>": 6369, "selec ted</w>": 6370, "fr i</w>": 6371, "ra ising</w>": 6372, "om y</w>": 6373, "st ones</w>": 6374, "su k</w>": 6375, "franc isco</w>": 6376, "cas es</w>": 6377, "cap it": 6378, "con fu": 6379, "w tf</w>": 6380, "po ke": 6381, "equip ment</w>": 6382, "gre g": 6383, "ess ential</w>": 6384, "off ering</w>": 6385, "ne x": 6386, "pi es</w>": 6387, "be c": 6388, "cre ation</w>": 6389, "chair man</w>": 6390, "cro wn</w>": 6391, "w al</w>": 6392, "john ny</w>": 6393, "shi ft</w>": 6394, "ne ck</w>": 6395, "ban g</w>": 6396, "bir d": 6397, "\u00f0\u0141\u013a \u0131</w>": 6398, "du ck</w>": 6399, "re serve</w>": 6400, "de pu": 6401, "ma sters</w>": 6402, "over all</w>": 6403, "no tic": 6404, "ju ice</w>": 6405, "sne ak</w>": 6406, "che er</w>": 6407, "cla sses</w>": 6408, "eag les</w>": 6409, "n ca": 6410, "car pet</w>": 6411, "ci vil": 6412, "coach es</w>": 6413, "har ris</w>": 6414, "u ps</w>": 6415, "b alls</w>": 6416, "dec or</w>": 6417, "mar tin": 6418, "ro s</w>": 6419, "v ice</w>": 6420, "announ cement</w>": 6421, "who se</w>": 6422, "ti gers</w>": 6423, "ste red</w>": 6424, "c ts</w>": 6425, "dr am": 6426, "ste el": 6427, "youn g": 6428, "inst all": 6429, "supp o": 6430, "recor ding</w>": 6431, "de ck</w>": 6432, "se ats</w>": 6433, "l der</w>": 6434, "ang le</w>": 6435, "bo t</w>": 6436, "sty les</w>": 6437, "elec tions</w>": 6438, "for tun": 6439, "n ab": 6440, "but ter</w>": 6441, "ari an</w>": 6442, "ka sh": 6443, "in ner</w>": 6444, "ou red</w>": 6445, "be ast</w>": 6446, "we i": 6447, "ic onic</w>": 6448, "exper ts</w>": 6449, "ne cess": 6450, "b eng": 6451, "jam es": 6452, "li a</w>": 6453, "gre ece</w>": 6454, "\u00f0\u0141\u0135 \u00b7": 6455, "\u00f0\u0141\u013a \u0123": 6456, "good bye</w>": 6457, "m itch": 6458, "tw ice</w>": 6459, "mumb ai</w>": 6460, "ste am</w>": 6461, "ru sh</w>": 6462, "med al</w>": 6463, "ne tt</w>": 6464, "fashi on": 6465, "t ar</w>": 6466, "r s": 6467, "sav ing</w>": 6468, "ric ul": 6469, "l m": 6470, "sleep ing</w>": 6471, "brook lyn</w>": 6472, "mis s": 6473, "sen ding</w>": 6474, "disco vered</w>": 6475, "sp here</w>": 6476, "of theday</w>": 6477, "k icks</w>": 6478, "missi ons</w>": 6479, "w right</w>": 6480, "er n": 6481, "ght ly</w>": 6482, "i ous</w>": 6483, "mel bourne</w>": 6484, "star tu": 6485, "mo ved</w>": 6486, "car ry</w>": 6487, "d ak": 6488, "ag ues</w>": 6489, "bel gi": 6490, "e ma": 6491, "way ne</w>": 6492, "do t</w>": 6493, "er ie</w>": 6494, "pe l</w>": 6495, "it unes</w>": 6496, "matthe w</w>": 6497, "no body</w>": 6498, "est ab": 6499, "cal m</w>": 6500, "win ds</w>": 6501, "lu c": 6502, "prep are</w>": 6503, "tren ds</w>": 6504, "exerc ise</w>": 6505, "adv ant": 6506, "\u00f0\u0141\u0134 \u00af</w>": 6507, "athle tics</w>": 6508, "app s</w>": 6509, "c tions</w>": 6510, "adv ance</w>": 6511, "laun ches</w>": 6512, "litt le": 6513, "real donaldtrump</w>": 6514, "eliza beth</w>": 6515, "carol ina</w>": 6516, "hu b</w>": 6517, "hi dden</w>": 6518, "n w</w>": 6519, "us er</w>": 6520, "pol l</w>": 6521, "great er</w>": 6522, "mo st": 6523, "f ed</w>": 6524, "p at</w>": 6525, "life style</w>": 6526, "s ati": 6527, "sco res</w>": 6528, "marri age</w>": 6529, "l r</w>": 6530, "aven ue</w>": 6531, "de serve</w>": 6532, "ri f": 6533, "\u00f0\u0141 \u0139": 6534, "wat ch": 6535, "champion ships</w>": 6536, "gr ay</w>": 6537, "en ni": 6538, "cot ton</w>": 6539, "g om": 6540, "whe re": 6541, "pack age</w>": 6542, "su m": 6543, "ab solu": 6544, "new ly</w>": 6545, "foo ds</w>": 6546, "ty ler</w>": 6547, "assemb ly</w>": 6548, "musli m</w>": 6549, "ban k": 6550, "re memb": 6551, "op tions</w>": 6552, "produc er</w>": 6553, "land o</w>": 6554, "fun ds</w>": 6555, "u pper</w>": 6556, "shad ow</w>": 6557, "pro gre": 6558, "co p</w>": 6559, "ing e</w>": 6560, "leg s</w>": 6561, "detro it</w>": 6562, "hill ary</w>": 6563, "jo se</w>": 6564, "gi ants</w>": 6565, "sou p</w>": 6566, "sustain able</w>": 6567, "t us</w>": 6568, "clo thes</w>": 6569, "roc king</w>": 6570, "n z</w>": 6571, "min ne": 6572, "mat eri": 6573, "bru ce</w>": 6574, "ear t": 6575, "ca sting</w>": 6576, "independ ent</w>": 6577, "thou sands</w>": 6578, "ta h</w>": 6579, "de cl": 6580, "veter ans</w>": 6581, "li ons</w>": 6582, "wra p</w>": 6583, "\u00e2\u0122 \u00a6": 6584, "de ss": 6585, "bl ing</w>": 6586, "st ine</w>": 6587, "e ggs</w>": 6588, "o on</w>": 6589, "clo sing</w>": 6590, "z ay": 6591, "at t</w>": 6592, "bac on</w>": 6593, "fa il": 6594, "ariz ona</w>": 6595, "de pre": 6596, "gho st</w>": 6597, "new sp": 6598, "w ers</w>": 6599, "vi p</w>": 6600, "li ked</w>": 6601, "id ent": 6602, "volunte er</w>": 6603, "ad ult</w>": 6604, "pu pp": 6605, "cir cle</w>": 6606, "mat erial</w>": 6607, "degre e</w>": 6608, "gro wn</w>": 6609, "boo m</w>": 6610, "calend ar</w>": 6611, "su r</w>": 6612, "vie wing</w>": 6613, "ath letes</w>": 6614, "ch and": 6615, "re ll</w>": 6616, "asi an</w>": 6617, "en tr": 6618, "vol ley": 6619, "victi ms</w>": 6620, "bo dy": 6621, "m ama</w>": 6622, "trans fer</w>": 6623, "ge ek</w>": 6624, "in dic": 6625, "sav ed</w>": 6626, "ma i": 6627, "g ent</w>": 6628, "it s": 6629, "loun ge</w>": 6630, "k ol": 6631, "the ory</w>": 6632, "situ ation</w>": 6633, "is lands</w>": 6634, "ar th": 6635, "z oo</w>": 6636, "floo d</w>": 6637, "vi ously</w>": 6638, "show ed</w>": 6639, "parliam ent</w>": 6640, "ch ev": 6641, "el ine</w>": 6642, "at trac": 6643, "ab ad</w>": 6644, "ta il": 6645, "h rs</w>": 6646, "lu s</w>": 6647, "por tu": 6648, "gor y</w>": 6649, "provi des</w>": 6650, "to ys</w>": 6651, "de ath": 6652, "in fe": 6653, "an ce": 6654, "g le": 6655, "li am</w>": 6656, "lo ver</w>": 6657, "hu d": 6658, "dv d</w>": 6659, "reve aled</w>": 6660, "g w": 6661, "re ment</w>": 6662, "ca the": 6663, "l ying</w>": 6664, "ra dio": 6665, "der by</w>": 6666, "stor s</w>": 6667, "che mi": 6668, "hosp it": 6669, "\u00e2\u013e \u00a8": 6670, "' :</w>": 6671, "ilo ve": 6672, "le mon</w>": 6673, "re public</w>": 6674, "s ni": 6675, "ne ss": 6676, "do or": 6677, "re action</w>": 6678, "pre gn": 6679, "fla v": 6680, "schol ar": 6681, "spo tify</w>": 6682, "is ation</w>": 6683, "vis ual</w>": 6684, "aw are</w>": 6685, "spon sored</w>": 6686, "jo ke</w>": 6687, "less ons</w>": 6688, "leg is": 6689, "lo ck": 6690, "si mil": 6691, "\u00f0\u0141\u013a \u012d</w>": 6692, "kin d": 6693, "la y": 6694, "ma h": 6695, "ho ping</w>": 6696, "vancou ver</w>": 6697, "as er</w>": 6698, "clean ing</w>": 6699, "gal a</w>": 6700, "thre at</w>": 6701, "la p": 6702, "ach e</w>": 6703, "ro mance</w>": 6704, "ex pen": 6705, "re post</w>": 6706, "z am": 6707, "e pi": 6708, "mir ror</w>": 6709, "o ak</w>": 6710, "ad ul": 6711, "bat man</w>": 6712, "s lu": 6713, "l c</w>": 6714, "vie wed</w>": 6715, "re views</w>": 6716, "d ates</w>": 6717, "indone sia</w>": 6718, "acti vi": 6719, "off en": 6720, "lea f</w>": 6721, "i si": 6722, "ag ricul": 6723, "costu me</w>": 6724, "s ites</w>": 6725, "spir itu": 6726, "appear ance</w>": 6727, "ir y</w>": 6728, "st air": 6729, "applic ation</w>": 6730, "spec tac": 6731, "ic ity</w>": 6732, "ski es</w>": 6733, "hand le</w>": 6734, "pun k</w>": 6735, "paradi se</w>": 6736, "t n</w>": 6737, "de al": 6738, "provi ding</w>": 6739, "do c</w>": 6740, "recei ving</w>": 6741, "bre w</w>": 6742, "micro soft</w>": 6743, "\u00c3 \u00b6": 6744, "fer r": 6745, "me tro": 6746, "th ail": 6747, "y um</w>": 6748, "car ter</w>": 6749, "\u00c3 \u00a1": 6750, "gent le": 6751, "bre aks</w>": 6752, "coo per": 6753, "show case</w>": 6754, "cu tting</w>": 6755, "egy pt</w>": 6756, "bab y": 6757, "semin ar</w>": 6758, "gl ori": 6759, "ss on</w>": 6760, "fa ve</w>": 6761, "re hear": 6762, "lo tte</w>": 6763, "la dy": 6764, "al as": 6765, "pre p</w>": 6766, "deli vered</w>": 6767, "nu clear</w>": 6768, "ir o</w>": 6769, "engag ement</w>": 6770, "at ta": 6771, "con ven": 6772, "z an": 6773, "gl ory</w>": 6774, "hol ds</w>": 6775, "busine sses</w>": 6776, "str ange</w>": 6777, "sch e</w>": 6778, "it self</w>": 6779, "gra d</w>": 6780, "mar kets</w>": 6781, "f alling</w>": 6782, "st ats</w>": 6783, "ge on</w>": 6784, "bu dd": 6785, "li s": 6786, "she et</w>": 6787, "thi si": 6788, "co lo": 6789, "deser t</w>": 6790, "regi stration</w>": 6791, "ig n": 6792, "expla in</w>": 6793, "inter ior</w>": 6794, "la ws</w>": 6795, "writ ers</w>": 6796, "spr ings</w>": 6797, "k r": 6798, "fri ed</w>": 6799, "blo om": 6800, "inf ra": 6801, "a o": 6802, "cre d": 6803, "pa st": 6804, "line up</w>": 6805, "bo o</w>": 6806, "bre a": 6807, "boo ts</w>": 6808, "celebr ity</w>": 6809, "att acks</w>": 6810, "bro ok</w>": 6811, "ev es</w>": 6812, "ex cu": 6813, "cher ry</w>": 6814, "oo p</w>": 6815, "fas cin": 6816, "boy friend</w>": 6817, "se as": 6818, "n ine</w>": 6819, "effec ts</w>": 6820, "po wered</w>": 6821, "k ha": 6822, "\u00f0\u0141\u013a \u0122</w>": 6823, "sh out": 6824, "con dition</w>": 6825, "i j": 6826, "her o": 6827, "enter pri": 6828, "win ter": 6829, "applic ations</w>": 6830, "sho e</w>": 6831, "g el": 6832, "batt le": 6833, "pro grams</w>": 6834, "w art</w>": 6835, "\u00f0\u0141\u0134 \u00a5</w>": 6836, "ra p</w>": 6837, "ho l</w>": 6838, "dang erous</w>": 6839, "di a": 6840, "coun ter</w>": 6841, "ric s</w>": 6842, "i or": 6843, "k night</w>": 6844, "co at</w>": 6845, "emo tional</w>": 6846, "at ures</w>": 6847, "d as</w>": 6848, "whe el": 6849, "fore cast</w>": 6850, "tran sport</w>": 6851, "glasgo w</w>": 6852, "king dom</w>": 6853, "prepar ing</w>": 6854, "im medi": 6855, "ff in</w>": 6856, "awar ded</w>": 6857, "prin ting</w>": 6858, "ro man</w>": 6859, "fight ers</w>": 6860, "any more</w>": 6861, "bel t</w>": 6862, "p ine</w>": 6863, "win e": 6864, "x i</w>": 6865, "employe es</w>": 6866, "logi es</w>": 6867, "al led</w>": 6868, "de mo</w>": 6869, "birth day": 6870, "ange les</w>": 6871, "lo g</w>": 6872, "dri vers</w>": 6873, "neck lace</w>": 6874, "k ath": 6875, "s it": 6876, "athle te</w>": 6877, "ef s</w>": 6878, "s burg</w>": 6879, "pur pose</w>": 6880, "resi stance</w>": 6881, "rele ases</w>": 6882, "t is</w>": 6883, "vari ous</w>": 6884, "deli ver</w>": 6885, "ch al": 6886, "s anc": 6887, "opp o": 6888, "cra w": 6889, "neu ro": 6890, "dr a</w>": 6891, "suppor ters</w>": 6892, "sna p</w>": 6893, "diffic ult</w>": 6894, "swe ar</w>": 6895, "logi st</w>": 6896, "pa th": 6897, "attemp t</w>": 6898, "\u00e0 \u00a5": 6899, "swim ming</w>": 6900, "ste ve": 6901, "hur t</w>": 6902, "inclu ded</w>": 6903, "b ap": 6904, "wa re": 6905, "\u00f0\u0141\u0134 \u012d</w>": 6906, "end ers</w>": 6907, "ja ke</w>": 6908, "le eds</w>": 6909, "cli mb": 6910, "l b</w>": 6911, "im ple": 6912, "li sa</w>": 6913, "clo thing</w>": 6914, "\u00f0\u0141\u013a \u0130": 6915, "d t</w>": 6916, "com pla": 6917, "sw ing</w>": 6918, "stra w": 6919, "v als</w>": 6920, "k le</w>": 6921, "us ers</w>": 6922, "stor m": 6923, "cu ts</w>": 6924, "ontari o</w>": 6925, "p an</w>": 6926, "hand some</w>": 6927, "i ow": 6928, "ar gu": 6929, "chec king</w>": 6930, "scotti sh</w>": 6931, "\u0136 \u00ef\u00b8\u0131</w>": 6932, "si er</w>": 6933, "em ma</w>": 6934, "po d</w>": 6935, "patter n</w>": 6936, "de sh</w>": 6937, "en h": 6938, "ed ward</w>": 6939, "t ing": 6940, "k h</w>": 6941, "hal f": 6942, "lincol n</w>": 6943, "mo ther": 6944, "al leg": 6945, "r c</w>": 6946, "volley ball</w>": 6947, "d n</w>": 6948, "g ay": 6949, "all y": 6950, "le ton</w>": 6951, "gro ve</w>": 6952, "l oud</w>": 6953, "adv anced</w>": 6954, "re spec": 6955, "cli ent</w>": 6956, "supre me</w>": 6957, "thail and</w>": 6958, "ho w": 6959, "gi g</w>": 6960, "to i": 6961, "do t": 6962, "dol lar</w>": 6963, "\u00f0\u0141\u0133 \u0129</w>": 6964, "p it</w>": 6965, "r b</w>": 6966, "h n</w>": 6967, "produc ed</w>": 6968, "gg ers</w>": 6969, "\u00e2\u0128 \u0134</w>": 6970, "ml b</w>": 6971, "can vas</w>": 6972, "fin eart": 6973, "us d</w>": 6974, "in the": 6975, "p son</w>": 6976, "actu al</w>": 6977, "s l</w>": 6978, "t b</w>": 6979, "ip ad</w>": 6980, "en sure</w>": 6981, "u mb": 6982, "w d</w>": 6983, "sk a</w>": 6984, "mar s</w>": 6985, "k end": 6986, "f eli": 6987, "th ing": 6988, "count down</w>": 6989, "absolu te</w>": 6990, "r out": 6991, "dra l</w>": 6992, "p y</w>": 6993, "inju red</w>": 6994, "min t</w>": 6995, "hun ting</w>": 6996, "mm er</w>": 6997, "s age</w>": 6998, "li gh": 6999, "ac ity</w>": 7000, "ex pan": 7001, "mur ray</w>": 7002, "ar o": 7003, "sec ure</w>": 7004, "four th</w>": 7005, "eag le</w>": 7006, "reli ef</w>": 7007, "st akes</w>": 7008, "industri al</w>": 7009, "clar k</w>": 7010, "under standing</w>": 7011, "see m</w>": 7012, "pl enty</w>": 7013, "sil ver": 7014, "cla u": 7015, "thre at": 7016, "sa il": 7017, "pro duce</w>": 7018, "ab str": 7019, "is is</w>": 7020, "b r</w>": 7021, "eng ers</w>": 7022, "wor ry</w>": 7023, "bie ber</w>": 7024, "s j": 7025, "just in": 7026, "reali ze</w>": 7027, "ky le</w>": 7028, "esp n</w>": 7029, "fil ter</w>": 7030, "s ch</w>": 7031, "ty pes</w>": 7032, "game dev</w>": 7033, "d ing": 7034, "twit ter": 7035, "soldi ers</w>": 7036, "p om": 7037, "car bon</w>": 7038, "y ards</w>": 7039, "child hood</w>": 7040, "ri ed</w>": 7041, "ke l</w>": 7042, "ele ph": 7043, "t ons</w>": 7044, "key note</w>": 7045, "qui et</w>": 7046, "wi re": 7047, "po sting</w>": 7048, "is sa</w>": 7049, "repre senting</w>": 7050, "bac ks</w>": 7051, "alex ander</w>": 7052, "celebr ates</w>": 7053, "ta ining</w>": 7054, "| |</w>": 7055, "ch or": 7056, "esc ape</w>": 7057, "pe ek</w>": 7058, "ti ves</w>": 7059, "fiel d": 7060, "ssi e</w>": 7061, "im pac": 7062, "spons or</w>": 7063, "r c": 7064, "we dd": 7065, "cann ab": 7066, "si des</w>": 7067, "trac ks</w>": 7068, "com par": 7069, "con trac": 7070, "techn ical</w>": 7071, "bi ble</w>": 7072, "expl oring</w>": 7073, "sh are": 7074, "tra v": 7075, "n ate</w>": 7076, "ill o</w>": 7077, "sc ru": 7078, "m ingham</w>": 7079, "gun s</w>": 7080, "of the": 7081, "sh ame</w>": 7082, "se es</w>": 7083, "ca tho": 7084, "ac cess": 7085, "ce l</w>": 7086, "repor ted</w>": 7087, "\u00c2 \u00bb</w>": 7088, "mari o</w>": 7089, "p ad</w>": 7090, "hope fully</w>": 7091, "ou se</w>": 7092, "y on</w>": 7093, "disapp o": 7094, "ol o</w>": 7095, "p itt": 7096, "pa c</w>": 7097, "ga p</w>": 7098, "cru sh</w>": 7099, "s g</w>": 7100, "k le": 7101, "ge m</w>": 7102, "emp ire</w>": 7103, "dir ty</w>": 7104, "a is": 7105, "avi ation</w>": 7106, "ze aland</w>": 7107, "fac ing</w>": 7108, "high way</w>": 7109, "d anny</w>": 7110, "spi der</w>": 7111, "ot ta": 7112, "\u00f0\u0141\u013a \u0126</w>": 7113, "w y</w>": 7114, "col ours</w>": 7115, "in fl": 7116, "co sts</w>": 7117, "olym pics</w>": 7118, "au s</w>": 7119, "h m</w>": 7120, "ho ward</w>": 7121, "pas ses</w>": 7122, "lau ren</w>": 7123, "mu sh": 7124, "op in": 7125, "r ho": 7126, "disc ount</w>": 7127, "oper ation</w>": 7128, "em ily</w>": 7129, "mm m</w>": 7130, "cham ber</w>": 7131, "d il": 7132, "to yo": 7133, "shi p": 7134, "sam u": 7135, "pic tured</w>": 7136, "un ic": 7137, "po l</w>": 7138, "keep er</w>": 7139, "carto on</w>": 7140, "st en": 7141, "ig nor": 7142, "n ations</w>": 7143, "n l</w>": 7144, "ta sting</w>": 7145, "deta il</w>": 7146, "offici als</w>": 7147, "mo tor</w>": 7148, "franc is</w>": 7149, "ed itor</w>": 7150, "\u00f0\u0141\u0133 \u0129": 7151, "pe ts</w>": 7152, "rang ers</w>": 7153, "t g": 7154, "r n</w>": 7155, "w ri": 7156, "nic hol": 7157, "i se": 7158, "spo ts</w>": 7159, "ani e</w>": 7160, "chec k": 7161, "tri ple</w>": 7162, "ku mar</w>": 7163, "spe akers</w>": 7164, "ic ing</w>": 7165, "pre pared</w>": 7166, "ab use</w>": 7167, "friend ship</w>": 7168, "mon th": 7169, "swi m</w>": 7170, "air e</w>": 7171, "sc ent</w>": 7172, "hamil ton</w>": 7173, "indi an": 7174, "j es": 7175, "yum my</w>": 7176, "te ars</w>": 7177, "da wn</w>": 7178, "i zed</w>": 7179, "worl ds</w>": 7180, "\u00f0\u0141 \u0137": 7181, "b illi": 7182, "st one": 7183, "n hs</w>": 7184, "ba sic</w>": 7185, "p or</w>": 7186, "st le</w>": 7187, "ir on": 7188, "ol der</w>": 7189, "cle vel": 7190, "e ing</w>": 7191, "\u00f0\u0141\u013a\u012f\u00f0\u0141\u013a\u012f \u00f0\u0141\u013a\u012f</w>": 7192, "prin ts</w>": 7193, "fir m</w>": 7194, "air craft</w>": 7195, "fin est</w>": 7196, "devel op</w>": 7197, "aar on</w>": 7198, "t z": 7199, "gra ham</w>": 7200, "own ers</w>": 7201, "fo li": 7202, "less on</w>": 7203, "qu es</w>": 7204, "bab e</w>": 7205, "cra ft": 7206, "ph en": 7207, "ju n</w>": 7208, "bir mingham</w>": 7209, "v ine</w>": 7210, "ll er</w>": 7211, "i an": 7212, "fineart america</w>": 7213, "evol u": 7214, "st ab": 7215, "im per": 7216, "war d": 7217, "com ic": 7218, "wi z": 7219, "inv ited</w>": 7220, "du ke</w>": 7221, "mat ch": 7222, "por ts</w>": 7223, "ro ger</w>": 7224, "diag no": 7225, "ke pt</w>": 7226, "te st": 7227, "vis u": 7228, "r hy": 7229, "so c</w>": 7230, "to x": 7231, "b aker</w>": 7232, "sur face</w>": 7233, "co vers</w>": 7234, "man s</w>": 7235, "b its</w>": 7236, "x box</w>": 7237, "ff le</w>": 7238, "n an</w>": 7239, "gar d": 7240, "h art</w>": 7241, "wat ers</w>": 7242, "v illa</w>": 7243, "re tro</w>": 7244, "light ning</w>": 7245, "catho lic</w>": 7246, "democr acy</w>": 7247, "neigh bor": 7248, "pen n": 7249, "cr an": 7250, "jona than</w>": 7251, "la ura</w>": 7252, "vi bes</w>": 7253, "su b</w>": 7254, "coach ing</w>": 7255, "clear ly</w>": 7256, "uk raine</w>": 7257, "bra ve</w>": 7258, "commit ment</w>": 7259, "t all</w>": 7260, "mar t</w>": 7261, "ra p": 7262, "mo di</w>": 7263, "sco tt": 7264, "bro s</w>": 7265, "show er</w>": 7266, "\u00f0\u0141\u0131 \u00be</w>": 7267, "\u00e2\u013a\u00ba \u00ef\u00b8\u0131</w>": 7268, "cou sin</w>": 7269, "appro ach": 7270, "br e</w>": 7271, "com pos": 7272, "hil ari": 7273, "phil ly</w>": 7274, "g ad": 7275, "quick ly</w>": 7276, "ri an</w>": 7277, "t m</w>": 7278, "vir tual</w>": 7279, "hou ses</w>": 7280, "k t</w>": 7281, "phoeni x</w>": 7282, "w ire</w>": 7283, "ff y</w>": 7284, "b unch</w>": 7285, "anc ing</w>": 7286, "tal e</w>": 7287, "snap chat</w>": 7288, "star ter</w>": 7289, "h t</w>": 7290, "k icking</w>": 7291, "ap art</w>": 7292, "th y": 7293, ") !</w>": 7294, "blo gger</w>": 7295, "it z</w>": 7296, "com fort</w>": 7297, "ang els</w>": 7298, "w ash</w>": 7299, "\" :</w>": 7300, "ar gent": 7301, "re quest</w>": 7302, "hon est": 7303, "mi ghty</w>": 7304, "bo bby</w>": 7305, "k g</w>": 7306, "ro l</w>": 7307, "thou se</w>": 7308, "ex po": 7309, "h c</w>": 7310, "tab les</w>": 7311, "mag ical</w>": 7312, "po sts</w>": 7313, "de m</w>": 7314, "n w": 7315, "or lando</w>": 7316, "ab er": 7317, "* **</w>": 7318, "\u00f0\u0141\u013a \u013e</w>": 7319, "environ mental</w>": 7320, "trans formation</w>": 7321, "mi le": 7322, "w ic": 7323, "hir ing</w>": 7324, "ma ine</w>": 7325, "bo ar": 7326, "r ying</w>": 7327, "ti s": 7328, "nit ure</w>": 7329, "twee ted</w>": 7330, "anton io</w>": 7331, "opin ion</w>": 7332, "fin ale</w>": 7333, "di y</w>": 7334, "f is": 7335, "th in</w>": 7336, "trou ble</w>": 7337, "le go</w>": 7338, "fi les</w>": 7339, "qu art": 7340, "sp a": 7341, "curren cy</w>": 7342, "cli mate": 7343, "fan art</w>": 7344, "rail way</w>": 7345, "sp ace": 7346, "ban ds</w>": 7347, "dani el": 7348, "mo tion</w>": 7349, "l eng": 7350, "hol der</w>": 7351, "oc cu": 7352, "mar ie</w>": 7353, "cathe dral</w>": 7354, "bu zz": 7355, "bi es</w>": 7356, "nas car</w>": 7357, "bm w</w>": 7358, "bat tery</w>": 7359, "char lotte</w>": 7360, "doc tor": 7361, "zz le</w>": 7362, "se ven": 7363, "in san": 7364, "d dy</w>": 7365, "st en</w>": 7366, "lab or</w>": 7367, "thr illed</w>": 7368, "se ren": 7369, "docu mentary</w>": 7370, "wav es</w>": 7371, "cer tain</w>": 7372, "can did": 7373, "allow ed</w>": 7374, "ninten do</w>": 7375, "star wars</w>": 7376, "ta p</w>": 7377, "home made</w>": 7378, "d les</w>": 7379, "ther ing</w>": 7380, "bre e": 7381, "emp ty</w>": 7382, "pi ano</w>": 7383, "pos iti": 7384, "coun try": 7385, "por k</w>": 7386, "pu ts</w>": 7387, "per ry</w>": 7388, "m atic</w>": 7389, "spot light</w>": 7390, "ti st</w>": 7391, "or ities</w>": 7392, "we alth</w>": 7393, "c p": 7394, "bar bar": 7395, "commit ted</w>": 7396, "as sau": 7397, "pro fit</w>": 7398, "e ight</w>": 7399, "hu l": 7400, "fini shing</w>": 7401, "run ner</w>": 7402, "ss o</w>": 7403, "insp ec": 7404, "char ged</w>": 7405, "christ op": 7406, "lo sing</w>": 7407, "co al</w>": 7408, "ho o</w>": 7409, "ele v": 7410, "de le": 7411, "mo ham": 7412, "don ation</w>": 7413, "c able</w>": 7414, "clin ic</w>": 7415, "j in": 7416, "manag ed</w>": 7417, "ter ing</w>": 7418, "\u00e2 \u00ac": 7419, "ur ban": 7420, "depu ty</w>": 7421, "bb er</w>": 7422, "bur n": 7423, "acade mic</w>": 7424, "o tt</w>": 7425, "sta ke</w>": 7426, "it er": 7427, "sto wn</w>": 7428, "ack er</w>": 7429, "advent ures</w>": 7430, "ad ams</w>": 7431, "gre g</w>": 7432, "pro m</w>": 7433, "vo l</w>": 7434, "ac qu": 7435, "con gre": 7436, "pa int": 7437, "citiz ens</w>": 7438, "c all": 7439, "af ford": 7440, "v c</w>": 7441, "as ks</w>": 7442, "the tic</w>": 7443, "independ ence</w>": 7444, "\u00e2 \u013d": 7445, "h itting</w>": 7446, "bl on": 7447, "fu ture": 7448, "\u00e2 \u0131": 7449, "in no": 7450, "gen e</w>": 7451, "bo ards</w>": 7452, "di stance</w>": 7453, "se t": 7454, "re mem": 7455, "th al": 7456, "pre vent</w>": 7457, "l ang": 7458, "ob jec": 7459, "su sp": 7460, "mat t": 7461, "in duc": 7462, "bor o</w>": 7463, "pi one": 7464, "re di": 7465, "vir tu": 7466, "prin ted</w>": 7467, "sco pe</w>": 7468, "shar k</w>": 7469, "suc ce": 7470, "a stron": 7471, "il legal</w>": 7472, "j ag": 7473, "c ting</w>": 7474, "ine e</w>": 7475, "at o": 7476, "rob in</w>": 7477, "nutr ition</w>": 7478, "b f</w>": 7479, "du tch</w>": 7480, "b n</w>": 7481, "fur niture</w>": 7482, "for gotten</w>": 7483, "at ar</w>": 7484, "ru p": 7485, "hy per": 7486, "bran ch</w>": 7487, "communic ation</w>": 7488, "degre es</w>": 7489, "on ia</w>": 7490, "un cle</w>": 7491, "promo te</w>": 7492, "or che": 7493, "wi i</w>": 7494, "j s</w>": 7495, "but ton</w>": 7496, "ma jor": 7497, "c bs</w>": 7498, "bri stol</w>": 7499, "premi um</w>": 7500, "ordin ary</w>": 7501, "e dit</w>": 7502, "m g</w>": 7503, "we ed</w>": 7504, "st even</w>": 7505, ": '": 7506, "gu s</w>": 7507, "te s": 7508, "cap tured</w>": 7509, "dru gs</w>": 7510, "do w": 7511, "wr ites</w>": 7512, "bi shop</w>": 7513, "whe els</w>": 7514, "ali zation</w>": 7515, "disco very</w>": 7516, "w r</w>": 7517, "rach el</w>": 7518, "ne il</w>": 7519, "hy dr": 7520, "cu test</w>": 7521, "entreprene ur</w>": 7522, "kore an</w>": 7523, "ore gon</w>": 7524, "ul ty</w>": 7525, "perfec tly</w>": 7526, "suppor ted</w>": 7527, "histor ical</w>": 7528, "t wins</w>": 7529, "ell y": 7530, "we l</w>": 7531, "de vil</w>": 7532, "in come</w>": 7533, "scienti sts</w>": 7534, "de leg": 7535, "h en</w>": 7536, "on i</w>": 7537, "ic ed</w>": 7538, "gi o</w>": 7539, "cur ry</w>": 7540, "reve al</w>": 7541, "e g": 7542, "buff alo</w>": 7543, "n ol": 7544, "op era</w>": 7545, "camer on</w>": 7546, "haha haha": 7547, "j ab": 7548, "gradu ation</w>": 7549, "cra ig</w>": 7550, "r al": 7551, "i f": 7552, "organi zation</w>": 7553, "le ge</w>": 7554, "g ang": 7555, "su d": 7556, "edin burgh</w>": 7557, "l ack</w>": 7558, "fli es</w>": 7559, "g ate": 7560, "thr ones</w>": 7561, "q b</w>": 7562, "the real": 7563, "e leg": 7564, "pp in</w>": 7565, "c les</w>": 7566, "jam ie</w>": 7567, "tn am</w>": 7568, "cryp to": 7569, "ou l</w>": 7570, "p ages</w>": 7571, "a se": 7572, "roo ts</w>": 7573, "stu pid</w>": 7574, "a did": 7575, "boo t</w>": 7576, "prote in</w>": 7577, "s ap": 7578, "si um</w>": 7579, "su s": 7580, "end or": 7581, "fun ction</w>": 7582, "don t": 7583, "en na</w>": 7584, "ch y</w>": 7585, "squ e</w>": 7586, "wor ker</w>": 7587, "m tv": 7588, "e a</w>": 7589, "k an</w>": 7590, "\u00f0\u0141\u0134 \u013c": 7591, "mu s</w>": 7592, "professi on": 7593, "t to</w>": 7594, "oper ations</w>": 7595, "al lo": 7596, "c tor</w>": 7597, "inv ite</w>": 7598, "sc and": 7599, "ou th</w>": 7600, "z im": 7601, "lin ks</w>": 7602, "cli ents</w>": 7603, "sam sung</w>": 7604, "discu sses</w>": 7605, "n ell</w>": 7606, "ul tra</w>": 7607, "some where</w>": 7608, "ste wart</w>": 7609, "ine t</w>": 7610, "de z</w>": 7611, "b out</w>": 7612, "fac tor</w>": 7613, "ti an</w>": 7614, "tr ans</w>": 7615, "jere my</w>": 7616, "d b</w>": 7617, "\u00f0\u0141\u0129 \u00ac": 7618, "or n</w>": 7619, "develop ing</w>": 7620, "spo l</w>": 7621, "coo per</w>": 7622, "ma u": 7623, "rememb ering</w>": 7624, "tre k</w>": 7625, "famil y": 7626, "sen iors</w>": 7627, "fo ster</w>": 7628, "att ended</w>": 7629, "w ing": 7630, "trans form": 7631, "ele mentary</w>": 7632, "hor iz": 7633, "li sting</w>": 7634, "malay sia</w>": 7635, "it ch</w>": 7636, "warri or</w>": 7637, "philipp ines</w>": 7638, "russ ell</w>": 7639, "m end": 7640, "initi ative</w>": 7641, "cre ep": 7642, "to ps</w>": 7643, "br iti": 7644, "a ur": 7645, "shar p</w>": 7646, "adverti sing</w>": 7647, "ug ly</w>": 7648, "achi ev": 7649, "materi als</w>": 7650, "bu g</w>": 7651, "dev ice</w>": 7652, "bon us</w>": 7653, "fac ility</w>": 7654, "col e</w>": 7655, "nh l</w>": 7656, "y as": 7657, "plann ed</w>": 7658, "pol e</w>": 7659, "excell ence</w>": 7660, "tr ick</w>": 7661, "con fl": 7662, "r p</w>": 7663, "achi eve</w>": 7664, "lo an</w>": 7665, "swa g</w>": 7666, "jess ica</w>": 7667, "ho we": 7668, "p our</w>": 7669, "sc u": 7670, "z oo": 7671, "r ated</w>": 7672, "dre sses</w>": 7673, "re bel": 7674, "mex ican</w>": 7675, "co ordin": 7676, "me ss</w>": 7677, "atlan tic</w>": 7678, "t l</w>": 7679, "osc ar</w>": 7680, "wal ks</w>": 7681, "phar mac": 7682, "investig ation</w>": 7683, "... #</w>": 7684, "cc i</w>": 7685, "eas ily</w>": 7686, "monday motivation</w>": 7687, "y ment</w>": 7688, "au ti": 7689, "for ced</w>": 7690, "ar med</w>": 7691, "colle agues</w>": 7692, "pap ers</w>": 7693, "pro per</w>": 7694, "sha ke": 7695, "bu c": 7696, "le an</w>": 7697, "exhi bit</w>": 7698, "e vement</w>": 7699, "co tt": 7700, "bi z": 7701, "sp er": 7702, "k ent</w>": 7703, "sw an": 7704, "/ @</w>": 7705, "girl friend</w>": 7706, "haw k</w>": 7707, "\u00e2\u013a \u0122\u00ef\u00b8\u0131</w>": 7708, "mon o": 7709, "\u00f0\u0141\u0134 \u013d": 7710, "stat ue</w>": 7711, "\u00f0\u0141\u013a \u00b3</w>": 7712, "ra s</w>": 7713, "te eth</w>": 7714, "preci ous</w>": 7715, "t ile</w>": 7716, "p am": 7717, "swi ft</w>": 7718, "v ali": 7719, "no se</w>": 7720, "dr unk</w>": 7721, "experi ences</w>": 7722, "come back</w>": 7723, "gen ius</w>": 7724, "wor se</w>": 7725, "sh ef": 7726, "ra d</w>": 7727, "ed it": 7728, "hon our</w>": 7729, "au spol</w>": 7730, "lar ry</w>": 7731, "h ire</w>": 7732, "gor don</w>": 7733, "achi evement</w>": 7734, ".... ....": 7735, "su icide</w>": 7736, "alter native</w>": 7737, "su p</w>": 7738, "sur roun": 7739, "sha ke</w>": 7740, "ke ith</w>": 7741, "pe pper</w>": 7742, "tur k": 7743, "crimin al</w>": 7744, "be ck": 7745, "su m</w>": 7746, "w alls</w>": 7747, "cn n</w>": 7748, "an tic": 7749, "of fe": 7750, "col li": 7751, "win es</w>": 7752, "high light</w>": 7753, "hawa ii</w>": 7754, "emb ar": 7755, "l fc</w>": 7756, "\u00f0\u0141\u0129 \u00ae": 7757, "m v</w>": 7758, "> >": 7759, "at mo": 7760, "wor d": 7761, "car l": 7762, "shout out</w>": 7763, "bre wing</w>": 7764, "\u00ec \u013f": 7765, "do f": 7766, "s ic": 7767, "hot test</w>": 7768, "col on": 7769, "hh h</w>": 7770, "shu t</w>": 7771, "low ing</w>": 7772, "volu me</w>": 7773, "apart ment</w>": 7774, "agre ement</w>": 7775, "de stro": 7776, "we e</w>": 7777, "religi ous</w>": 7778, "iow a</w>": 7779, "ro d</w>": 7780, "land ing</w>": 7781, "re present": 7782, "\u00f0\u0141\u0135\u00b7 :</w>": 7783, "la s": 7784, "usu ally</w>": 7785, "h l": 7786, "c ac": 7787, "sal v": 7788, "al ong": 7789, "laugh ing</w>": 7790, "be ans</w>": 7791, "remin ds</w>": 7792, "pha se</w>": 7793, "some body</w>": 7794, "ma sk</w>": 7795, "ran ked</w>": 7796, "dest roy": 7797, "sc i</w>": 7798, "\u00e2\u0122\u00bc \u00ef\u00b8\u0131</w>": 7799, "gab ri": 7800, "le o</w>": 7801, "ro a": 7802, "fa iled</w>": 7803, "si l</w>": 7804, "refuge es</w>": 7805, "re vi": 7806, "r ing": 7807, "ber ries</w>": 7808, "coo kies</w>": 7809, "y y</w>": 7810, "conserv ation</w>": 7811, "sh ab": 7812, "human s</w>": 7813, "de termin": 7814, "a in": 7815, "ni all</w>": 7816, "as su": 7817, "mb a</w>": 7818, "fro m": 7819, "extre me</w>": 7820, "vic es</w>": 7821, "commer ce</w>": 7822, "ght ful</w>": 7823, "or dered</w>": 7824, "suppor ts</w>": 7825, "re cap</w>": 7826, "v or": 7827, "dro pping</w>": 7828, "correc t</w>": 7829, "pay ing</w>": 7830, "mean ing</w>": 7831, "n j": 7832, "qui z</w>": 7833, "\" #</w>": 7834, "busine ss": 7835, "\u00f0\u0141\u0129\u00ae \u00f0\u0141\u0129": 7836, "indi gen": 7837, "du st</w>": 7838, "box es</w>": 7839, "bl ind</w>": 7840, "x xx</w>": 7841, "zz y</w>": 7842, "\u00f0\u0141\u0129\u00ac \u00f0\u0141\u0129": 7843, "ss els</w>": 7844, "s ant": 7845, "dd le</w>": 7846, "hilari ous</w>": 7847, "desig n": 7848, "wonder ing</w>": 7849, "vehic les</w>": 7850, "k re": 7851, "ju d": 7852, "rece ption</w>": 7853, "par ker</w>": 7854, "\u00c3 \u0143": 7855, "pri vi": 7856, "hy dro": 7857, "sof tball</w>": 7858, "pol lu": 7859, "lo cked</w>": 7860, "ba h": 7861, "e ar</w>": 7862, "scri pt</w>": 7863, "di vi": 7864, "br ace": 7865, "geor ge": 7866, "the ast</w>": 7867, "bel o": 7868, "j al": 7869, "tion ary</w>": 7870, "dent al</w>": 7871, "roc ket</w>": 7872, "pur ch": 7873, "sh ak": 7874, "manufac turing</w>": 7875, "e z</w>": 7876, "it is</w>": 7877, "con cep": 7878, "tb all": 7879, "ch s</w>": 7880, "direc ted</w>": 7881, "pra yers</w>": 7882, "oo k</w>": 7883, "phil os": 7884, "vari ety</w>": 7885, "che ss</w>": 7886, "ser ver</w>": 7887, "g and": 7888, "bal ti": 7889, "\u00f0\u0141\u0135 \u00b8": 7890, "sel y</w>": 7891, "cru z</w>": 7892, "spectac ular</w>": 7893, "bur ning</w>": 7894, "re present</w>": 7895, "i z</w>": 7896, "t one</w>": 7897, "mer ce": 7898, "h ell": 7899, "bed room</w>": 7900, "estab li": 7901, "bo l</w>": 7902, "com mon": 7903, "\u00e3\u0125 \u00bb": 7904, "ab or": 7905, "kit ty</w>": 7906, "hei ghts</w>": 7907, "re pair</w>": 7908, "willi am": 7909, "qu ake</w>": 7910, "alab ama</w>": 7911, "popul ation</w>": 7912, "re v": 7913, "re tt</w>": 7914, "i sts</w>": 7915, "n ite</w>": 7916, "le m</w>": 7917, "a ha</w>": 7918, "clevel and</w>": 7919, "r m</w>": 7920, "po ver": 7921, "ob se": 7922, "mon tre": 7923, "man ia</w>": 7924, "\u00c2 \u00ae</w>": 7925, "con ne": 7926, "car ni": 7927, "sh ah</w>": 7928, "f y": 7929, "u a</w>": 7930, "sc or": 7931, "strugg le</w>": 7932, "bo b": 7933, "' '</w>": 7934, "appro pri": 7935, "deci de</w>": 7936, "ff ed</w>": 7937, "ca ster</w>": 7938, "s ort</w>": 7939, "hun gry</w>": 7940, "dra g": 7941, "\u00d8\u00a7 \u00d9": 7942, "gr ounds</w>": 7943, "d w": 7944, "sli ghtly</w>": 7945, "car din": 7946, "dead line</w>": 7947, "bron ze</w>": 7948, "web in": 7949, "bar ry</w>": 7950, "sil ence</w>": 7951, "e uro</w>": 7952, "op tion</w>": 7953, "ear n</w>": 7954, "\u00f0\u0141\u0134 \u0138": 7955, "howe ver</w>": 7956, "na ren": 7957, "na ils</w>": 7958, "bath room</w>": 7959, "v ine": 7960, "ph d</w>": 7961, "min ing</w>": 7962, "gar age</w>": 7963, "( )</w>": 7964, "shou lder</w>": 7965, "defe at</w>": 7966, "di r</w>": 7967, "o v</w>": 7968, "liber ty</w>": 7969, "ple as": 7970, "x on</w>": 7971, "com pre": 7972, "a v</w>": 7973, "j in</w>": 7974, "ab les</w>": 7975, "sil ent</w>": 7976, "fam ili": 7977, "vis its</w>": 7978, "di pl": 7979, "ha bit": 7980, "milli ons</w>": 7981, "regar ding</w>": 7982, "innov ative</w>": 7983, "sen ator</w>": 7984, "r ts</w>": 7985, "v on</w>": 7986, "k l": 7987, "wh il": 7988, "requi red</w>": 7989, "\u00e2\u013f \u0126": 7990, "lu v</w>": 7991, "presi dential</w>": 7992, "po cket</w>": 7993, "hun dre": 7994, "sho wn</w>": 7995, "fro zen</w>": 7996, "to ward</w>": 7997, "fa st": 7998, "confi dence</w>": 7999, "r ough</w>": 8000, "indivi dual</w>": 8001, "qu et</w>": 8002, "\u00f0\u0141\u0131 \u00bd": 8003, "dom e": 8004, "fi fa</w>": 8005, "engine er</w>": 8006, "z en": 8007, "re mix</w>": 8008, "\u00f0\u0141\u013a \u0125</w>": 8009, "pl ant": 8010, "min or</w>": 8011, "robin son</w>": 8012, "as y": 8013, "pul led</w>": 8014, "cer tain": 8015, "potat o</w>": 8016, "( :</w>": 8017, "pre s</w>": 8018, "oc ca": 8019, "w it</w>": 8020, "it em</w>": 8021, "si e": 8022, "d ating</w>": 8023, "thom pson</w>": 8024, "own ed</w>": 8025, "an u": 8026, "vi e</w>": 8027, "te dly</w>": 8028, "good night</w>": 8029, "ex cept</w>": 8030, "\u00f0\u0141\u012e \u0141</w>": 8031, "ira q</w>": 8032, "ki e": 8033, "ren ces</w>": 8034, "li p</w>": 8035, "simil ar</w>": 8036, "sau di</w>": 8037, "vi g": 8038, "arth ur</w>": 8039, "pic ks</w>": 8040, "mil an</w>": 8041, "hon da</w>": 8042, "ma xi": 8043, "o g</w>": 8044, "ste st</w>": 8045, "ar ch</w>": 8046, "analy tics</w>": 8047, "ba sti": 8048, "pear l</w>": 8049, "ter ry</w>": 8050, "hor se": 8051, "ast ro": 8052, "ac ce": 8053, "laun ching</w>": 8054, "inter national": 8055, "s no": 8056, "ta sty</w>": 8057, "den ver</w>": 8058, "ir l</w>": 8059, "pe te</w>": 8060, "tor n": 8061, "advant age</w>": 8062, "var sity</w>": 8063, "\" \"</w>": 8064, "sol e</w>": 8065, "g c": 8066, "lan g</w>": 8067, "demon str": 8068, "ol ds</w>": 8069, "un ity</w>": 8070, "ne ts</w>": 8071, "insp ire</w>": 8072, "cre te</w>": 8073, "nash ville</w>": 8074, "nel son</w>": 8075, "e ter": 8076, "wal k": 8077, "hy un</w>": 8078, "m ack": 8079, "tre as": 8080, "see king</w>": 8081, "ra ge</w>": 8082, "bru sh</w>": 8083, "ab and": 8084, "whil st</w>": 8085, "co con": 8086, "h ong</w>": 8087, "shel ter</w>": 8088, "i p</w>": 8089, "possi bly</w>": 8090, "so o</w>": 8091, "it ed": 8092, "\u00e2 \u0126": 8093, "rac es</w>": 8094, "war ming</w>": 8095, "qu in": 8096, "tele vision</w>": 8097, "mat ches</w>": 8098, "ra pi": 8099, "ment al": 8100, "pal m</w>": 8101, "jenni fer</w>": 8102, "rol ls</w>": 8103, "indi ana</w>": 8104, "b ars</w>": 8105, "cat ching</w>": 8106, "resc u": 8107, "candid ates</w>": 8108, "fa re": 8109, "\u00e2\u0142 \u0122</w>": 8110, "se o</w>": 8111, "vie tnam</w>": 8112, "alph a</w>": 8113, "michel le</w>": 8114, "visi ble</w>": 8115, "re gre": 8116, "wn ed</w>": 8117, "app le": 8118, "li p": 8119, "f fe</w>": 8120, "li z": 8121, "york shire</w>": 8122, "ha il</w>": 8123, "se asons</w>": 8124, "be gan</w>": 8125, "m d": 8126, "k c</w>": 8127, "la p</w>": 8128, "fascin ating</w>": 8129, "hel p": 8130, "ur y": 8131, "u ms</w>": 8132, "nu ts</w>": 8133, "se m": 8134, "along side</w>": 8135, "bri dge": 8136, "ori al</w>": 8137, "o ve": 8138, "world cup</w>": 8139, "briti sh": 8140, "comfor table</w>": 8141, "i ve</w>": 8142, "hot els</w>": 8143, "fair s</w>": 8144, "hor ri": 8145, "so x</w>": 8146, "d ining</w>": 8147, "stre am": 8148, "bar ri": 8149, "ss y</w>": 8150, "w im": 8151, "ter ms</w>": 8152, "v u": 8153, "pe re": 8154, "l ens</w>": 8155, "wal ked</w>": 8156, "r or": 8157, "l ars</w>": 8158, "shi eld</w>": 8159, "dou bt</w>": 8160, "pro to": 8161, "cro ssing</w>": 8162, "me ant</w>": 8163, "medi um</w>": 8164, "ad ding</w>": 8165, "e b</w>": 8166, "che ap</w>": 8167, "fun c": 8168, "pap er": 8169, "bran ds</w>": 8170, "ry an": 8171, "feed back</w>": 8172, "col lins</w>": 8173, "un known</w>": 8174, "tro pical</w>": 8175, "sand wich</w>": 8176, "fal len</w>": 8177, "for mu": 8178, "selec t</w>": 8179, "lo ads</w>": 8180, "answ ers</w>": 8181, "or i</w>": 8182, "mag a</w>": 8183, "d or</w>": 8184, "du o</w>": 8185, "ali e</w>": 8186, "dru m</w>": 8187, "ur i</w>": 8188, "de er</w>": 8189, "sou l": 8190, "sh ut": 8191, "\u00e2\u013a \u00ba</w>": 8192, "sto len</w>": 8193, "don ated</w>": 8194, "bu zz</w>": 8195, "patri ots</w>": 8196, "ha l</w>": 8197, "na sty</w>": 8198, "nomin ated</w>": 8199, "mon te": 8200, "ki a</w>": 8201, "th ri": 8202, "ing u": 8203, "te sts</w>": 8204, "pe tro": 8205, "\u00f0\u0141\u0133 \u0133</w>": 8206, "ho sts</w>": 8207, "ne st</w>": 8208, "to pic</w>": 8209, "pat ch</w>": 8210, "m my</w>": 8211, "hu gh": 8212, "ab ilities</w>": 8213, "ma the": 8214, "s miles</w>": 8215, "g b": 8216, "ag enda</w>": 8217, "insi ghts</w>": 8218, "chi p</w>": 8219, "ph an": 8220, "fail ure</w>": 8221, "dg ers</w>": 8222, "ha i": 8223, "signific ant</w>": 8224, "sho ck</w>": 8225, "ru ral</w>": 8226, "gl am": 8227, "figu res</w>": 8228, "pot us</w>": 8229, "o ta</w>": 8230, "mini stry</w>": 8231, "appe ars</w>": 8232, "fe ar": 8233, "r h": 8234, "americ an": 8235, "h att": 8236, "son y</w>": 8237, "fi res</w>": 8238, "e di": 8239, "n ou": 8240, "e qui": 8241, "wh en": 8242, "univers al</w>": 8243, "mad ness</w>": 8244, "i x</w>": 8245, "sculp ture</w>": 8246, "b ach</w>": 8247, "t to": 8248, "swe den</w>": 8249, "et a</w>": 8250, "en to</w>": 8251, "develop ed</w>": 8252, "month ly</w>": 8253, "ma ps</w>": 8254, "ra h</w>": 8255, "le d": 8256, "del ta</w>": 8257, "sa ints</w>": 8258, "is lam</w>": 8259, "ben ch</w>": 8260, "fif th</w>": 8261, "v ard</w>": 8262, "so cks</w>": 8263, "wel coming</w>": 8264, "j e</w>": 8265, "tur ner</w>": 8266, "v b</w>": 8267, "ad i</w>": 8268, "nor way</w>": 8269, "ad y</w>": 8270, "hurric ane</w>": 8271, "por sche</w>": 8272, "tra dition</w>": 8273, "ex am</w>": 8274, "newsp aper</w>": 8275, "lu ci": 8276, "a ver": 8277, "ide al</w>": 8278, "d na</w>": 8279, "madi son</w>": 8280, "\u00f0\u0141 \u00a7": 8281, "wit ness</w>": 8282, "ac ou": 8283, "insi ght</w>": 8284, "si mon": 8285, "robo t</w>": 8286, "sna ke</w>": 8287, "n bc</w>": 8288, "ac o</w>": 8289, "ro ss": 8290, "sh ment</w>": 8291, "religi on</w>": 8292, "ch ann": 8293, "in su": 8294, "camp bell</w>": 8295, "inst alled</w>": 8296, "we ather": 8297, "hor ses</w>": 8298, "ol i</w>": 8299, "rober t": 8300, "k az": 8301, "\u00f0\u0141\u0131 \u0122</w>": 8302, "veter an</w>": 8303, "th read</w>": 8304, "quar ter": 8305, "ea sier</w>": 8306, "cap ture</w>": 8307, "hi pho": 8308, "law rence</w>": 8309, "roman tic</w>": 8310, "pas sion": 8311, "cl ay</w>": 8312, "ox ford</w>": 8313, "th ai</w>": 8314, "stu dying</w>": 8315, "fi a</w>": 8316, "elec ted</w>": 8317, "most ly</w>": 8318, "c b</w>": 8319, "tu mb": 8320, "\u00e2\u0122\u012f\u00e2\u013b \u0124": 8321, "x l</w>": 8322, "sh an</w>": 8323, "fa ster</w>": 8324, "ev ans</w>": 8325, "sli de</w>": 8326, "sh ri": 8327, "see k</w>": 8328, "mi es</w>": 8329, "chemi stry</w>": 8330, "pump kin</w>": 8331, "tu m</w>": 8332, ", ,</w>": 8333, "ro om": 8334, "fi red</w>": 8335, "li ps</w>": 8336, "pres ence</w>": 8337, "af f": 8338, "brew ery</w>": 8339, "arri ve</w>": 8340, "sw ag": 8341, "photo graph</w>": 8342, "pen gu": 8343, "chi ps</w>": 8344, "at tor": 8345, "val ues</w>": 8346, "accur ate</w>": 8347, "con temporary</w>": 8348, "princi pal</w>": 8349, "cannab is</w>": 8350, "ari o</w>": 8351, "any where</w>": 8352, "gi a</w>": 8353, "democr ats</w>": 8354, "buil dings</w>": 8355, "li ved</w>": 8356, "ap s</w>": 8357, "neg ative</w>": 8358, "m are</w>": 8359, "bal lo": 8360, "li on": 8361, "diam on": 8362, "loo k": 8363, "re form</w>": 8364, "tom my</w>": 8365, "il la": 8366, "tre ats</w>": 8367, "hundre ds</w>": 8368, "port land</w>": 8369, "wor thy</w>": 8370, "ex cep": 8371, "ar ia</w>": 8372, "ido l</w>": 8373, "be er": 8374, "cd n": 8375, "y u</w>": 8376, "aw k": 8377, "\u00f0\u0141\u0129 \u00a8": 8378, "c ells</w>": 8379, "\u00c3 \u00b3": 8380, "ident ity</w>": 8381, "dra wn</w>": 8382, "de vil": 8383, "f inger</w>": 8384, "th am</w>": 8385, "\u00f0\u0141\u0133 \u012c": 8386, "ear ned</w>": 8387, "fin tech</w>": 8388, "dol ph": 8389, "twee ting</w>": 8390, "evolu tion</w>": 8391, "\u00f0\u0141\u0135 \u012f</w>": 8392, "est im": 8393, "m vp</w>": 8394, "n one</w>": 8395, "\u00f0\u0141\u0129\u00ba\u00f0\u0141\u0129 \u00b8": 8396, "toyo ta</w>": 8397, "au x</w>": 8398, "mar in": 8399, "b old</w>": 8400, "l bs</w>": 8401, "ste ak</w>": 8402, "mur phy</w>": 8403, "it able</w>": 8404, "lou is": 8405, "sol ve</w>": 8406, "pi a</w>": 8407, "sk ir": 8408, "ill ino": 8409, "webin ar</w>": 8410, "ban ana</w>": 8411, "lo v": 8412, "th on</w>": 8413, "vo ters</w>": 8414, "afford able</w>": 8415, "defe ated</w>": 8416, "lm fa": 8417, "air lines</w>": 8418, "super b</w>": 8419, "any way</w>": 8420, "deb t</w>": 8421, "bo red</w>": 8422, "ver si": 8423, "me tal": 8424, "responsi ble</w>": 8425, "m k</w>": 8426, "s se</w>": 8427, "f ay": 8428, "cau sed</w>": 8429, "f p</w>": 8430, "recomm end</w>": 8431, "pla za</w>": 8432, "spor ting</w>": 8433, "alli ance</w>": 8434, "au stri": 8435, "n n": 8436, "t ours</w>": 8437, "surpri sed</w>": 8438, "arti f": 8439, "th under</w>": 8440, "sur ve": 8441, "wor e</w>": 8442, "bri ef</w>": 8443, "necess ary</w>": 8444, "z ie</w>": 8445, "ash ley</w>": 8446, "dra ke</w>": 8447, "r t": 8448, "kni fe</w>": 8449, "im mun": 8450, "char ges</w>": 8451, "a the": 8452, "bri de</w>": 8453, "rep ly</w>": 8454, "g av": 8455, "broad cast</w>": 8456, "pu er": 8457, "brace let</w>": 8458, "cap acity</w>": 8459, "harve st</w>": 8460, "id k</w>": 8461, "perfor man": 8462, "d ding</w>": 8463, "il ers</w>": 8464, "par a</w>": 8465, "jam a": 8466, "pro vince</w>": 8467, "ch in</w>": 8468, "id ers</w>": 8469, "har i</w>": 8470, "te aser</w>": 8471, "ch en</w>": 8472, "re stor": 8473, "r at</w>": 8474, "fl at": 8475, "col om": 8476, "\u00f0\u0141\u0134 \u0140</w>": 8477, "\u00f0\u0141\u0129\u00a8 \u00f0\u0141\u0129": 8478, "smoo th</w>": 8479, "r t</w>": 8480, "p itch": 8481, "stay ing</w>": 8482, "isra eli</w>": 8483, "t cot</w>": 8484, "per spective</w>": 8485, "do ck</w>": 8486, "open er</w>": 8487, "lo vel": 8488, "x o</w>": 8489, "class room</w>": 8490, "l ington</w>": 8491, "go al": 8492, "kenne dy</w>": 8493, "sh am</w>": 8494, "sp aces</w>": 8495, "mitch ell</w>": 8496, "home coming</w>": 8497, "uk i</w>": 8498, "claim ed</w>": 8499, "recru it": 8500, "ing o</w>": 8501, "mu fc</w>": 8502, "mon it": 8503, "g roo": 8504, "resi dent</w>": 8505, "per cent</w>": 8506, "per man": 8507, "otta wa</w>": 8508, "int ment</w>": 8509, "an xi": 8510, "stand ards</w>": 8511, "wor ship</w>": 8512, "sche me</w>": 8513, "f x</w>": 8514, "pot ter</w>": 8515, "bi an</w>": 8516, "athle tic</w>": 8517, "af gh": 8518, "s se": 8519, "sat ell": 8520, "par ties</w>": 8521, "\u00e2\u013f\u00a4 \u00e2\u013f\u00a4": 8522, "infra structure</w>": 8523, "rela x</w>": 8524, "mo du": 8525, "wor n</w>": 8526, "smo king</w>": 8527, "y ach": 8528, "practic es</w>": 8529, "wc w</w>": 8530, "am b": 8531, "dome stic</w>": 8532, "tay lor": 8533, "k entu": 8534, "provi ded</w>": 8535, "mo di": 8536, "ve g": 8537, "\" ...</w>": 8538, "ob serv": 8539, "\u00f0\u0141\u013a \u00a9": 8540, "be ard</w>": 8541, "m our": 8542, "an gry</w>": 8543, "\u00f0\u0141\u013a \u00b1</w>": 8544, "startu ps</w>": 8545, "woo den</w>": 8546, "di ve</w>": 8547, "na il</w>": 8548, "anti que</w>": 8549, "ro ses</w>": 8550, "torn ado</w>": 8551, "m at</w>": 8552, "^ ^</w>": 8553, "su spect</w>": 8554, "far m": 8555, "de vices</w>": 8556, "me ga</w>": 8557, "tu l": 8558, "scholar ship</w>": 8559, "ge e</w>": 8560, "disa ster</w>": 8561, "arri val</w>": 8562, "po in": 8563, "mar c</w>": 8564, "kati e</w>": 8565, "bb ed</w>": 8566, "fal se</w>": 8567, "deser ves</w>": 8568, "ric hard": 8569, "ju ana</w>": 8570, "fre y</w>": 8571, "tion ed</w>": 8572, "hy bri": 8573, "r w": 8574, "sar ah": 8575, "ach i</w>": 8576, "c ure</w>": 8577, "o le": 8578, "mor ris</w>": 8579, "ch ic</w>": 8580, "broad way</w>": 8581, "la bel</w>": 8582, "pa k</w>": 8583, "pover ty</w>": 8584, "gol f": 8585, "e red</w>": 8586, "f u</w>": 8587, "er ies</w>": 8588, "be es</w>": 8589, "alo gue</w>": 8590, "st el": 8591, "wire less</w>": 8592, "je wish</w>": 8593, "ti de</w>": 8594, "blo cked</w>": 8595, "life time</w>": 8596, "b har": 8597, "sp lit</w>": 8598, "am ster": 8599, "th i</w>": 8600, "jo shu": 8601, "br unch</w>": 8602, "ha ps</w>": 8603, "s for": 8604, "oo ps</w>": 8605, "ka poor</w>": 8606, "hi king</w>": 8607, "suppo sed</w>": 8608, "ro of": 8609, "re as": 8610, "tra in": 8611, "ti ght</w>": 8612, "tru mp": 8613, "bas ically</w>": 8614, "r r</w>": 8615, "ea red</w>": 8616, "see ds</w>": 8617, "entr ance</w>": 8618, "c p</w>": 8619, "wi e</w>": 8620, "son ic</w>": 8621, "vic tim</w>": 8622, "he re": 8623, "e h</w>": 8624, "ear rings</w>": 8625, "sal mon</w>": 8626, "arc tic</w>": 8627, "an ne": 8628, "dou gla": 8629, "corru ption</w>": 8630, "hann ah</w>": 8631, "ha sn</w>": 8632, "vo ices</w>": 8633, "con ce": 8634, "att a</w>": 8635, "fle et</w>": 8636, "clin ical</w>": 8637, "democr atic</w>": 8638, "ton y": 8639, "st ood</w>": 8640, "le f": 8641, "twit ch</w>": 8642, "a il</w>": 8643, "honest ly</w>": 8644, "incre ased</w>": 8645, "dro me</w>": 8646, "don na</w>": 8647, "accep ted</w>": 8648, "visit ors</w>": 8649, "ap ar": 8650, "ad or</w>": 8651, "p ar</w>": 8652, "jer ry</w>": 8653, "ra i": 8654, "brand on</w>": 8655, "ab u": 8656, "!! !!!!</w>": 8657, "me me</w>": 8658, "in gh": 8659, "glori ous</w>": 8660, "b hu": 8661, "pu mp</w>": 8662, "j ol": 8663, "li ke": 8664, "fi sher</w>": 8665, "ma z": 8666, "ag an</w>": 8667, "destin ation</w>": 8668, "play list</w>": 8669, "le tters</w>": 8670, "gen u": 8671, "br ace</w>": 8672, "celebr ated</w>": 8673, "bann er</w>": 8674, "r he": 8675, "dra gon": 8676, "\u00f0\u0141\u013a \u0127</w>": 8677, "sig nature</w>": 8678, "gre y": 8679, "\u00e2\u013e \u0136\u00ef\u00b8\u0131</w>": 8680, "al ice</w>": 8681, "be red</w>": 8682, "ph er": 8683, "ber n": 8684, "ca th": 8685, "ga thering</w>": 8686, "sc oring</w>": 8687, "influ ence</w>": 8688, "sm iling</w>": 8689, "de pt</w>": 8690, "lo cal": 8691, "a x</w>": 8692, "ac u": 8693, "reti rement</w>": 8694, "hon or": 8695, "her self</w>": 8696, "chem ical</w>": 8697, "asse ss": 8698, "y all</w>": 8699, "fre qu": 8700, "appreci ation</w>": 8701, "ac a</w>": 8702, "cho ir</w>": 8703, "cu z</w>": 8704, "so il</w>": 8705, "c il": 8706, "repor ting</w>": 8707, "u h</w>": 8708, "enterpri se</w>": 8709, "gr at": 8710, "jaco b</w>": 8711, "ru m": 8712, "fe e</w>": 8713, "j ak": 8714, "sp in</w>": 8715, "bi kes</w>": 8716, "phi a</w>": 8717, "ste re": 8718, "p is": 8719, "bloo d": 8720, "t att": 8721, "ra ft</w>": 8722, "war ren</w>": 8723, "sh eri": 8724, "back stage</w>": 8725, "mar sh": 8726, "hash tag</w>": 8727, "ther ine</w>": 8728, "re in": 8729, "game day</w>": 8730, "guar an": 8731, "reci pes</w>": 8732, "min ds</w>": 8733, "stron ger</w>": 8734, "issu ed</w>": 8735, "bic y": 8736, "n ak": 8737, "ment ed</w>": 8738, "sc ary</w>": 8739, "u x": 8740, "pre vious</w>": 8741, "tt le</w>": 8742, "th ats</w>": 8743, "ac tors</w>": 8744, "u ma</w>": 8745, "tin a</w>": 8746, "bun ny</w>": 8747, "promo tion</w>": 8748, "u ss</w>": 8749, "oli ver</w>": 8750, "montre al</w>": 8751, "what s": 8752, "appreci ated</w>": 8753, "la kes</w>": 8754, "excu se</w>": 8755, "kno wing</w>": 8756, "pri zes</w>": 8757, "musc le</w>": 8758, "shad es</w>": 8759, "sco t</w>": 8760, "ing redi": 8761, "electr onic</w>": 8762, "ju an</w>": 8763, "comb at</w>": 8764, "s ri</w>": 8765, "e h": 8766, "turk ish</w>": 8767, "l om": 8768, "stri kes</w>": 8769, "pri son": 8770, "re e": 8771, "po pe</w>": 8772, "vi d</w>": 8773, "ol dest</w>": 8774, "dol l</w>": 8775, "sw iss</w>": 8776, "certi fied</w>": 8777, "cli p</w>": 8778, "re turning</w>": 8779, "lat or</w>": 8780, "le igh</w>": 8781, "tt es</w>": 8782, "wat son</w>": 8783, "heal ing</w>": 8784, "el im": 8785, "per haps</w>": 8786, "ha ss": 8787, "k au": 8788, "d der</w>": 8789, "mou se</w>": 8790, "new castle</w>": 8791, "indigen ous</w>": 8792, "wel comes</w>": 8793, "co le": 8794, "tau ght</w>": 8795, "no ise</w>": 8796, "appe ar</w>": 8797, "jo e": 8798, "can on</w>": 8799, "wedne sday": 8800, "u tah</w>": 8801, "c tive</w>": 8802, "dri ven</w>": 8803, "i v</w>": 8804, "c ell": 8805, "stri p</w>": 8806, "ac c</w>": 8807, "focu sed</w>": 8808, "ar rest</w>": 8809, "sto cks</w>": 8810, "wo o</w>": 8811, "\u00e2 \u0139": 8812, "notic ed</w>": 8813, "shad o": 8814, "di spla": 8815, "ter ror</w>": 8816, "bor ne</w>": 8817, "secon d": 8818, "que ens</w>": 8819, "wo ke</w>": 8820, "ja il</w>": 8821, "no tt": 8822, "cam bridge</w>": 8823, "har t": 8824, "se af": 8825, "fa x</w>": 8826, "ac cept</w>": 8827, "\u00e2\u013a \u0127": 8828, "goo ds</w>": 8829, "k at</w>": 8830, "t win": 8831, "h s": 8832, "thou sand</w>": 8833, "s ins</w>": 8834, "su ite</w>": 8835, "amp ton</w>": 8836, "ar n": 8837, "rele v": 8838, "ric har": 8839, "hoo ps</w>": 8840, "n bc": 8841, "class ic": 8842, "p ab": 8843, "soldi er</w>": 8844, "de plo": 8845, "le ans</w>": 8846, "install ation</w>": 8847, "cla sh</w>": 8848, "le ban": 8849, "ee e</w>": 8850, "ti re</w>": 8851, "belo ved</w>": 8852, "fu sion</w>": 8853, "travel ing</w>": 8854, "ne i": 8855, "coo kie</w>": 8856, "glo be</w>": 8857, "phys ics</w>": 8858, "s q": 8859, "co l</w>": 8860, "wol ves</w>": 8861, "d l</w>": 8862, "ex it</w>": 8863, "\" -</w>": 8864, "foo tball": 8865, "le af": 8866, "ster ling</w>": 8867, "hi de</w>": 8868, "minne so": 8869, "fresh man</w>": 8870, "natu re": 8871, "indi e</w>": 8872, "supp lies</w>": 8873, "bri s": 8874, "iri sh": 8875, "ink tober</w>": 8876, "doo dle</w>": 8877, "ic op": 8878, "mess ages</w>": 8879, "adul ts</w>": 8880, "recor ded</w>": 8881, "fix ed</w>": 8882, "ar do</w>": 8883, "offe red</w>": 8884, "under ground</w>": 8885, "dr one</w>": 8886, "p ine": 8887, "ma inten": 8888, "and re</w>": 8889, "ham mer</w>": 8890, "s x": 8891, "r ound": 8892, "hi ke</w>": 8893, "bra d</w>": 8894, "ro me": 8895, "fu ll": 8896, "on ey</w>": 8897, "ro ws</w>": 8898, "colum bia</w>": 8899, "archi ves</w>": 8900, "appro ved</w>": 8901, "bat ch</w>": 8902, "illino is</w>": 8903, "recogn ition</w>": 8904, "shou ldn</w>": 8905, "fo g</w>": 8906, "nca a</w>": 8907, "ke vin": 8908, "human ity</w>": 8909, "al though</w>": 8910, "pow ers</w>": 8911, "p ou": 8912, "s ar</w>": 8913, "pe st</w>": 8914, "alco hol</w>": 8915, "con sci": 8916, "phil adel": 8917, "en o": 8918, "t m": 8919, "ok la": 8920, "cate gory</w>": 8921, "particip ate</w>": 8922, "accu sed</w>": 8923, "bri ef": 8924, "po em</w>": 8925, "clu bs</w>": 8926, "consul t": 8927, "ja b</w>": 8928, "big data</w>": 8929, "amster dam</w>": 8930, "ac ing</w>": 8931, "certi fic": 8932, "n u</w>": 8933, "d at</w>": 8934, "impro ved</w>": 8935, "and y": 8936, "campa ig": 8937, "pale stin": 8938, "p ace</w>": 8939, "mo bi": 8940, "feel ings</w>": 8941, "wol f": 8942, "bra in": 8943, "pro pos": 8944, "inter active</w>": 8945, "prin ce": 8946, "inde x</w>": 8947, "c is": 8948, "cha e": 8949, "peace ful</w>": 8950, "co vering</w>": 8951, "ac o": 8952, "cour ses</w>": 8953, "mon key</w>": 8954, "re place</w>": 8955, "b l</w>": 8956, "bloo dy</w>": 8957, "tal es</w>": 8958, "brigh ton</w>": 8959, "neighbor hood</w>": 8960, "g ates</w>": 8961, "spiritu al</w>": 8962, "af raid</w>": 8963, "bre ast</w>": 8964, "b ones</w>": 8965, "\u00f0\u0141\u0133 \u012b": 8966, "vide o": 8967, "w au": 8968, "tou ch": 8969, "inju ries</w>": 8970, "car l</w>": 8971, "ri x</w>": 8972, "une x": 8973, "\u00e2\u0122 \u00a2": 8974, "fre d": 8975, "consi dered</w>": 8976, "thu si": 8977, "an ch": 8978, "on y": 8979, "u sa": 8980, "graph ics</w>": 8981, "ac re</w>": 8982, "\u00f0\u0141\u013a \u00a9</w>": 8983, "com memor": 8984, "com mod": 8985, "go ti": 8986, "guar dian</w>": 8987, "star bucks</w>": 8988, "pre vention</w>": 8989, "haha haha</w>": 8990, "admini stration</w>": 8991, "portu gal</w>": 8992, "fac ulty</w>": 8993, "bet a</w>": 8994, "ul a</w>": 8995, "al bert</w>": 8996, "bre ath": 8997, "er i</w>": 8998, "le tting</w>": 8999, "tr ic": 9000, "ment ation</w>": 9001, "incredi bly</w>": 9002, "ten nes": 9003, "v d</w>": 9004, "\u00f0\u0141\u013b \u012a</w>": 9005, "ed die</w>": 9006, "br ick</w>": 9007, "gr ill</w>": 9008, "bt w</w>": 9009, "wat ches</w>": 9010, "resear chers</w>": 9011, "t ney</w>": 9012, "ni e": 9013, "p as</w>": 9014, "a ster</w>": 9015, "vi br": 9016, "poke mon</w>": 9017, "ch rome</w>": 9018, "go at</w>": 9019, "pitt s": 9020, "il ly</w>": 9021, "festi ve</w>": 9022, "y d</w>": 9023, "can al</w>": 9024, "\u00f0\u0141 \u0128": 9025, "fi es</w>": 9026, "car los</w>": 9027, "re que": 9028, "partic i": 9029, "tra ins</w>": 9030, "sam ple</w>": 9031, "temper ature</w>": 9032, "sym ph": 9033, "pic king</w>": 9034, "in door</w>": 9035, "z ers</w>": 9036, "playo ffs</w>": 9037, "____ ____": 9038, "ap es</w>": 9039, "ly rics</w>": 9040, "islam ic</w>": 9041, "performan ces</w>": 9042, "d ick</w>": 9043, "spar k": 9044, "se as</w>": 9045, "hom a</w>": 9046, "gr ound": 9047, "disc i": 9048, "employe e</w>": 9049, "com mu": 9050, "alas ka</w>": 9051, "al an": 9052, "fe ast</w>": 9053, "dg ing</w>": 9054, "ban king</w>": 9055, "manu el</w>": 9056, "slow ly</w>": 9057, "tru cks</w>": 9058, "mc car": 9059, "oo o</w>": 9060, "sc rat": 9061, "orche stra</w>": 9062, "indivi du": 9063, "m x</w>": 9064, "bre ath</w>": 9065, "stair s</w>": 9066, "equ ality</w>": 9067, "bla ke</w>": 9068, "loc ations</w>": 9069, "cocon ut</w>": 9070, "balti more</w>": 9071, "aa a</w>": 9072, "l c": 9073, "\u00f0\u0141\u0131 \u0128": 9074, "har vey</w>": 9075, "resi st</w>": 9076, "immigr ation</w>": 9077, "adid as</w>": 9078, "fil i": 9079, "re f</w>": 9080, "lg bt</w>": 9081, "mo s</w>": 9082, "pp i</w>": 9083, "ken ny</w>": 9084, "terr or": 9085, "ban e</w>": 9086, "apol is</w>": 9087, "s g": 9088, "social media</w>": 9089, "ka i</w>": 9090, "hon est</w>": 9091, "as sas": 9092, "bol lywood</w>": 9093, "\u00e2\u0122\u012f\u00e2\u013b \u0122\u00ef\u00b8\u0131</w>": 9094, "ferr ari</w>": 9095, "hor n</w>": 9096, "cryp to</w>": 9097, "bo om": 9098, "mainten ance</w>": 9099, "i di": 9100, "s man</w>": 9101, "w l</w>": 9102, "ext ended</w>": 9103, "in sul": 9104, "ve s": 9105, "go sp": 9106, "tr i</w>": 9107, "pi g</w>": 9108, "tar ge": 9109, "cel er": 9110, "st ati": 9111, "sm h</w>": 9112, "ri dic": 9113, "appe al</w>": 9114, "? )</w>": 9115, "con clu": 9116, "cos me": 9117, "she ep</w>": 9118, "christop her</w>": 9119, "en thusi": 9120, "po lish</w>": 9121, "me ts</w>": 9122, "oun ded</w>": 9123, "sustain ability</w>": 9124, "creati vity</w>": 9125, "con crete</w>": 9126, "ra i</w>": 9127, "ali en</w>": 9128, "ble ss": 9129, "te es</w>": 9130, "clu b": 9131, "ro t</w>": 9132, "bo s</w>": 9133, "ex ist</w>": 9134, "perfe ction</w>": 9135, "lu ck": 9136, "rock y</w>": 9137, "expen sive</w>": 9138, "mean while</w>": 9139, "happy birthday": 9140, "pre t": 9141, "thr iller</w>": 9142, "ca ve</w>": 9143, "playo ff</w>": 9144, "som er": 9145, "l u</w>": 9146, "le x</w>": 9147, "def ence</w>": 9148, "am writing</w>": 9149, "home less</w>": 9150, "pro phe": 9151, "ch et</w>": 9152, "past or</w>": 9153, "\u00f0\u0141\u00a4 \u00a3": 9154, "land er</w>": 9155, "ww w</w>": 9156, "\u0122 \u00ef\u00b8\u0131": 9157, "tic a</w>": 9158, "! #</w>": 9159, "o tic</w>": 9160, "rad ar</w>": 9161, "po sters</w>": 9162, "pow der</w>": 9163, "po li": 9164, "ha un": 9165, "tra p</w>": 9166, "bl in": 9167, "assau lt</w>": 9168, "shor ts</w>": 9169, "re y": 9170, "sh y</w>": 9171, "squ ir": 9172, "rac ist</w>": 9173, "gar lic</w>": 9174, "fu r</w>": 9175, "remo te</w>": 9176, "sm ell</w>": 9177, "impre ssed</w>": 9178, "fing ers</w>": 9179, "\u00e2\u0142 \u0122": 9180, "din o": 9181, "le ment</w>": 9182, "s nu": 9183, "promo ting</w>": 9184, "str ing</w>": 9185, "produc tive</w>": 9186, "b age</w>": 9187, "ma son</w>": 9188, "ra z": 9189, "direc tly</w>": 9190, "j k</w>": 9191, "ev al</w>": 9192, "\u00f0\u0141\u0133 \u012c</w>": 9193, "doc tors</w>": 9194, "co w</w>": 9195, "ri der</w>": 9196, "st v</w>": 9197, "re move</w>": 9198, "w u": 9199, "na than</w>": 9200, "ro d": 9201, "n r</w>": 9202, "= ></w>": 9203, "affe cted</w>": 9204, "inve st</w>": 9205, "mp tion</w>": 9206, "g inger</w>": 9207, "o d</w>": 9208, "agricul ture</w>": 9209, "s que": 9210, "mu g</w>": 9211, "coun ting</w>": 9212, "ke e": 9213, "mag nific": 9214, "coo k": 9215, "ani stan</w>": 9216, "roo t</w>": 9217, "plac ed</w>": 9218, "sym po": 9219, "gh ana</w>": 9220, "un d</w>": 9221, "che er": 9222, "thro wing</w>": 9223, "secre ts</w>": 9224, "f illing</w>": 9225, "opti mi": 9226, "butter fly</w>": 9227, "bu bb": 9228, "\u00f0\u0141\u013a \u012b": 9229, "terri ble</w>": 9230, "d g</w>": 9231, "sil k</w>": 9232, "obse ssed</w>": 9233, "lo u</w>": 9234, "ai de</w>": 9235, "sal ute</w>": 9236, "mon u": 9237, "philadel phia</w>": 9238, "scienti fic</w>": 9239, "i st": 9240, "u ae</w>": 9241, "dess ert</w>": 9242, "bott les</w>": 9243, "can yon</w>": 9244, "\u00f0\u0141\u013a \u012a</w>": 9245, "car ib": 9246, "o ther": 9247, "w ich": 9248, "re source</w>": 9249, "guil ty</w>": 9250, "un d": 9251, "le on</w>": 9252, "e ss</w>": 9253, "kan e</w>": 9254, "el e</w>": 9255, "tra iner</w>": 9256, "he im</w>": 9257, "an te</w>": 9258, "man age</w>": 9259, "roo kie</w>": 9260, "tre ated</w>": 9261, "po ses</w>": 9262, "rs vp</w>": 9263, "cau ses</w>": 9264, "aw ak": 9265, "je well": 9266, "le tt</w>": 9267, "on ics</w>": 9268, "tit les</w>": 9269, "cardi ff</w>": 9270, "g aga</w>": 9271, "bu mp": 9272, "use ful</w>": 9273, "? !": 9274, "loo se</w>": 9275, "bb ing</w>": 9276, ": :</w>": 9277, "argent ina</w>": 9278, "de bu": 9279, "cy cl": 9280, "wh el": 9281, "dis gu": 9282, "j el": 9283, "k ills</w>": 9284, "bio logy</w>": 9285, "ex ter": 9286, "tra sh</w>": 9287, "bo dies</w>": 9288, "tr am": 9289, "circu it</w>": 9290, "expe ct": 9291, "la ds</w>": 9292, "w ells</w>": 9293, "sho t": 9294, "ge e": 9295, "naren dr": 9296, "fa stest</w>": 9297, "b ent": 9298, "b ills</w>": 9299, "mar shall</w>": 9300, "h ats</w>": 9301, "intro duce</w>": 9302, "citi zen</w>": 9303, "im possible</w>": 9304, "gi b": 9305, "az z": 9306, "net working</w>": 9307, "r ant</w>": 9308, "thin k": 9309, "in dy": 9310, "st ops</w>": 9311, "f theday</w>": 9312, "bri an": 9313, "* *": 9314, "amo di</w>": 9315, "dom e</w>": 9316, "coura ge</w>": 9317, "pac king</w>": 9318, "af fairs</w>": 9319, "g n</w>": 9320, "si zed</w>": 9321, "ent ary</w>": 9322, "pol and</w>": 9323, "swit zer": 9324, "afgh anistan</w>": 9325, "w u</w>": 9326, "ten der</w>": 9327, "subscri be</w>": 9328, "mo sco": 9329, "att end": 9330, "republic an</w>": 9331, "hon ey": 9332, "\u00e2\u0122 \u012d</w>": 9333, "si mul": 9334, "we ster": 9335, "foo die</w>": 9336, "or o": 9337, "midd le": 9338, "ab t</w>": 9339, "co pies</w>": 9340, "ma je": 9341, "narendr amodi</w>": 9342, "ty pical</w>": 9343, "inspir ational</w>": 9344, "vit am": 9345, "wis con": 9346, "cu bs</w>": 9347, "tiv ity</w>": 9348, "h ali": 9349, "e ars</w>": 9350, "k ay</w>": 9351, "d are</w>": 9352, "mari juana</w>": 9353, "cu rious</w>": 9354, "an ia</w>": 9355, "tom ato</w>": 9356, "re mind</w>": 9357, "\u00f0\u0141\u0129 \u00b7</w>": 9358, "sc ared</w>": 9359, "cou p": 9360, "po et</w>": 9361, "land ed</w>": 9362, "ri d</w>": 9363, "wra pped</w>": 9364, "mor ri": 9365, "climb ing</w>": 9366, "e ws</w>": 9367, "fe eding</w>": 9368, "con tra": 9369, "tho logy</w>": 9370, "gri d</w>": 9371, "ti vely</w>": 9372, "read er</w>": 9373, "la ser</w>": 9374, "di ving</w>": 9375, "di g</w>": 9376, "lat in</w>": 9377, "ti ed</w>": 9378, "shake spe": 9379, "o ci": 9380, "ad m": 9381, "show ers</w>": 9382, "chu ck</w>": 9383, "mar cus</w>": 9384, "oo s</w>": 9385, "kne e</w>": 9386, "o live</w>": 9387, "ow l</w>": 9388, "dy lan</w>": 9389, "an no": 9390, "g ym": 9391, "deci sions</w>": 9392, "well ness</w>": 9393, "arri ves</w>": 9394, "sati s": 9395, "chri s": 9396, "thur s</w>": 9397, "\u00f0\u0141\u00a4 \u00a3</w>": 9398, "inter views</w>": 9399, "thank you</w>": 9400, "switzer land</w>": 9401, "over night</w>": 9402, "journ alist</w>": 9403, "ser ves</w>": 9404, "vol can": 9405, ".... ...</w>": 9406, "plo t</w>": 9407, "nic ol": 9408, "car rying</w>": 9409, "mag ne": 9410, "tre asure</w>": 9411, "ex p": 9412, "be ver": 9413, "\u00f0\u0141\u013a \u00a2</w>": 9414, "mar ty": 9415, "mo le": 9416, "don ations</w>": 9417, "recogni zed</w>": 9418, "b h": 9419, "du s</w>": 9420, "sh ann": 9421, "al do</w>": 9422, "success fully</w>": 9423, "ent e</w>": 9424, "\u00f0\u0141\u013a\u0124\u00f0\u0141\u013a\u0124 \u00f0\u0141\u013a\u0124\u00f0\u0141\u013a\u0124": 9425, "cab inet</w>": 9426, "cu is": 9427, "tit led</w>": 9428, "d as": 9429, "so l</w>": 9430, "strate gies</w>": 9431, "deli vering</w>": 9432, "ad ds</w>": 9433, "ani an</w>": 9434, "ne ther": 9435, "\u00f0\u0141\u0134 \u0125": 9436, "con tain": 9437, "su its</w>": 9438, "pa irs</w>": 9439, "to dd</w>": 9440, "rel la</w>": 9441, "ro pe</w>": 9442, "ci o</w>": 9443, "cro p</w>": 9444, "paint ings</w>": 9445, "su z": 9446, "re jec": 9447, "bu st</w>": 9448, "d h</w>": 9449, "fra ud</w>": 9450, "m h": 9451, "contro l": 9452, "je al": 9453, "destroy ed</w>": 9454, "al lows</w>": 9455, "wo ol": 9456, "minneso ta</w>": 9457, "om en": 9458, "j u</w>": 9459, "sympo sium</w>": 9460, "d af": 9461, "lim it</w>": 9462, "accoun ts</w>": 9463, "load ing</w>": 9464, "inter n": 9465, "re solution</w>": 9466, "hol land</w>": 9467, "qu al": 9468, "meet ings</w>": 9469, "gra ve</w>": 9470, "cam ping</w>": 9471, "v am": 9472, "re nov": 9473, "liber al</w>": 9474, "am ber</w>": 9475, "gre e": 9476, "hu mb": 9477, "fe ver</w>": 9478, "el ing</w>": 9479, "broo ks</w>": 9480, "\u00e0 \u00b2": 9481, "be th": 9482, "ad ed</w>": 9483, "al t": 9484, "ro e</w>": 9485, "perform ed</w>": 9486, "jo sh": 9487, "frank lin</w>": 9488, "nic ole</w>": 9489, "de ss</w>": 9490, "bb s</w>": 9491, "m g": 9492, "net works</w>": 9493, "min im": 9494, "al t</w>": 9495, "weap ons</w>": 9496, "gu y": 9497, "jas on": 9498, "g ha": 9499, "harb our</w>": 9500, "at on</w>": 9501, "pra ise</w>": 9502, "kentu cky</w>": 9503, "bel fast</w>": 9504, "st icks</w>": 9505, "blo ss": 9506, "ho pes</w>": 9507, "an thro": 9508, "famili ar</w>": 9509, "wa it": 9510, "ch ile</w>": 9511, "depre ssion</w>": 9512, "la x</w>": 9513, "je ts</w>": 9514, "le ice": 9515, "recei ves</w>": 9516, "si er": 9517, "an k</w>": 9518, "de x": 9519, "inde ed</w>": 9520, "fle xi": 9521, "fab ric</w>": 9522, "lam b</w>": 9523, "hel icop": 9524, "am anda</w>": 9525, "\u00e2\u0122\u0136 \u00e2\u0122\u0136": 9526, "compe te</w>": 9527, "sn ack</w>": 9528, "techno logies</w>": 9529, "sy rian</w>": 9530, "mom s</w>": 9531, "mu ham": 9532, "cho sen</w>": 9533, "an at": 9534, "dev on</w>": 9535, "shar ks</w>": 9536, "re t</w>": 9537, "fundra iser</w>": 9538, "selfi es</w>": 9539, "st ations</w>": 9540, "communic ations</w>": 9541, "tennes see</w>": 9542, "tu tor": 9543, "ro t": 9544, "valu able</w>": 9545, "dynam ic</w>": 9546, "nur se</w>": 9547, "i ed</w>": 9548, "earth quake</w>": 9549, "deser ved</w>": 9550, "a ve": 9551, "sar a</w>": 9552, "stre tch</w>": 9553, "dougla s</w>": 9554, "ne pal</w>": 9555, "\u00c3 \u00a7": 9556, "ob viously</w>": 9557, "d ame</w>": 9558, "ra pe</w>": 9559, "any body</w>": 9560, "k w": 9561, "pat rol</w>": 9562, "hol ders</w>": 9563, "h anna</w>": 9564, "info graphic</w>": 9565, "ec o</w>": 9566, "be ating</w>": 9567, "stan ley</w>": 9568, "bo ats</w>": 9569, "ri bb": 9570, "e z": 9571, "wit ch</w>": 9572, "inv a": 9573, "ac id</w>": 9574, "boar ding</w>": 9575, "- @</w>": 9576, "gi l</w>": 9577, "da ve": 9578, "care ers</w>": 9579, "opp os": 9580, "l loy": 9581, "in ter</w>": 9582, "do pe</w>": 9583, "re su": 9584, "j agu": 9585, "sh ade</w>": 9586, "in dy</w>": 9587, "on ist</w>": 9588, "rel ations</w>": 9589, "ag en": 9590, "ab le": 9591, "inci dent</w>": 9592, "me ter</w>": 9593, "shar ma</w>": 9594, "id r</w>": 9595, "pro ve</w>": 9596, "immedi ately</w>": 9597, "tro ops</w>": 9598, "am an</w>": 9599, "g low</w>": 9600, "gaz a</w>": 9601, "blo cks</w>": 9602, "person al": 9603, "chron ic": 9604, "all er": 9605, "si d": 9606, "sh r": 9607, "whats app</w>": 9608, "lu cy</w>": 9609, "ar chae": 9610, "ho u</w>": 9611, "journ alism</w>": 9612, "our selves</w>": 9613, "go t": 9614, "the med</w>": 9615, "shap ed</w>": 9616, "we ak</w>": 9617, "cas ual</w>": 9618, "leng th</w>": 9619, "sla m</w>": 9620, "ab bey</w>": 9621, "e v</w>": 9622, "coun ter": 9623, "est a</w>": 9624, "reci pi": 9625, "cha pel</w>": 9626, "expan sion</w>": 9627, "sel f": 9628, "suff ering</w>": 9629, "sp ice</w>": 9630, "n z": 9631, "sp art": 9632, "desp er": 9633, "boo king</w>": 9634, "quart ers</w>": 9635, "y on": 9636, "\u00f0\u0141\u0134 \u0139": 9637, "p k": 9638, "continu ed</w>": 9639, "- #</w>": 9640, "man hatt": 9641, "tal ked</w>": 9642, "sh en": 9643, "com bo</w>": 9644, "hybri d</w>": 9645, "je ans</w>": 9646, "liqu id</w>": 9647, "se al</w>": 9648, "re tweets</w>": 9649, "ac celer": 9650, "collec tive</w>": 9651, "t as</w>": 9652, ": ))</w>": 9653, "profession als</w>": 9654, "ra w": 9655, "o tt": 9656, "su san</w>": 9657, "ir ing</w>": 9658, "okla homa</w>": 9659, "re ven": 9660, "survi val</w>": 9661, "cre ator</w>": 9662, "tran sit</w>": 9663, "st ac": 9664, "sur f": 9665, "i k</w>": 9666, "ed iting</w>": 9667, "ch illing</w>": 9668, "bai ley</w>": 9669, "ste al</w>": 9670, "ra ble</w>": 9671, "pa rent</w>": 9672, "hun ger</w>": 9673, "sn app": 9674, "collec t</w>": 9675, "philos oph": 9676, "dedic ation</w>": 9677, "c f": 9678, "c m": 9679, "le ep</w>": 9680, "repe at</w>": 9681, "re ha": 9682, "un fortun": 9683, "a er": 9684, "a ero": 9685, "abstr act</w>": 9686, "mon itor</w>": 9687, "ag ents</w>": 9688, "bu l</w>": 9689, "sci ence": 9690, "harb or</w>": 9691, "drag ons</w>": 9692, "floo ding</w>": 9693, "ac compli": 9694, "d ash</w>": 9695, "juli a</w>": 9696, "the red</w>": 9697, "tues day": 9698, "cy ber</w>": 9699, "b low</w>": 9700, "ta ined</w>": 9701, "le m": 9702, "refe rence</w>": 9703, "pp o</w>": 9704, "ne goti": 9705, "char le": 9706, "con nor</w>": 9707, "au lt</w>": 9708, "access ories</w>": 9709, "commissi oner</w>": 9710, "rain y</w>": 9711, "re ar</w>": 9712, "advis ory</w>": 9713, "luc as</w>": 9714, "ma id</w>": 9715, "co al": 9716, "k av": 9717, "pol o</w>": 9718, "\u00f0\u0141\u0131 \u00be": 9719, "tran sport": 9720, "mar gare": 9721, "straw berry</w>": 9722, "bur ns</w>": 9723, "gre ens</w>": 9724, "ne v": 9725, "partici pants</w>": 9726, "col in</w>": 9727, "belgi um</w>": 9728, "col our": 9729, "in form": 9730, "d ell</w>": 9731, "br on</w>": 9732, "cal y": 9733, "kick off</w>": 9734, "strate gic</w>": 9735, "re union</w>": 9736, "hon ors</w>": 9737, "li b": 9738, "egy p": 9739, "\u00e2\u0143\u0132 \u00ef\u00b8\u0131</w>": 9740, "hy po": 9741, "si zes</w>": 9742, "regi stered</w>": 9743, "bet es</w>": 9744, "relax ing</w>": 9745, "bloo m</w>": 9746, "inten se</w>": 9747, "valent ines</w>": 9748, "insan e</w>": 9749, "w wii</w>": 9750, "p x</w>": 9751, "tri o</w>": 9752, "bla de</w>": 9753, "wiscon sin</w>": 9754, "con e</w>": 9755, "plat in": 9756, "ali ze</w>": 9757, "ra ven": 9758, "incre asing</w>": 9759, "indi ans</w>": 9760, "il ian</w>": 9761, "bl u</w>": 9762, "rabb it</w>": 9763, "exten sion</w>": 9764, "je f": 9765, "au di</w>": 9766, "fer ry</w>": 9767, "s ell": 9768, "a day</w>": 9769, "us b</w>": 9770, "swe at": 9771, "cham pag": 9772, "metho d</w>": 9773, "mem ph": 9774, "assi st</w>": 9775, "s by</w>": 9776, "ca pe": 9777, "remo ved</w>": 9778, "mag n": 9779, "v t</w>": 9780, "r ams</w>": 9781, "f bi</w>": 9782, "tack le</w>": 9783, "phe w</w>": 9784, "h on</w>": 9785, "motor cycle</w>": 9786, "su spec": 9787, "eleph ant</w>": 9788, "sub ject</w>": 9789, "let te</w>": 9790, "da iry</w>": 9791, "whe at</w>": 9792, "awk ward</w>": 9793, "ac t": 9794, "tro l": 9795, "mit ted</w>": 9796, "zay n</w>": 9797, "sheri ff</w>": 9798, "ene my</w>": 9799, "con s</w>": 9800, "ke tt</w>": 9801, "bul ls</w>": 9802, "ev alu": 9803, "bt c</w>": 9804, "satell ite</w>": 9805, "ho lo": 9806, "por ter</w>": 9807, "dia betes</w>": 9808, "bet ter": 9809, "rele asing</w>": 9810, "sur f</w>": 9811, ": -</w>": 9812, "se basti": 9813, "collec ting</w>": 9814, "en cing</w>": 9815, "e thi": 9816, "go ds</w>": 9817, "al ley</w>": 9818, "health y": 9819, "m ills</w>": 9820, "sma sh</w>": 9821, "co pper</w>": 9822, "cr ack</w>": 9823, "read ers</w>": 9824, "sp ac": 9825, "licen se</w>": 9826, "bas ket</w>": 9827, "bang la": 9828, "en tic</w>": 9829, "om i</w>": 9830, "m ere</w>": 9831, "si vely</w>": 9832, "anim ation</w>": 9833, "lan es</w>": 9834, "dent ally</w>": 9835, "chill in</w>": 9836, "fi e</w>": 9837, "k aren</w>": 9838, "dep th</w>": 9839, "li pse</w>": 9840, "n g": 9841, "ri p": 9842, "mel o": 9843, "sand y</w>": 9844, "\u00f0\u0141\u0133\u0131 \u00f0\u0141\u0133\u0131": 9845, "vin cent</w>": 9846, "nu t": 9847, "hu g</w>": 9848, "who le": 9849, "cre ates</w>": 9850, "? ???</w>": 9851, "\u00e2\u013f\u00a4\u00ef\u00b8\u0131 \u00e2\u013f\u00a4\u00ef\u00b8\u0131</w>": 9852, "bak ed</w>": 9853, "up grade</w>": 9854, "rober ts</w>": 9855, "har a</w>": 9856, "carib bean</w>": 9857, "auth entic</w>": 9858, "mb s</w>": 9859, "mosco w</w>": 9860, "attor ney</w>": 9861, "wi ki": 9862, "ch lo": 9863, "hu ll</w>": 9864, "cor k</w>": 9865, "\" !</w>": 9866, "sty lish</w>": 9867, "\u00f0\u0141\u0135\u00b8 :</w>": 9868, "di ary</w>": 9869, "impro ving</w>": 9870, "ex pand": 9871, "bri ght": 9872, "pollu tion</w>": 9873, "k nights</w>": 9874, "person ality</w>": 9875, "chec ked</w>": 9876, "fac ilities</w>": 9877, "z el": 9878, "bow ling</w>": 9879, "gu er": 9880, "\u00f0\u0141\u0130 \u0124</w>": 9881, "on going</w>": 9882, "un its</w>": 9883, "hoo k</w>": 9884, "be ck</w>": 9885, "confl ict</w>": 9886, "to dd": 9887, "far ming</w>": 9888, "educ ational</w>": 9889, "k ak": 9890, "cla y": 9891, "stro ke</w>": 9892, "bel ly</w>": 9893, "explo re": 9894, "mill enni": 9895, "th m</w>": 9896, "loo p</w>": 9897, "sm s</w>": 9898, "consi st": 9899, "cir ca</w>": 9900, "br yan</w>": 9901, "d ab": 9902, "youn ger</w>": 9903, "soli dar": 9904, "pp a</w>": 9905, "experi enced</w>": 9906, "b ella</w>": 9907, "bo ard": 9908, "shef field</w>": 9909, "steph en": 9910, "consu mer</w>": 9911, "sub mit</w>": 9912, "spon sor": 9913, "t ang": 9914, "ag gre": 9915, "comb ined</w>": 9916, "trac king</w>": 9917, "sand ers</w>": 9918, "b az": 9919, "survi ve</w>": 9920, "fer red</w>": 9921, "equ al</w>": 9922, "se p</w>": 9923, "re ed</w>": 9924, "str ong": 9925, "priv acy</w>": 9926, "st ap": 9927, "un g": 9928, "ac ry": 9929, "pa sta</w>": 9930, "pir ates</w>": 9931, "ag er</w>": 9932, "fair y</w>": 9933, "du p</w>": 9934, "introduc ed</w>": 9935, "wi p</w>": 9936, "let s": 9937, "spr ay</w>": 9938, "\u00f0\u0141\u0135 \u00ba</w>": 9939, "gre w</w>": 9940, "a sts</w>": 9941, "pitts burgh</w>": 9942, "new york</w>": 9943, "jo ey</w>": 9944, "lau ren": 9945, "tra de": 9946, "ch op": 9947, "pi pe</w>": 9948, "cla ire</w>": 9949, "behavi or</w>": 9950, "v ap": 9951, "cre ws</w>": 9952, "lap top</w>": 9953, "\u00f0\u0141\u00a4 \u0139</w>": 9954, "che ster": 9955, "disci pl": 9956, "d f</w>": 9957, "out doors</w>": 9958, "k s": 9959, "go ver": 9960, "super star</w>": 9961, "cas ino</w>": 9962, "far mer</w>": 9963, "; -)</w>": 9964, "re turned</w>": 9965, "\u00f0\u0141\u0131 \u012a</w>": 9966, "ma il": 9967, "roa sted</w>": 9968, "co sta</w>": 9969, "v ill": 9970, "pe z</w>": 9971, "gard ening</w>": 9972, "distribu tion</w>": 9973, "sh ining</w>": 9974, "inve stors</w>": 9975, "ra sp": 9976, "dec ades</w>": 9977, "reali zed</w>": 9978, "bar n": 9979, "p ti</w>": 9980, "st able</w>": 9981, "ut d</w>": 9982, "pan thers</w>": 9983, "m ens</w>": 9984, "b n": 9985, "ca de": 9986, "bu cket</w>": 9987, "yn n</w>": 9988, "when ever</w>": 9989, "wa ke": 9990, "da is": 9991, "ber nie</w>": 9992, "lo dge</w>": 9993, "ju lie</w>": 9994, "atmo sphere</w>": 9995, "\u00f0\u0141\u013a\u013a \u00f0\u0141\u013a\u013a</w>": 9996, "major ity</w>": 9997, "par ti": 9998, "exc it": 9999, "cu t": 10000, "me h": 10001, "musli ms</w>": 10002, "be gun</w>": 10003, "fli ghts</w>": 10004, "vene ss</w>": 10005, "ce me": 10006, "po sing</w>": 10007, "so le": 10008, "g ou": 10009, "dark ness</w>": 10010, "pe ach": 10011, "cel tic</w>": 10012, "auth ority</w>": 10013, "grand ma</w>": 10014, "ful ness</w>": 10015, "smi th": 10016, "speci fic</w>": 10017, "gar cia</w>": 10018, "co ins</w>": 10019, "good ness</w>": 10020, "aldu b": 10021, "recru iting</w>": 10022, "den nis</w>": 10023, "gar y": 10024, "sle eve</w>": 10025, "weap on</w>": 10026, "pl z</w>": 10027, "disco ver": 10028, "harri son</w>": 10029, "recruit ment</w>": 10030, "ja i": 10031, "ch im": 10032, "com pared</w>": 10033, "tom s</w>": 10034, "mo thers</w>": 10035, "am y": 10036, "archi ve</w>": 10037, "t ask</w>": 10038, "ben jam": 10039, "se g": 10040, "law yer</w>": 10041, "al um</w>": 10042, "inve sting</w>": 10043, "mi e</w>": 10044, "che z</w>": 10045, "j p</w>": 10046, "a ke": 10047, "fl am": 10048, "wall paper</w>": 10049, "\u00e2\u013b\u00a5 \u00ef\u00b8\u0131</w>": 10050, "t ton</w>": 10051, "che st</w>": 10052, "favor ites</w>": 10053, "we igh": 10054, "coo lest</w>": 10055, "r ating</w>": 10056, "relev ant</w>": 10057, "lo gan</w>": 10058, "ma ple</w>": 10059, "run ners</w>": 10060, "pri or</w>": 10061, "peop le": 10062, "ma ur": 10063, "terrori st</w>": 10064, "te sted</w>": 10065, "carni val</w>": 10066, "su spen": 10067, "me asure</w>": 10068, "m v": 10069, "cyber security</w>": 10070, "app ren": 10071, "terror ism</w>": 10072, "o z": 10073, "v ital</w>": 10074, "ni es</w>": 10075, "gon z": 10076, "fun ded</w>": 10077, "twi st</w>": 10078, "assess ment</w>": 10079, "die sel</w>": 10080, "en for": 10081, "colum n</w>": 10082, "ad dressing</w>": 10083, "ca sts</w>": 10084, "pay ment</w>": 10085, "x ton</w>": 10086, "fi er</w>": 10087, ", '</w>": 10088, "la st": 10089, "ne e</w>": 10090, "un less</w>": 10091, "clo se": 10092, "sk ill</w>": 10093, "cuis ine</w>": 10094, "fun eral</w>": 10095, "ti les</w>": 10096, "a un": 10097, "k ru": 10098, "relation ships</w>": 10099, "\u00f0\u0141\u0134 \u00af": 10100, "ev ent": 10101, "\u00e2\u0122\u012f\u00e2\u013b\u0124 \u00ef\u00b8\u0131</w>": 10102, "kind ness</w>": 10103, "pro posed</w>": 10104, "acou stic</w>": 10105, "a es": 10106, "defen der</w>": 10107, "dan ce": 10108, "h tt": 10109, "w at</w>": 10110, "vo y": 10111, "\u00f0\u0141\u00a4 \u013a": 10112, "au s": 10113, "cli ff</w>": 10114, "sear ching</w>": 10115, "beauti fully</w>": 10116, "in qu": 10117, "at l</w>": 10118, "speci alist</w>": 10119, "\u00f0\u0141\u0132 \u00b6</w>": 10120, "da i</w>": 10121, "tra ils</w>": 10122, "class ics</w>": 10123, "inst ant</w>": 10124, "v ous</w>": 10125, "re venue</w>": 10126, "mar ch": 10127, "kir k": 10128, "fr inge</w>": 10129, "fire works</w>": 10130, "tri via</w>": 10131, "\u00e2\u013a \u0127</w>": 10132, "tr action</w>": 10133, "wal ter</w>": 10134, "mo to": 10135, "l ily</w>": 10136, "att itude</w>": 10137, "cli mb</w>": 10138, "sc an": 10139, "sav ings</w>": 10140, "c w": 10141, "fa ith": 10142, "cred its</w>": 10143, "ab led</w>": 10144, "gra ff": 10145, "auto graph": 10146, "he he</w>": 10147, "ran ch</w>": 10148, "ha d": 10149, "ro gers</w>": 10150, "\u00f0\u0141\u012e \u00b9</w>": 10151, "f in</w>": 10152, "re qu": 10153, "fol k": 10154, "ad ditional</w>": 10155, "lyn n</w>": 10156, "u ber</w>": 10157, "dol lars</w>": 10158, "lo gic</w>": 10159, "wor th": 10160, "so m</w>": 10161, "the sis</w>": 10162, "p ound</w>": 10163, "bi c</w>": 10164, "st ur": 10165, "cer am": 10166, "spen cer</w>": 10167, "en tered</w>": 10168, "v amp": 10169, "organi zed</w>": 10170, "\u00e2\u013e \u012a": 10171, "pp s</w>": 10172, "tr on</w>": 10173, "merce des</w>": 10174, "no ti": 10175, "compet itive</w>": 10176, "do w</w>": 10177, "ous ness</w>": 10178, "vic tor</w>": 10179, "gr illed</w>": 10180, "na i</w>": 10181, "pu tin</w>": 10182, "ab ra": 10183, "bl ame</w>": 10184, "alex and": 10185, "anim al": 10186, "dec ent</w>": 10187, "p ent": 10188, "inter ior": 10189, ":' )</w>": 10190, "but ler</w>": 10191, "bal let</w>": 10192, "\u00f0\u0141\u0134 \u0136</w>": 10193, "albu ms</w>": 10194, "down s</w>": 10195, "la d</w>": 10196, "si r": 10197, "pla in</w>": 10198, "p ers</w>": 10199, "blon de</w>": 10200, "dis c</w>": 10201, "paki stan": 10202, "se ment</w>": 10203, "ga a</w>": 10204, "w age</w>": 10205, "ch as": 10206, "man i</w>": 10207, "co ps</w>": 10208, "terr it": 10209, "lo l": 10210, "lau ghter</w>": 10211, "ri vers</w>": 10212, "magnific ent</w>": 10213, "lam p</w>": 10214, "w b": 10215, "new sle": 10216, "char ts</w>": 10217, "ble ssing</w>": 10218, "p unch</w>": 10219, "lon gest</w>": 10220, "fl oral</w>": 10221, "cu tie</w>": 10222, "fare well</w>": 10223, "sto pping</w>": 10224, "mb b</w>": 10225, "bu d</w>": 10226, "chee se": 10227, "de cla": 10228, "si m</w>": 10229, "mc donald</w>": 10230, "de ter": 10231, "you th": 10232, "t ch": 10233, "fre der": 10234, "kin dle</w>": 10235, "fer n": 10236, "at or": 10237, "as leep</w>": 10238, "p ond</w>": 10239, "spr int</w>": 10240, "p ounds</w>": 10241, "la zy</w>": 10242, "gh e": 10243, "fundra ising</w>": 10244, "dead ly</w>": 10245, "gran de</w>": 10246, "dou g</w>": 10247, "he y": 10248, "lin da</w>": 10249, "consi dering</w>": 10250, "i um</w>": 10251, "gol den": 10252, "vi k": 10253, "auth ors</w>": 10254, "di ss": 10255, "u ally</w>": 10256, "appropri ate</w>": 10257, "mor ning": 10258, "y le</w>": 10259, "hon oring</w>": 10260, "foli o</w>": 10261, "be c</w>": 10262, "re bec": 10263, "fin land</w>": 10264, "formu la</w>": 10265, "corn wall</w>": 10266, "sh ay": 10267, "cau sing</w>": 10268, "bl end</w>": 10269, "sig nal</w>": 10270, "t ent</w>": 10271, "kash mir</w>": 10272, "nation als</w>": 10273, "har mony</w>": 10274, "sc out</w>": 10275, "acce ssi": 10276, "he ight</w>": 10277, "medi eval</w>": 10278, "impro vement</w>": 10279, "ke es</w>": 10280, "prac tical</w>": 10281, "car d": 10282, "de par": 10283, "hu n</w>": 10284, "om ing</w>": 10285, "cal gary</w>": 10286, "ste l</w>": 10287, "bu bble</w>": 10288, "gur u</w>": 10289, "ma h</w>": 10290, "unex pe": 10291, "n h</w>": 10292, "ed a</w>": 10293, "me at": 10294, "i ge</w>": 10295, "si o</w>": 10296, "god dess</w>": 10297, "in ches</w>": 10298, "tun es</w>": 10299, "br itt": 10300, "sti on</w>": 10301, "ra j</w>": 10302, "\u00e2\u013b \u00ab</w>": 10303, "mer cy</w>": 10304, "\u00f0\u0141\u0134 \u013a</w>": 10305, "sen ds</w>": 10306, "i est</w>": 10307, "pol ici": 10308, "val e</w>": 10309, "reduc ed</w>": 10310, "as ap</w>": 10311, "vi jay</w>": 10312, "defen sive</w>": 10313, "celebr ations</w>": 10314, "ri ders</w>": 10315, "med itation</w>": 10316, "har mon": 10317, "g ing": 10318, "\u00c2 \u00a1</w>": 10319, "program ming</w>": 10320, "in au": 10321, "sud den": 10322, "m h</w>": 10323, "replac ement</w>": 10324, "sk u": 10325, "j ar</w>": 10326, "gra des</w>": 10327, "ta st": 10328, "k itt": 10329, "brand ing</w>": 10330, "k aw": 10331, "boo t": 10332, "f ought</w>": 10333, "p ays</w>": 10334, "g f</w>": 10335, "iz ation</w>": 10336, "ho p": 10337, "k k</w>": 10338, "activi st</w>": 10339, "v end": 10340, "coast al</w>": 10341, "cha os</w>": 10342, "\u00f0\u0141\u0136 \u00b4</w>": 10343, "se me": 10344, "bill board</w>": 10345, "li fting</w>": 10346, "cu mb": 10347, "sc al": 10348, "\u00f0\u0141\u0138 \u00a4</w>": 10349, "stru ck</w>": 10350, "l v": 10351, "indie dev</w>": 10352, "beat en</w>": 10353, "jun gle</w>": 10354, "al right</w>": 10355, "destin y</w>": 10356, "m ing": 10357, "k c": 10358, "ch ances</w>": 10359, "om an</w>": 10360, "q atar</w>": 10361, "cra f": 10362, "tra ined</w>": 10363, "pri x</w>": 10364, "char m</w>": 10365, "o tive</w>": 10366, "s mu": 10367, "e c</w>": 10368, "and ers</w>": 10369, "hand ed</w>": 10370, "al ban": 10371, "certain ly</w>": 10372, "arri ving</w>": 10373, "i ze</w>": 10374, "sa i</w>": 10375, "tr ack": 10376, "pain ter</w>": 10377, "hu mble</w>": 10378, "appo intment</w>": 10379, "head line</w>": 10380, "manag ing</w>": 10381, "mo d</w>": 10382, "as pe": 10383, "andre a</w>": 10384, "\u00c3 \u00a4": 10385, "ethi op": 10386, "un ited": 10387, "exi st": 10388, "bal i</w>": 10389, "k ad": 10390, "n t": 10391, "d red</w>": 10392, "re x</w>": 10393, "recogni ze</w>": 10394, "tam pa</w>": 10395, "be ers</w>": 10396, "ati a</w>": 10397, "he els</w>": 10398, "no te": 10399, "transport ation</w>": 10400, "tur tle</w>": 10401, "re de": 10402, "hipho p</w>": 10403, "sp icy</w>": 10404, "sp urs</w>": 10405, "\u00e2\u00ac \u0129": 10406, "cor p</w>": 10407, "ther n": 10408, "to ast</w>": 10409, "hur ry</w>": 10410, "proper ties</w>": 10411, "ma ge</w>": 10412, "mar co</w>": 10413, "ele ments</w>": 10414, "bou ti": 10415, "syn drome</w>": 10416, "ms g</w>": 10417, "develop er</w>": 10418, "gra ders</w>": 10419, "he im": 10420, "re sil": 10421, "off ices</w>": 10422, "del ay</w>": 10423, "di men": 10424, "vin tag": 10425, "barbar a</w>": 10426, "\u00f0\u0141\u013a \u00b1": 10427, "vene zu": 10428, "cu lar</w>": 10429, "fac ed</w>": 10430, "bar n</w>": 10431, "\u00f0\u0141\u013a \u0128</w>": 10432, "survi vor</w>": 10433, "wor m</w>": 10434, "confu sed</w>": 10435, "passion ate</w>": 10436, "\u00d8 \u00b1": 10437, "identi fy</w>": 10438, "electr icity</w>": 10439, "sou ls</w>": 10440, "brad ley</w>": 10441, "repor tedly</w>": 10442, "lun ch": 10443, "shel f</w>": 10444, "eli a</w>": 10445, "swee t": 10446, "smoo th": 10447, "emplo yment</w>": 10448, "am el</w>": 10449, "manhatt an</w>": 10450, "ste am": 10451, "oun ts</w>": 10452, "ye p</w>": 10453, "li ving": 10454, "un e</w>": 10455, "descri be</w>": 10456, "ca res</w>": 10457, "man ila</w>": 10458, "sha wn</w>": 10459, "ac ted</w>": 10460, "bas h</w>": 10461, "st even": 10462, "re st": 10463, "pet ition</w>": 10464, "div ine</w>": 10465, "wel sh</w>": 10466, "rac e": 10467, "platin um</w>": 10468, "\u00f0\u0141\u012e \u00b8</w>": 10469, "p b</w>": 10470, "extra ordinary</w>": 10471, "solidar ity</w>": 10472, "m all": 10473, "on ion</w>": 10474, "schedu led</w>": 10475, "game of": 10476, "fer gu": 10477, "de ms</w>": 10478, "nor m": 10479, "p k</w>": 10480, "tri als</w>": 10481, "polici es</w>": 10482, "publi shing</w>": 10483, "st ole</w>": 10484, "fron t": 10485, "charac ter": 10486, "van ia</w>": 10487, "ex ce": 10488, "sti e</w>": 10489, "sc a</w>": 10490, "resi dential</w>": 10491, "sa iling</w>": 10492, "\u00f0\u0141\u0136\u00a5\u00f0\u0141\u0136\u00a5 \u00f0\u0141\u0136\u00a5</w>": 10493, "spons ors</w>": 10494, "th ick</w>": 10495, "champag ne</w>": 10496, "she pher": 10497, "continu ing</w>": 10498, "ven ice</w>": 10499, "per th</w>": 10500, "na p</w>": 10501, "a ster": 10502, "y ak": 10503, "un limited</w>": 10504, "cho ices</w>": 10505, "ne o</w>": 10506, "hi v</w>": 10507, "repor ter</w>": 10508, "bru ssels</w>": 10509, "f old</w>": 10510, "dy s": 10511, "se mi": 10512, "la wn</w>": 10513, "it alia</w>": 10514, "wi fi</w>": 10515, "as k": 10516, "em ed</w>": 10517, "fr ame": 10518, "monit oring</w>": 10519, "ste ad</w>": 10520, "i da": 10521, "gr in": 10522, "is a": 10523, "fli p</w>": 10524, "re stric": 10525, "offen sive</w>": 10526, "atta ched</w>": 10527, "di sh": 10528, "wh y": 10529, "philli ps</w>": 10530, "gre et": 10531, "p als</w>": 10532, "mix tape</w>": 10533, "v ou": 10534, "fiel der</w>": 10535, "spar k</w>": 10536, "alber ta</w>": 10537, "g len</w>": 10538, "ca sh": 10539, "s ri": 10540, "u ri": 10541, "ro dri": 10542, "entreprene urs</w>": 10543, "climate change</w>": 10544, "p sy</w>": 10545, "d le": 10546, "em ents</w>": 10547, "lin ked</w>": 10548, "nether lands</w>": 10549, "acci dentally</w>": 10550, "oppos ition</w>": 10551, "vel vet</w>": 10552, "ra ys</w>": 10553, "c w</w>": 10554, "om o</w>": 10555, "m f</w>": 10556, "lmfa o</w>": 10557, "newsle tter</w>": 10558, ": )": 10559, "toi let</w>": 10560, "liter ature</w>": 10561, "di sp": 10562, "phili p</w>": 10563, "uni form</w>": 10564, "sudden ly</w>": 10565, "head er</w>": 10566, "cool er</w>": 10567, "-- -</w>": 10568, "prou d": 10569, "bri g": 10570, "nis san</w>": 10571, "scienti st</w>": 10572, "j ah</w>": 10573, "con centr": 10574, "pac ks</w>": 10575, "appo inted</w>": 10576, "so ap</w>": 10577, "eng age</w>": 10578, "cho se</w>": 10579, "\u00e2\u013b \u00a1": 10580, "se tup</w>": 10581, "jeal ous</w>": 10582, "har ry": 10583, "g ation</w>": 10584, "tun nel</w>": 10585, "te mp</w>": 10586, "osc ars</w>": 10587, "dec ade</w>": 10588, "recomm ended</w>": 10589, "child ren": 10590, "ab a</w>": 10591, "anxi ety</w>": 10592, "ve ments</w>": 10593, "sal on</w>": 10594, "pho too": 10595,
[...]
